grie
rebuild
20s
ellis
woody
anaheim
##copeck
burnley
tops
refit
ع
fifteen
ჺ
penetrate
bulbs
##rine
duc
web
##fowl
rodney
approved
sensor
vegetarian
##ulse
239
rodrigues
kum
genesis
tech
##hall
taste
sunlight
legitimate
rerout
##omac
fill
negatively
disl
tombs
crashes
binding
peninsular
berger
##let
nomen
mutual
niss
reproduction
pom
introduction
##wn
incre
august
sinking
ot
brand
neil
illegally
maritime
spectator
##tles
catching
##herly
willing
ी
tikal
considerably
deg
hann
blues
swing
posthumously
##urek
undam
martin
armenia
neural
coastline
constant
furt
##esc
cib
cleveland
evacuated
ridiculous
downloadable
lincoln
##mot
tower
fuj
sibu
niches
apples
publicity
adir
rave
traverse
pub
battlec
by
hume
##ac
bacter
classmate
inaugural
##eli
signal
handed
##oit
##uke
##ific
蓮
##iers
##ɣ
breakaway
feat
##ᄒ
##sud
sarnia
purchased
hou
vaudeville
##anking
##osure
potent
な
laurent
huffington
##inth
1815
partition
disguise
nr
##utsu
wasn
squads
asserts
耳
acap
##era
authorizing
psychiatric
mum
moth
##insic
##onents
homicide
innoc
emotions
shutout
stiff
cartoonist
carcass
tor
sioux
crin
##xide
unnecess
swimmer
terrain
##bow
##quer
ʿ
cooking
critique
caesar
banc
landsc
gaud
guatem
##regon
carth
belie
simultaneously
conn
introdu
ܐ
allow
copern
lecture
tuesday
##othed
aryan
offerings
##ston
fires
legacy
calibre
october
##alysis
##fast
##aldi
exceptional
|
appearances
deutsc
dialogues
philharmon
henn
extras
sp
gut
method
brisbane
doub
distinctive
bombarded
##aire
adaptation
chie
virtues
##an
duo
dip
sensitivity
avatar
##spoken
invisible
differentiated
degrees
##asc
scorp
##pp
##ondo
categorized
##brook
twitter
##cr
troubled
##r
pinter
##loading
concerto
vim
gelatin
datab
##urance
isn
kaplan
profiles
jellyfish
humph
##ods
persuaded
resides
lunch
a6
seas
collective
lauder
เ
nebraska
##ﬁ
##oba
knows
##ˌ
clas
compens
cullen
##00
onstage
1892
spontaneous
downey
biographers
amy
blanc
oliv
1972
qualities
suits
coy
wright
peacefully
breat
grap
palin
##aston
nina
##lec
seat
bd
##alty
chosen
content
formed
convicted
##acks
involving
高
je
dodge
jacobs
##antic
whitehall
algae
##inum
boat
##ime
economic
debated
ecological
ridic
acoustic
condemned
braathens
serving
kathleen
popmatters
alumni
globular
lesnar
mps
徳
cousin
##ص
virt
motives
cleanup
reasoned
rating
sent
travelling
magnitude
eno
##oca
lumber
fumble
##ithers
##ittle
emphasized
meh
kings
tass
##endale
##dong
intercol
doctrine
##rah
##olf
inflict
costs
jay
midfielder
##assa
bree
stellar
hurricanes
bulk
pavilion
maguire
merely
empress
##pless
reservoirs
trevor
##iat
2017
arbitrary
sympathies
contributed
##point
goeb
ο
##unde
1905
m2
inex
territorial
interpreter
subsidiaries
intensely
##atore
protactinium
thirteenth
architects
ア
hezbollah
##iop
gambling
sovereignty
₣
screens
diaries
furnished
##cote
vladimir
astronauts
tib
overha
undefeated
enric
##rence
##entially
joanna
reagan
ɟ
marrying
##ricate
standpoint
societal
##ications
enem
##uations
murasaki
easy
ա
melody
##rift
ww
pujols
zack
significant
1833
loft
cil
vit
dismissal
monograph
lady
skiers
inning
ny
portion
australian
rumoured
posing
depict
##plan
marcus
carries
roar
mates
wolverines
leno
会
1860
diminished
reigns
##aw
specter
604
occup
ring
##ᆰ
metamorph
transf
organised
lease
##30
members
taxa
##emu
estab
1800s
benef
ramps
##orah
smell
80s
##onson
##olis
hors
cast
static
##ani
shields
presence
##world
retrieved
overmind
susquehanna
##vana
elimination
arnold
originating
vid
##beth
tawny
parsons
volunteers
津
chakot
institutional
##uck
boil
spher
publicized
manifest
recalls
##oque
do
levin
xv
continuation
rodgers
wintering
lowland
magist
semif
danish
worcestershire
uncomfort
name
scarce
optional
##mal
superman
##akr
##hell
consens
toy
skir
registered
sub
messages
vulgar
kimber
asteroid
##bows
slipped
greatest
##icable
##aved
2
incompatible
domes
decreased
ens
mesa
kennedy
caric
enlist
##ichilemu
programming
##ame
assertion
argues
##pring
babyl
resett
career
ƥ
##oster
calling
##kus
madison
passes
sites
harvested
preservation
727
permitted
##hester
fantas
##kas
##d
cycl
others
##iche
weir
פ
petro
prelude
##esis
##ateral
glee
span
懷
reds
offset
##ust
delonge
mckenzie
propaganda
johans
compete
believe
arctic
councillors
char
avian
arrangement
energetic
relic
之
bir
deliberate
overcast
interpretation
##obee
ranking
mu
sandwich
±
purchasing
commuter
##olulu
philos
bain
vertebrates
chloe
desk
willy
mete
##oos
triangular
ز
santana
870
buyers
vas
master
##ィ
cz
ragn
ells
bamb
##omans
horns
##olia
1983
shoulders
disintegr
##ima
reed
lodged
supportive
schneider
runoff
halloran
disreg
frog
##ն
topped
farmers
##ア
reinc
##rogr
annapolis
ngu
##otyp
อ
hyde
##ereza
downs
edmonton
compact
agre
##augh
##boys
68
##ք
headline
love
##ippers
prominence
mccool
##et
pouring
resc
natur
か
1919
upbeat
##ouch
##ampa
medieval
unsu
abnormalities
##onies
ur
blockade
##atical
bangladesh
spokes
reservation
candy
##iences
extant
beit
##oriasis
luna
lafayette
barber
maintains
numb
johann
dial
ne
mccall
devon
themes
མ
with
beloved
dissol
serialized
kw
##atibility
lond
raise
comeback
##wicks
broadside
oliver
africans
##anted
##bis
controls
universal
guarded
##itations
vandalism
##ically
wesleyan
##ʰ
microph
forbidding
expressions
celebrations
##wick
subordinates
mids
##ago
sponsorship
genuinely
balancing
harun
utterly
cron
光
volunteered
indefinitely
praising
security
##న
fis
rest
literature
rebirth
gregg
chadderton
mckin
hindus
##imes
dustin
villeneuve
##oper
blond
inequality
postc
##85
fin
comparisons
marseille
practition
##midt
207
fashionable
##oney
##idium
##ining
apr
fight
guerrilla
kashmir
booster
move
vice
noisy
logan
pleistocene
羽
appointed
##flin
##cester
mermaid
spoke
セ
flem
##ere
empt
mating
tea
fold
rules
memphis
clinics
##jed
macbeth
learn
mcc
##ologies
snout
balls
caucus
anchorage
sugg
kuwait
##kiss
cup
perfection
codes
guide
##abo
seag
sustainability
zealand
whilst
sediments
contrace
our
potato
##accept
ret
##た
comfort
sox
deborah
m1
consolidate
cantatas
term
neolithic
osaka
byrds
kud
##onic
painting
leopold
##etto
##urray
extraordinary
mered
medium
wield
approximately
paranormal
orchestra
days
banjo
zu
succession
cohes
highlight
##ょ
rapid
##bil
parth
administrative
reducing
ช
湖
syn
abstract
rudder
christians
alumn
comes
sear
##aku
divor
terrace
grandeur
club
ミ
albanian
##anth
morp
##forth
submar
##te
stealing
center
alc
diane
##oder
enforce
##ione
oppen
speaking
calcutta
cep
fraud
##ข
smet
thwart
tenure
##atories
taek
equal
seymour
hungary
azores
stadium
undercover
auction
charismatic
sug
upset
##burgh
measured
dunn
fanc
brah
renewed
vene
research
eust
acres
governance
##uably
plug
twilight
ausp
advancement
tricks
##rades
awful
certific
revel
culprit
requires
rang
scary
capital
yuri
yorker
locals
##ordination
##р
clockwise
naw
##oine
siber
weaving
##igs
unharmed
inund
reson
monetary
assured
krak
namesake
2008
brack
dug
amelia
alumin
blazers
1875
##udge
pre
##7
##na
conven
nah
##teric
##ү
printer
already
lomb
bandmates
loris
regin
flag
randolph
biographical
leicester
belonging
sculpture
##komm
kaja
products
##ued
賦
thanks
apprec
premiered
##olk
gubernatorial
summerslam
extrav
##ajan
citizenship
obedience
alamos
##opic
sale
unlike
taliban
inflammatory
helms
begging
streisand
twins
burroughs
fortun
sexy
gypsy
30
fert
stability
consider
##recht
fixed
autism
##hail
bases
152
replicate
decent
parasites
##itaries
esoteric
initiating
outgoing
ranch
$
##atis
hitter
times
theat
emigration
coordination
surpr
rigorous
animals
vengeance
##elve
##orb
ะ
shouted
opener
credit
##tiles
kenn
miniature
##ibu
starting
temper
interrupt
yamato
starring
##mn
##ija
##father
astern
matching
uncont
dragonfly
##iforn
gig
nor
##ranged
edgar
republicans
pak
covenant
informal
artillery
##ibles
socially
divert
sensitive
##ough
tracy
funn
life
album
conting
market
##hart
protect
##redited
srin
2020
##ili
hosted
male
defect
authorized
necessitated
favour
useful
##tenance
flann
boliv
##opje
mp
##achy
97
##त
thul
faced
##ಾ
inspir
peaked
flex
barnes
##opter
longer
##व
rio
electrons
bank
instead
chis
jong
rebellions
unspec
##ulf
exclud
##ensions
∞
itoi
keats
##iffer
anticyclone
##say
##uc
winnipeg
ridges
##adysław
infected
##id
mighty
authorization
squ
olga
assembled
allowed
warship
##ropri
one
276
##formation
annexed
flooding
##bald
fland
##ק
##veloped
mathematics
large
spotnitz
golf
tann
ı
leop
##oks
kuzn
insc
cm
##urbed
jacket
longhorns
##rolling
signature
epirus
appl
ferr
extinct
forbes
yeovil
vertebrate
opposite
harps
vivian
thrones
vot
pilgrimage
playboy
tenant
ike
dy
##imir
valued
sop
outdoors
product
cert
tanaka
megadeth
frustrated
garfield
eroded
steal
property
gong
##listed
unh
rainfor
recording
edible
rul
##cm
macne
parat
##come
boyd
spinning
touchdown
overwhelmed
pist
tues
tires
##rition
new
sums
guin
binds
jonathan
unprepared
colder
cataly
sak
preclassic
##ܝ
fifteenth
jtwc
demands
informally
unic
interpreted
km2
maltese
##jon
##utable
perp
prostitute
sif
mirrored
avant
diverged
ability
cid
transatl
resistant
argentine
actor
varying
misunder
flattened
coalition
commended
synagogue
bram
remnant
hey
dar
##ebob
##lem
reddish
development
likelihood
##pse
mathemat
uncle
##ondition
nazi
inscription
warden
rectangular
stom
newborn
guru
course
##initely
##rays
mi
braves
##erville
quartet
changed
pector
wishes
snakes
usher
δ
ʗ
##aph
hinde
##athi
sting
##ellas
mocked
##eenth
songz
##ropod
##ium
transitions
folded
antonio
propellers
links
fulton
##gow
fielder
beatles
approached
##roch
##issioned
##11
fade
rotating
zeros
religiously
joined
attorneys
##cery
publication
##endicular
##changed
roomm
norwood
##elly
mc
ng
swift
廻
fug
spectacular
reputation
##hee
novels
murray
permitting
##isha
##zzle
##ured
##opp
mec
korn
pere
rememb
noting
fungal
berlin
rihanna
led
abundance
shareholders
eri
exaggerated
stephanie
its
auschw
##vor
sabrina
aftermath
impose
martel
sicily
containers
arid
mort
revealed
minus
shortened
##gregor
dragons
parker
commemorate
##ct
boer
capsule
hom
##itian
abundant
beaver
gly
rumble
shine
hidden
smoke
##gender
me
hal
galveston
oswego
##faction
funniest
delaney
##apur
leaking
graham
biblical
雙
glo
##rect
vesta
dicaprio
##ann
##matic
disappearing
##olet
##ei
weapons
##esco
firmly
discont
grounded
widen
intimid
##igi
collaborator
codex
sver
pit
walsh
##osta
fitness
α
##borough
topp
##opsis
favourites
switches
depots
keswick
warhead
kissed
creates
provost
##igibility
paolo
grandchildren
tin
##stown
icelandic
slower
warriors
##opolitan
##iformes
enforcing
proud
##church
hord
scrap
lia
metal
tiff
lashley
##eous
163
komn
gunmen
electric
mercia
antiqu
1up
##ifer
ν
monkeys
vold
rallied
raising
wol
subsidiary
##サ
polish
hebel
symmet
##rip
colise
lansbury
census
millenn
could
с
apocalyptic
pages
caud
denny
cycling
liquor
necessary
como
bout
relating
ricky
##pan
kevin
##ablanc
satis
median
superhe
pras
sandra
oppos
busch
iucn
##wig
migrations
##ice
pretend
insuff
##amura
immersed
骸
##ˠ
##gru
aristotle
proving
##shot
fowler
immig
watt
##oft
cosmopolitan
cases
harding
1771
pollen
maximus
##text
yellowish
##ע
cinem
##boards
jardine
caernarf
immac
kanye
maintaining
secondly
buddh
narvik
analogous
##ael
destruct
predecessors
prague
croat
rs
pollination
##ersion
750
enjoyment
pelopon
numbers
quit
##lining
corpus
##ober
brach
downgraded
satellite
##court
ut
1999
scared
mus
animators
haul
morning
##order
##engers
generator
contracts
anson
leeward
threatened
experience
##rix
jews
emotionally
fatalities
##ala
recipes
mongolian
hodg
prev
carab
migrating
inclus
wain
battlecruiser
planets
attacking
consc
arun
ceiling
construction
##eon
harbor
survived
contaminated
བ
hig
##emi
##カ
stuffed
admiration
err
segment
lego
dorchester
excessively
dah
ү
cab
gaudi
##iard
在
u
stage
csi
acquaintance
earns
##bru
strokes
##ы
broom
##bral
ornamental
contrast
1897
wish
expense
##uated
bloody
analysts
calder
persons
centralized
sweep
adam
insign
johnny
edited
hieroglyph
chaplain
himalayas
wounding
indicating
djokovic
ρ
aspirin
sister
paraly
residence
northwestward
nucle
massive
prix
cyber
novella
##piece
##imm
##hima
recognisable
genetic
petitioned
winged
phyl
skirm
##illary
morn
##isms
sparing
supern
emancipation
educate
##ueger
agreed
##ood
1948
1814
vague
regulatory
buffalo
sunsh
applying
carrick
several
##aun
##ig
genital
languages
1979
timed
compare
villa
zirc
##arts
stucco
139
plot
pursu
tortured
tulsa
##alan
decoy
##equ
hus
surveyed
adopts
##elles
##ve
##din
milhouse
young
civilian
##ridge
kilometers
ciara
freeman
cathedral
##itzer
##ante
受
dolphins
##dow
dominion
greene
ner
aerosmith
rapids
james
strategies
enthusi
inapp
elder
##elsen
objection
##wheel
tribun
##uch
##aine
wave
soprano
unusually
##itha
drier
colombia
flood
##isenau
practitioners
flowers
strangers
angular
valverde
##ayat
facebook
rol
consec
##alt
空
alignment
turb
hallow
130
eng
vertigo
tubercul
film
assures
jap
hist
202
oerl
spider
##watch
##keep
lening
thwarted
fountains
emi
argue
justice
##odynam
ef
failures
thought
##uries
pipes
absol
##liss
##chewan
1800
remix
kirk
45th
##hip
lighter
antisem
##eme
phillies
orphan
serves
obscurity
bufo
##inking
##ety
disregard
gandhi
##orting
researchers
barr
jozef
jbl
mv
costing
disappointed
bonfire
airbus
neglected
ci
patron
touch
mojo
stupid
within
air
wh
##cer
clark
oun
##sters
##here
sout
britney
gallipoli
##utta
encour
coast
remarked
lawn
respite
unspecified
##estyle
guilt
downward
furious
toad
mer
older
rehearsals
chor
inters
##eping
molecules
kink
certificates
mikhail
tissue
laura
secondary
constructing
##ture
monte
pasture
behaviors
langu
##caria
bubbling
##ancy
presided
clayton
beebe
concurrency
##rification
autobiography
##lide
demonstration
bung
sea
customer
reinforced
environmental
1945
still
##orrow
symph
emerald
##sberg
inaccurate
rendez
ork
##ators
manipulate
urg
rim
montage
1809
diff
dunder
hospital
##re
sport
##quis
striker
wells
bohr
acquainted
constraints
assemble
jarvis
upon
johnson
##ivism
synonymous
ʖ
ltd
elemental
narayan
vi
ulys
weigh
boats
entertaining
##inkel
evidently
stunt
rbi
etat
complet
universe
concepts
##awl
##ney
jaff
inverte
78
glowing
maine
unconscious
trustee
ik
emble
##taining
690
tyrann
logical
由
hik
dardanelles
rpg
##illusion
banning
09
stol
##anu
##urai
cindy
places
secre
tests
brain
reperto
cellular
cargo
considerable
bacterial
except
##ilus
幻
drafted
illustrations
cour
ɪ
scrut
##chett
stephens
celtic
mosc
repealed
pa
楽
hok
epidemic
196
amendment
250
asthma
##ovan
deco
wrapped
journalism
我
ditch
sorabji
stranded
passing
escorts
##fl
tennant
yell
estim
æthelstan
typical
philip
spiel
image
##rus
glou
italia
resear
##q
uk
mars
bye
clarified
diversity
deploy
flop
ald
caled
ft
row
hated
confessions
bangui
sejm
wanting
黒
dozens
diagn
##lane
improvement
##ologist
profitable
squares
collection
##uting
erg
leinster
dump
populations
suspected
sire
prices
saff
observatory
fain
qualification
aphrodite
joaquin
mart
why
inadequ
assumes
##amin
kau
clim
population
waterway
nomin
##ifier
brewery
wouldn
savoy
31
##oni
arenas
zoological
##ilee
portis
stret
shrub
第
czechoslovakia
##forts
fraction
bear
2011
amos
consolid
lawsuits
vishnu
sullivan
strings
shouting
foliage
they
negotiations
##neux
extensively
##isal
prosec
erratic
emb
collar
deriv
highlighting
businessman
tenth
tel
##eros
travelled
##rice
nightcl
input
evol
larg
sustain
merch
newspapers
bem
##ener
emission
elites
##ard
##uki
]
posthumous
ܙ
festivities
audio
reunion
reid
shish
loan
idols
apologized
pe
news
bookst
cure
silly
##arta
jan
integer
aesthetics
spared
n
##pherson
lob
penalties
ᅩ
ellen
##ز
##author
pf
##ett
biased
veil
ᆯ
goodbye
mov
##irts
osp
relationships
##atton
giff
##aj
microwave
structured
twelve
intentions
outfitted
depths
safety
##icola
playful
souls
##oh
266
aviv
empir
strict
##ignon
emerged
chromos
counterfe
journalists
230
##j
castro
circumst
shah
##riage
buffy
publications
explosive
likeness
industry
obv
151
intensifying
corrupt
injuring
dramas
galileo
अ
##heny
jess
laid
##tv
meand
bulls
295
ida
contend
government
index
newsletter
##iance
hogwarts
kill
##łka
shrubs
networking
caliph
∆
mississ
nucleus
nicole
000
porn
athletics
1856
hornets
comedies
##west
##areness
##dor
fear
##uber
##aria
##þ
scheduled
almost
glas
path
persona
wess
iroqu
programs
fel
minutes
catap
airways
ingredient
go
bio
##iman
maharishi
outlines
niece
flow
##shi
mortal
undertaken
orbital
##oty
borscht
accounts
##elia
pressures
import
##inkle
##ilibrium
##iny
moly
モ
pricing
hawker
blake
favorite
nicholas
raf
ん
reporter
diminish
pines
rhetoric
decom
summers
throughout
hydroxide
ق
frust
positions
surpass
pah
investors
impression
kerm
coloured
gau
ascend
earthqu
##amese
partnership
broadly
mamm
gospels
bromwich
ambiguity
administration
opinions
ranged
mek
verte
06
ח
undergo
gonzalez
fictional
investigations
muddy
explained
gamec
composer
shirley
##ipper
colle
##ruct
dill
meiji
mill
sins
biffle
mann
total
infrastructure
shaken
戎
rowing
mughal
cia
nirvana
negative
excitement
##aining
spots
##eas
bbc
ru
##kers
287
schoon
spans
rafael
genetically
##arse
gillingham
ni
##ato
##astopol
stretched
brawl
collisions
##ris
greyhound
cylindrical
disembark
mentioning
abroad
illegal
attach
galax
correlation
marcel
erupted
slov
nost
wadi
##abele
##ith
guerrillas
##esting
stru
famous
denver
rebounded
amph
taxes
1688
holt
peirsol
proponent
167
cheering
nig
gale
cancel
captains
brandon
回
views
raul
mussolini
##ble
chocobo
screening
allah
mccar
hymenium
singular
havana
autopsy
##gypt
parcel
paths
##naeus
bending
fellowship
compar
wrestling
##fight
##akes
cy
##ェ
##ections
##atos
##ersch
dunge
attendance
zan
referendum
twisted
interfere
mapping
geological
##ott
plastic
*
hitch
emerges
##itter
substrate
ܥ
evidenced
82
inverse
susceptible
yam
brown
##elight
rider
bever
isabel
rescind
pitchfork
msn
indust
retrospect
regenerate
avoided
160
shadows
##ula
followers
gast
olds
poisonous
##osp
##ior
plague
deepened
extinction
glow
scand
renowned
aerial
closer
##making
brezhn
curs
kil
##zo
till
i
commercially
slant
assemblies
just
ロ
risk
verdict
precip
milford
##itz
whitechapel
shelley
##osis
taylor
leads
ethic
subm
courses
prize
composed
##ongs
55
perch
botanical
##nington
partis
gary
farther
equestrian
brandenburg
medic
transit
native
perpendicular
du
college
atoms
ris
bureaucracy
##mel
consume
mayhem
duration
refurbished
##ide
laughing
adjust
##oris
coral
empty
effective
wild
alloy
polymer
averaged
##ilingual
unpaid
mch
solution
stel
visited
##agh
protects
venus
##antly
##nard
anten
ranks
sb
smugg
##tera
mints
goldberg
separation
gubern
icon
assure
##iken
tweedy
##xual
things
##omic
kingston
liturgy
slaughtered
medall
anch
germanic
##ats
cockroaches
grandfather
uncovered
syndicate
political
keeps
ల
bhar
peta
resol
##erted
ay
riding
rescues
altitudes
東
##alea
chad
inst
lithuan
##ʔ
cartilage
descends
outlined
##oln
12th
sched
announ
eisenhower
best
papal
##isl
э
archde
bedford
interspersed
bron
##atha
##four
visually
##rom
expansion
chur
peck
nominated
crete
dealers
enact
##iantly
lepid
fragmentation
varieties
julie
hered
ln
##asive
incons
dail
intel
sleeps
gerard
ŋ
##oph
clifton
emden
rangers
lm
##pen
harry
sprink
ornithologist
世
##aur
##pal
##riptions
steals
##umes
##eare
epic
immin
shaft
##lif
northumbria
hary
##attinam
verified
roswell
fertil
##ye
vettel
reactors
##body
passion
##gl
establ
outf
idolator
chir
strand
arrow
domesticated
advantages
sween
aleutian
categ
ear
senior
##ingdon
rok
打
firef
rig
tele
##ronic
lissa
##ः
cruises
conceded
society
ank
who
##riff
flynn
carleton
peggy
iowa
damned
suitable
twists
proves
elevation
##ต
##stein
jackson
haun
##olly
##nie
し
posts
usually
bum
flowing
telugu
##ecia
halliday
##human
122
millimeters
##ushu
626
clips
cor
##friend
tents
dele
veget
##da
nationality
##0
bulb
paris
congregations
bounty
cand
destroyed
##ount
##isc
リ
teles
ven
relie
boise
##inescu
indicates
tournaments
exciting
mosqu
scoring
second
treasure
resorts
neon
##oria
goalscor
sara
##estones
pip
##emason
##ongju
198
player
horseback
mori
##umann
foll
russia
1887
elias
roller
avo
hoffman
decline
∈
dao
discon
##andy
abund
griswold
rih
に
##ม
kerr
reactivated
jailed
bishops
organist
##anton
disagreements
hard
nc
1835
commemoration
millions
clem
stra
forear
tuls
claude
provincial
quantities
##que
nee
engraved
##ressive
detection
metrop
slug
warb
stark
relieve
integrated
crop
croy
hire
bm
##for
prairie
##letic
##atus
##ider
captured
tolls
fox
waged
##ause
omega
teams
##ril
borough
canning
and
l
loring
raiders
conceal
posted
abnormal
packs
bride
mult
killing
##hawk
tries
rhodesian
chancery
##ppo
nath
##ello
intensify
toned
##actic
delighted
##ines
##box
acids
blackburn
dept
##unders
culture
whom
##idus
animations
##hers
##took
travis
undef
sg
twist
##ias
misses
contempl
##di
exploited
aide
unit
worcester
near
51
boys
##shire
5th
gase
folio
##sk
##enberg
##ative
##enza
regiment
##ellus
ev
attached
grain
##hammad
photos
ipswich
enzym
##werp
levi
野
##uls
father
systematically
academic
your
3d
lived
charming
##ples
eminem
fresno
cockro
schr
trans
caste
##ysics
aristocracy
##inate
dime
##bridge
藩
million
collects
##itating
numbering
joss
##ᄂ
mfr
sodium
eliminated
holidays
hispaniola
##roots
unkn
gower
wages
apoll
lawler
mast
manufact
harness
sir
91
亜
incidents
amount
consid
##back
installation
walking
declan
##add
decompression
##ville
mesh
##minster
escapes
fascinated
pale
##uba
##anche
combatants
apostles
awaiting
nansouty
paraguay
internet
drunken
feld
record
##utan
commun
traditionally
cous
nuclei
放
dorothy
gujar
##aden
fifth
drilling
pigeon
##gum
wur
rushes
violated
allies
venezuel
terms
इ
grass
stormy
##ী
commons
july
語
##bur
sedimentary
hipper
##obic
eman
bombarding
curtis
##pe
mok
cl
门
amus
pfe
excavated
castles
thank
classrooms
田
ionian
monster
benton
unav
confident
influenza
organisations
squared
11th
rearguard
towers
probe
童
ontar
deliv
reznor
subsc
و
tik
1963
concurrently
lieutenant
melville
sliding
pop
initi
royalists
amp
##iante
charges
ballroom
absorbed
loaded
welling
schen
cones
maturity
undes
:
##ail
parrot
albatross
analytical
frusciante
download
overflow
assisting
nestlings
climate
1917
likes
lacrosse
despatches
exiled
wren
order
adverse
##ular
predecess
rape
synthesizers
##ete
##ox
##ilings
num
truly
##sohn
pont
hispanics
sauc
य
beth
logic
bean
persuade
##apolis
concession
declares
winning
gar
able
mott
citizen
group
##alo
batsmen
##writer
tenor
honeye
muscular
1915
turf
##optera
gay
kepler
grenade
gort
vhs
e
nub
pablo
pet
mortimer
communicate
166
happ
defining
morality
school
elliot
unaware
murdered
##cell
##anian
##grove
cade
##isans
rowley
##ldon
enhancement
upanishad
continu
offences
basement
##itten
shel
permit
concluded
eurasian
refrain
##ots
d
wan
##15
##ician
iuc
mend
lib
dimensional
##ring
640
##mons
neill
##ersham
##inois
rowe
advocacy
unfavorable
215
accorded
loxton
mao
##uffle
irony
wireless
gills
leased
coach
elle
##tham
gt
##adia
riaa
rescue
license
wig
kgb
democratic
maxim
sac
expecting
superior
contingent
dict
amphibious
##vara
chromosomes
assume
grizz
wehrmacht
dat
cha
abb
cutter
##nat
struggled
##dom
acclaim
##ested
irwin
agency
genre
augustine
lilly
troop
robbers
##static
##udi
##enthal
1782
pleaded
desert
uplands
feudal
courty
panhand
##ლ
ranges
funding
njorðr
highlanders
50
grupp
##ensive
volley
severely
generous
pipe
titan
alexander
converted
1863
hand
##ru
##ku
##erto
##mitt
revenues
situations
##emouth
coordinated
lamented
rahman
sophomore
##guard
relationship
consent
trying
revival
hij
strike
slip
##dish
ireland
relocation
anne
102
courier
another
worm
rabaul
circus
toronto
##idays
jimmy
seamounts
fallout
ceremonies
60th
intrac
pows
##el
lifespan
stays
ursula
yeomanry
delays
medi
escaping
cotto
valleys
reopened
fixation
hur
231
aff
uphold
##kes
##iction
likened
190
apollo
margin
latter
ecu
initial
##nick
small
yan
favourite
narrow
##ars
sew
pharmaceutical
##onius
40
法
float
##nected
lill
tab
##ecost
מ
く
rower
sound
comments
##cop
ges
capit
nationally
imagery
adolescent
##woman
##18
103
guitarist
concert
##esy
antilles
khalid
illuminated
ว
stroke
##レ
holloway
nomadic
##mil
в
naughty
self
2015
admission
yarmouth
borrow
tug
kr
aim
imitate
worker
##ination
heavy
reaff
crackdown
returns
enh
interpretations
consultation
##vation
outstanding
supervised
fred
caribbean
stimulus
ɑ
##achment
benefact
getting
pleas
clash
employ
tyr
fielding
graft
ministers
altering
bennett
avion
johns
exterior
destroys
##ovar
gil
hazard
modified
jet
alpha
ind
##お
concern
##grass
trait
rank
developers
##aghy
fewer
witnesses
place
batting
noted
deutschland
boxes
discount
指
privileges
inns
montagu
emil
amiga
##inae
tr
ul
pontiac
##fax
richards
medications
posit
mettern
uncommon
participated
households
##beg
rubber
动
texture
masonic
1899
##worthy
eald
distributing
»
satir
rotated
complicated
crowded
##ision
fossils
weighted
notably
honour
##any
folks
ब
rna
##oman
##anson
contribution
corning
versus
disperse
study
ed
dissent
tendencies
sheridan
##chel
garcia
assim
##eston
##helia
policies
zool
##oused
histoire
invis
performing
hebron
garner
##ensation
laser
celest
ber
alco
footed
pres
##iento
hayden
modules
##ersh
postponed
mour
lom
237
##iese
holl
sociology
##isu
waits
symphony
stefan
envoy
hawkes
pilgrims
watched
overlapping
##ploy
glastonbury
troubles
represented
premi
barrymore
peacekeeping
visibility
board
cholera
##ser
tex
題
##ra
reduces
##burne
ease
hath
plagued
gospel
ham
kidney
indiana
hdmi
adhere
renamed
hoard
custom
lope
deception
iron
kumb
mined
##phone
county
wishing
##croft
deserted
##berto
##othorax
##ill
discrimin
antiquar
junior
midship
militar
analog
##fjord
brent
##ster
##echn
carb
possessing
aragon
##sp
deb
relevant
hep
bouts
indication
heroism
##insky
spacing
spread
##ritic
##hew
fanny
beasts
jagu
slow
##ascar
cuban
##like
disord
rfc
liberation
convinces
kolkata
##ise
twentieth
##ounding
##oted
dumped
rm
elm
hicks
##igon
##frame
oppression
##yr
glen
crows
##utation
pva
hint
flocks
##aca
gallant
1797
plas
cable
drying
fled
oversh
sperm
lemur
vase
directly
frontman
eukaryotes
1783
launched
tyrant
rituals
reconstructed
##runner
troy
announces
610
galland
scrutiny
##ogether
##ells
commissioners
?
jordan
encourage
acad
##izu
robots
##esty
tallest
covert
factor
cottage
props
antic
shaw
##ᆨ
dolly
aware
##pleas
abyss
consolidated
bw
hercules
##place
discovering
departure
##acet
espionage
whl
lengthy
efficient
##arnation
zam
社
playwright
sway
heis
pep
##ᄉ
then
goof
hilbert
walk
alder
##87
wasps
fertile
卦
ʂ
##iser
sanct
accepting
russian
awakening
though
sought
geared
##ivers
vaccine
pornography
##iga
aired
renew
distinction
flanders
deadliest
ps
unp
routing
approximate
##arks
occurr
##stan
palaiolog
feeding
notions
cynical
consonants
艺
1801
##ares
insane
##sh
slipknot
respects
##fflinger
intersects
complement
##azon
whether
marketplace
mccain
enable
##ort
min
##irus
discussed
isthmus
unintentionally
infect
fiscal
cw
##umar
cinemas
##has
##ո
ufc
33
##ectomy
##ised
euse
flashbacks
confederacy
cohen
tnt
##ped
circular
##iamen
##unk
mascar
camping
##ano
##vester
electoral
toyota
precedence
mam
equation
perfume
narrowly
explore
##olics
rigged
##イ
camp
remixes
ancestry
hearings
steady
spire
fitz
absorption
##estim
薛
##apt
1901
engine
##clc
goss
children
waste
possibly
wharf
freeway
facilities
employee
##asses
settlement
terri
obviously
##ora
clapton
##rops
exert
conspir
ɺ
advis
examines
1960s
forthcoming
visual
barely
kingship
knocking
##urn
reservations
tim
syracuse
138
medical
##idy
kali
##aco
unreli
retros
karnataka
sick
sensation
possessed
พ
perspective
saskat
cost
upright
juvenile
barfi
412
##heng
information
jul
romero
contador
##bak
shun
奎
##ه
overboard
lured
ohl
##ceeded
harris
grows
prone
highway
##lers
##iveness
ᄀ
##proof
eleg
apology
vida
##bys
presents
dryden
femme
novel
##ogue
fatig
##alis
dane
##alid
oxid
accents
##り
##ited
dit
##ヘ
will
##enburg
usc
plutonium
eclips
##fly
##heid
serb
counterattack
obstacles
##sted
recomm
trafficking
blinded
licence
behav
affection
volks
anniversary
marshall
##isen
coloss
repaired
##alom
christ
genus
korea
describe
harv
satin
spe
starts
incorporated
acceptance
havilland
lobb
jamie
dive
mirkin
reasonable
1981
mele
awaited
polygon
aides
statements
reefs
skyscrap
##ette
greeks
raz
nerv
##hya
ignorance
inject
michaels
##ographs
harder
prep
##ident
meticulous
##rab
guitar
intact
insect
168
conte
rematch
sinister
candid
freud
doves
fres
beowulf
skyline
##bre
##issance
##rons
##ange
workshop
##み
lad
dinosaurs
##4
coats
impe
belfast
##boy
bearing
##breaker
romania
aspiring
collaborative
malik
blizzard
##elaph
goal
resum
spong
carry
skeletal
cubic
femin
##ob
exited
##ᄎ
metamorphosis
hoping
##arten
clarity
baptist
cheshire
転
zombie
infilt
##occup
ʠ
karl
mechanical
magn
rout
kerry
predict
fidel
cald
patronage
furthermore
bully
norwegian
reluctance
cute
eps
scott
justified
eon
parliamentary
##iversity
31st
paradise
neg
seville
##ked
cornwallis
३
ा
demol
##מ
guill
expeditions
不
ottomans
writers
##19
malaria
markets
pectoral
cult
##ancements
anat
subtle
tribut
adams
odi
##ᅭ
preach
##ivided
##phoros
menem
##pton
##ements
crowns
mares
briar
increases
cu
transpar
wilcox
menu
administered
shok
hydrochloric
witch
##rs
acoust
1859
civ
armored
deal
trap
knoll
diverse
labourers
##ん
##enged
rivers
brazilian
bam
dickens
##okes
iphone
##andro
nations
analysis
foc
elite
##hard
##ertz
##nn
##ero
##ng
##gen
eton
pul
petty
disturbing
1934
everyday
denotes
additions
clients
goalkeeper
figures
##atul
##elves
sutton
dre
silhou
##iod
mills
rall
1758
passer
subpl
saty
downed
errors
##pit
barrowman
propos
cerv
warrant
smoothly
metternich
across
deployment
commenced
maxwell
eocene
invasive
half
marl
uninter
adelaide
cho
audience
spherical
subtit
rebel
glaz
standout
caudal
predomin
fy
tattoo
proportion
test
threatening
mant
vie
mountains
plum
particularly
hawking
jackie
foreigners
hod
533
argon
neglect
chol
##omez
amaz
ا
letting
have
howard
imports
gatherings
pauline
##attered
gentle
##lov
##agg
boilers
##aught
##ists
endorsed
bricks
himmler
conceived
drove
oracle
##ల
##ave
arl
prehist
grat
author
bodies
burlington
affairs
memoir
flick
fundamental
antit
gur
veteran
noticed
elena
psychopath
ɐ
terrific
smackdown
breadth
hool
honours
linc
chast
##ホ
shipments
interview
ead
##banks
whistle
##aster
##burst
240
tampa
radical
pounder
–
##ex
rou
uptempo
heads
receptions
##ledge
bull
practicing
versailles
choreographed
placing
curt
orchestrated
creek
heer
walls
riel
oclc
alaska
342
outrage
##arte
255
dirt
andrew
##itez
confirming
ukrain
earning
incredibly
շ
england
accompanying
predators
dro
benny
##elow
spawned
exiting
volcano
defenc
##ossa
##agonists
##onda
##geries
panthe
resupp
blockading
canton
##icating
revised
reviewers
late
madag
timbaland
zeal
##fore
preferences
notices
ð
##arthy
subset
christgau
redisc
recognition
retake
economically
undertaking
##where
vish
##storm
mcconnell
ohio
showrunner
ひ
nerves
##ives
hein
felling
escaped
finance
monumental
pasc
##ipple
shoots
##post
fiery
segments
patty
gymn
residual
##rises
corm
tec
unoff
alb
toil
acquired
pharmac
绍
aberhart
alternate
solemn
roberts
smiths
destiny
nobel
viewers
armenians
farming
prospect
herbal
hawk
distributor
poit
fawkes
增
intim
liberties
fun
tally
derived
african
vinc
cancell
mich
surre
dischar
latt
##echnology
violin
risks
##zas
hardware
kiel
aviation
##ets
provisions
phall
odys
tricky
pass
ส
##inde
beckham
unde
premier
reconst
witt
##mium
フ
positively
##iaz
1893
quantity
fatigue
leng
accidentally
##lav
##hetical
##ijn
ecos
hays
edition
tan
newfound
peak
sculptures
preparing
ם
##uv
##ami
nam
overwhelmingly
dishes
fibers
hitler
##icki
nominations
timely
1
carib
twigs
##heas
preserved
activity
muirc
magnetic
floating
shotgun
gibbons
bavarian
##ラ
銀
cox
harbour
expect
deptford
tate
spain
bentley
switch
##achan
distressed
accent
butterflies
canis
##ded
normally
jumper
canterbury
formative
higher
##pad
supply
##iba
##byn
##ners
elaborate
ty
##brate
first
liner
franc
贵
bus
chu
##olic
chase
##own
increase
##ner
feller
tro
punt
warwicks
प
輪
rations
fay
occupying
fruits
##13
combining
fer
swims
##isition
chieft
rate
भ
##itor
maiden
vac
peripheral
traps
##aren
holders
influenced
reading
movies
##bath
casc
melod
hebr
clint
relentless
flaming
midway
xxx
gug
overton
##9th
demographic
personal
farrar
unin
barkley
nich
seriously
irwell
##iw
devi
arch
appealed
affordable
##ended
whil
teeth
hometown
interfer
##на
shut
jma
dismiss
##ker
##ath
compared
amnesty
mckay
sentencing
voting
macmillan
mistaken
archaic
ved
##addafi
oke
##aji
shot
cham
gaug
brick
spears
quarterback
sanction
sadd
bucharest
wilfrid
thunderbirds
##kan
accredited
dece
instrumental
ᆰ
tobru
grid
releasing
backl
reflex
thirteen
commanded
##ß
differentiate
washbrook
richie
suited
##gon
associates
rebu
##zer
##be
debut
tobacco
##ake
christine
1946
archae
quarter
raven
24th
widerøe
fever
odin
fog
##oland
alum
##rupted
reliability
hampered
##cliff
releg
impressive
retain
species
excell
boulevard
##pur
ire
##ilos
colonialism
suspect
##or
turner
##ilian
custody
##able
unloading
cyril
hect
##umbered
chac
##ops
ya
herbert
soap
orioles
collapsing
examine
sund
##anger
sorab
お
acknow
slots
229
rwanda
##agos
legendary
preston
lays
consort
overcome
1949
internal
constable
cc
critically
##cc
rn
archduke
observer
ᅯ
##ilia
nickn
weights
##lal
harm
cumberland
africa
grades
teaser
##ashes
warmth
psychological
quicks
universally
medication
##stri
##ล
hammond
antwerp
recognised
accompanies
signalling
perf
anthology
zur
##phy
resolve
goes
##ʻ
mik
##lanes
##teenth
##kapitan
fulfilled
tag
publ
##tis
enthusiastic
##class
##eri
altar
schiz
##trans
drydock
serum
missed
anywhere
##ಡ
associ
ly
employees
establishes
brands
quo
renovated
land
##path
miller
marginal
cheval
bc
mw
vulture
##fors
escap
initials
intervening
pron
modernized
algebra
boost
imper
1820
badge
1849
presently
##jee
1599
multiplication
mcgraw
gorgeous
261
knees
asym
##ecraft
venge
amir
celebrit
angr
bradford
§
ө
low
awarding
roddenberry
splitting
thall
unc
implicit
##hear
struggles
extended
characters
doug
clemson
##ogram
alive
halluc
campaign
metroid
directing
gros
unsp
anticipation
##ɐ
providence
bard
india
ན
desperate
afla
sang
moh
motive
purposes
tars
athletic
##bers
postseason
epithet
zem
18th
danny
yen
##u
carriage
songwrit
energy
##rews
crick
suffolk
racism
darin
vita
ipa
##as
##den
deployed
three
specialized
俳
albeit
cervical
muir
auditions
tumor
whales
cobra
ד
depot
dw
##p
维
##rington
jesuits
450
skeptical
emphasize
##ingham
kual
spor
demo
gras
з
anticip
historic
##gest
civilization
politicians
forwards
enl
##eted
resentment
wally
##duct
breakdown
pause
neutrons
prized
presented
frank
pushes
sweeping
students
outdated
bullock
minig
flee
advocated
dav
crittenden
##onid
х
##ocate
rub
willoughby
##oco
1984
correl
disemb
##ieri
apartheid
##patrick
##isse
guidel
##achine
rallies
donna
##antine
untr
##isters
cafe
excluding
collins
baby
division
##aged
##uno
##ysical
victorious
##ke
_
archbishop
executed
room
ᅡ
communication
110
resist
oliveira
lumin
oman
ζ
octopus
dangerous
drama
variants
bridget
cret
stan
indo
namib
##itudes
ע
##ayor
vanc
##azi
disembarked
be
russ
η
asc
prepared
store
controlling
broncos
39th
rother
tory
heading
attends
provoke
graff
##andan
evaluation
carolina
agon
gang
horror
reprint
viscount
deft
##ons
ᄏ
fend
quot
conviction
aires
panic
redoub
collectively
willow
##iles
choc
rhe
rapping
##ক
seats
expectations
cern
gulf
cigarette
##bank
π
##ceived
##li
bene
mor
levels
upper
swed
fifties
gord
inflamm
northrop
massena
wii
chal
list
residents
digging
taw
movements
fielded
##iii
ones
##ois
##nir
sufficient
brod
109
##ersey
##unt
dra
pareles
encomp
ɬ
malk
acted
schul
run
##etor
starcraft
novi
banksia
schedule
nfc
pixar
orb
interven
withheld
rca
pack
sortied
marmot
condu
magic
##ients
fleet
ብ
liu
gilmour
venues
stylish
privately
charlie
arising
putin
attaining
chern
commend
cascade
sts
decomm
##amma
royalties
syc
ugly
linnaeus
warri
owing
horace
collapses
restricted
hardest
##rant
gunpowder
accounted
actual
##anna
##chell
intest
harmonies
displaying
pred
aleut
try
helper
crowds
unemployed
societies
ק
tubular
culmin
shr
ceremony
##agoons
macedonia
auck
fraternity
arise
consisted
boulev
restructuring
##quist
biod
sights
theatrical
cheer
##lass
announcement
##atible
plumb
computing
rans
fraz
utilized
##oked
progen
uniform
##iew
##onia
u2
inevitably
isaiah
priced
convent
instrumentation
edin
##dem
petrus
residences
vide
centred
brotherhood
sunday
fishery
anx
winchester
sur
accept
hospice
sunrise
tropics
flanked
ost
although
##atops
街
plots
samp
larouche
acquire
##ɯ
hms
brett
shortcomings
buddhism
forbidden
tasman
##ս
harlem
drained
##board
gravity
disob
revenge
piz
beneath
raised
##ably
wwe
ʾ
##reeks
croix
観
coins
##emberg
##iov
马
obsidian
ge
belts
kap
ely
##eau
72
alfred
rico
մ
customers
edmond
mycen
##umber
##indler
trail
unreal
bulletin
moor
leeds
horses
aol
daily
protecting
##atism
meanwhile
2007
jop
⅓
pleasant
universities
resurrect
metre
reen
tit
##atches
adequately
tract
hospitals
vall
##terweight
ayles
##adium
##acies
conservatory
militant
sometimes
irish
##heba
participation
##ator
monitors
rovers
mario
accus
寶
##ourg
roots
asks
boss
sable
planned
librarian
absor
##ema
tic
##ha
theological
emperors
enlar
chooses
eastwood
staging
favor
holden
specialists
blackpool
wolf
guatemala
racing
uncertain
80
substances
suppose
cinematography
tara
pulling
gujarat
unsuit
abusive
scab
neighborhood
worsley
##isbury
##abouts
patches
rom
##lin
tipp
bonaparte
assigned
deserved
holotype
##sequ
1977
malac
ori
##che
whate
soft
manifesto
##セ
3
symptoms
dolph
>
##aurus
suit
pratt
katherine
villain
breed
phonographic
riverside
holy
carr
otherwise
valuable
character
eas
butter
##ozoic
slavonia
transact
siem
catastrophic
viceroy
strengthening
avionics
nas
linear
poetic
telecommun
bount
定
##identified
wilkinson
##imal
southwestward
##ging
koreans
##mate
fringes
umpire
wagons
broods
coming
##nall
barker
hawai
`
freshman
mitsubishi
discs
actinides
warfare
supplying
wad
tect
belling
absorbs
armaments
games
appeal
adviser
transferred
mccormick
σ
olm
pitches
lineback
perfectly
coun
conversations
expected
raph
excited
rhythms
##ospace
##cars
##aders
##uments
##nesday
teaches
piano
gaddafi
classics
directional
recur
##ertain
hoax
dancer
ulam
90s
drac
exams
reside
standard
organism
602
hiroshima
twelfth
##sr
humorous
mascot
##urity
observ
arches
noct
palladian
spitfires
institute
immigrants
imagine
reli
restaurants
##buster
concerning
inac
dissatis
adorn
―
arguably
horned
switched
sedna
##nance
ethnic
institutions
##more
##istical
needle
sort
engulf
koch
starred
exchange
feedback
dialects
##ades
##ll
names
##acl
##zeg
1993
ш
discrimination
vet
rayne
heidi
comment
cun
aggravated
trenton
endemic
inte
psycho
pete
##reen
cors
chemotherapy
tracing
sentenced
clar
setlist
shae
logo
##dal
322
embarr
##bred
gert
suspects
aml
##ayas
##agle
incon
fand
pakistan
rowan
combined
##eper
mexico
kidnaps
tapes
lengthened
io
apprenticeship
##itude
tactic
jain
retracted
hereford
knives
##ws
ips
53
america
recreation
spies
273
tna
paralympic
35
##aho
##ludes
blows
heinz
steer
outd
kariya
missions
1830
piec
chancellor
##oly
shark
players
geographic
subscribers
suggestions
save
rodriguez
intr
clarinet
baldwin
41st
profession
ˈ
twe
manifestation
greater
heavily
neoclassical
cheers
triumph
1974
electrod
cousins
anak
omaha
wheatley
absent
ס
1st
wreat
specification
army
##itan
yoko
albany
shank
خ
routes
massac
deposited
cardiff
microscopic
monmouth
of
inch
literally
##hausen
pim
interacting
tail
##otti
morrison
tracks
illumin
sky
country
conver
plan
communities
vood
##iens
proposes
##track
again
kro
henrik
fits
judici
ᆼ
##rin
ratified
technetium
jumped
##icated
natalie
л
限
willard
214
lanes
threats
considerations
seeks
parental
##ral
finishing
commandant
abduct
##mad
##pec
taken
seattle
dayton
cel
##apat
##aped
##rils
karen
lingering
劉
hew
zimbabwe
##gos
##spe
museums
barred
cecil
industries
theoph
ר
santos
attempts
dynamite
farce
culminated
petersburg
pitted
thick
halft
nu
气
goebel
##cian
belongs
treatment
constructed
peabody
carrier
hover
seym
##ava
therap
john
##rupt
gor
mx
resolved
himself
##alled
surf
##igation
##dington
apoc
abre
straightforward
wonderful
##inh
##urities
musician
wasting
##elof
telec
##ด
withdrawing
reorganised
ther
suspicion
##77
##uin
wheat
##regn
##ormann
promote
stro
mission
huron
uploaded
tonnes
##gate
alz
mild
pilgr
instr
##iak
caller
reggie
client
ecclesiast
exagger
ruled
artifact
mounts
attained
loom
rama
orr
catholic
60s
split
spouse
displayed
atop
wide
##anny
membrane
264
printing
蛇
##raltar
##chester
mongolia
flexible
agreement
helium
caernarfon
leh
##bi
possibility
couples
baden
##idated
##ل
reference
mathematical
##landers
kapoor
admir
springs
mon
carous
chromium
hershey
##eciras
marg
##ometric
theater
entrenched
complete
wavel
celebratory
thousand
append
sylvester
suspic
valid
##afa
neuro
habitat
societ
##verness
doorway
repelled
pug
toothed
icy
advert
##raf
sora
scripture
neu
wreck
stir
133
helic
lock
cooperate
27
esque
gloria
ɛ
##formed
continuous
カ
lrt
belg
adversely
prescribed
##front
songwriter
##alus
hillary
powered
cow
burnett
ala
ン
##ailing
machines
sheff
epsilon
470
enemies
thuc
##ipe
constitution
feature
human
beh
ル
oslo
michelle
inauguration
restoring
##ovac
311
##ables
heaven
morrow
reforming
##か
compuls
filmmakers
petit
cay
##ulations
##avers
interd
1922
hag
editors
declaring
##ierre
wed
hyg
graduation
swedish
pou
sally
british
##ashi
brooks
##is
moot
variant
mcd
cups
fals
surfaced
wett
##м
##oro
frees
##ardo
markham
hamilton
detectives
##apeake
1868
corrected
##ombe
trav
minted
##jj
1911
travers
lobbied
flowed
designated
ras
deprived
cannab
##ram
vor
female
pover
banqu
meade
plumage
psittac
mariana
potential
##wulf
lutt
ages
spir
##ule
bulgarians
indec
狼
buildings
##き
spaced
pla
barrett
privy
##ydd
energ
famine
athlete
##bc
bafta
224
##aign
##ucci
franciscan
ellie
occupants
corv
eh
1600
anarchists
##ension
thurs
retrospective
indie
confronted
gifts
clos
##em
yanke
bounded
millers
##ipel
pneumonia
landowners
wrist
angry
##ui
##atch
irregular
exh
addressing
##dock
##hous
steadily
brownish
much
repe
savage
ten
286
night
thromb
へ
##achn
fisher
observing
tenants
hubble
disastrous
29th
##leg
upgr
raaf
yes
earthquakes
infer
carrie
strauss
autobi
##rac
evolving
daw
nostalgic
343
studios
jarrett
##vet
61
23rd
recommends
looking
63rd
historians
aria
dare
##enden
ceasefire
maps
medal
suffixes
mercy
ˌ
为
expands
whereabouts
scher
brutal
##ant
##pro
successor
epid
crumb
harp
rho
血
solving
standardized
acute
klamath
##inian
battal
վ
mail
喋
affiliate
spee
##bit
##written
piloted
remains
obey
establishments
afterward
mick
rock
##mill
turks
packaged
protests
ineligible
barrister
sabot
coloration
wires
subd
mupp
retaliation
stones
morales
##roit
decomp
calculations
vectors
て
##ushing
flamenc
blair
##ogenic
integrate
##urus
aden
forb
midshipmen
locally
depl
hob
better
##rites
living
##idia
installments
chrisye
fork
nhc
290
kot
##yder
erot
austria
cambrian
homosexuality
hailed
chong
dalmat
##olithic
subsidy
nikephoros
##akmul
bel
##oza
##aval
nect
stripes
manch
##thro
dormitory
magistrate
##haven
fitzgerald
º
burst
mtv
promotional
picking
difficulty
assemb
##iguous
##tl
##rams
shells
shu
cultural
curves
271
enc
burgess
inaccess
integral
bris
entry
axe
malaysian
##atives
veins
翼
transc
##anch
engineered
##wning
smug
whe
senate
massachusetts
##otent
##oting
knob
adap
ferguson
##held
shakes
colonial
sovere
usd
humiliating
forts
anatomy
payment
##ᄇ
murderer
kon
##lish
1812
balloon
cars
columb
##pid
horrocks
uc
10th
alternatives
##essive
buying
nominees
##غ
kind
belle
owns
crucifixion
##acek
hatred
mountain
buzz
rebounds
patricia
conserv
kam
brother
planners
orm
commentaries
scharnhorst
ques
burnham
pazz
clubhouse
gail
##ledo
position
alloys
##iterated
1924
ambrose
44
tremendous
yacht
stream
month
fbs
reptiles
chim
tribe
##ji
towing
quartermaster
rocky
abrupt
def
##cul
part
branc
disgu
naval
mixed
sandy
contraction
##ouche
ล
outbreaks
##rica
##athus
serious
comic
bias
are
croatian
nonethel
sharks
desmond
committees
krasinski
##zzy
turing
welcom
idle
commem
strategy
choruses
##thard
##tes
uprising
prosecution
curved
gottfried
lux
rug
grasp
am
detail
piece
troops
hiros
路
counting
河
boating
ቈ
ladies
tawn
volunte
filmfare
flagship
##ych
aligned
admissions
later
sailed
sculpt
overhaul
pang
##esden
polit
##ak
decade
##entine
gunner
nether
vintage
dvd
ceylon
flank
い
vis
hawth
36
syph
##orementioned
restrict
essentially
anselm
brabham
##opher
bly
resemb
yields
unequ
##ographical
wherever
##arez
annexation
receivers
##jid
fared
宗
casemates
issued
horizontal
skye
~
assistance
casablanc
promulg
togo
questioned
##arium
extensions
hui
refl
lal
vu
battle
bry
fastest
hydrogen
figur
##tures
ethiopia
nobles
##opol
quadrang
cabinet
atp
size
surpassing
lect
wonders
italy
##bands
azerbai
differed
subgen
components
determin
translated
faction
justification
veloc
bowl
village
mischief
henri
livest
##ady
number
fascist
##azz
wales
upgrade
bol
classmates
crowd
helm
##lea
shelf
battles
density
proceed
##elda
##acic
##ways
##itures
nevertheless
ᆷ
richter
ve
##ups
##apers
##ials
interactive
ton
##oric
##adder
##umbering
strife
pacing
##omyc
esteem
##iently
##iber
eyed
applicants
deleted
sucking
cockatoo
sessions
handling
references
##yk
adp
shafts
slate
impro
##ucks
draining
##stre
ores
##ushi
adventures
registration
regardless
desperately
canter
##ɟ
mustaine
pard
climbing
therop
slopes
##cona
##enary
積
diploma
unsafe
blowing
skeptic
isol
haven
##westerly
faster
95
employs
trucks
##uky
##felt
padres
buchar
summons
vasa
ammonia
don
signific
acquiring
1913
husk
leone
braun
sihanouk
aguil
challenges
accessory
shawn
##angelo
frost
puja
renewal
diefenbaker
condem
snake
fueled
bela
funeral
rechar
flooded
slim
##86
peasants
geb
cricketers
##ilo
nw
redesign
beheaded
##ooth
##oke
present
sentinel
sleeping
mores
noaa
claims
nd
parad
##eman
##iders
headquartered
consists
captures
glasses
##ismatic
crew
barry
chrom
strands
hort
amounted
jann
cease
uniqu
##whe
lives
reasoning
daly
advantage
##thia
wip
truncated
dyn
tapest
狐
often
discontin
match
shuttle
totaled
th
adi
##aczynski
truce
glacial
##akis
agnes
earliest
sidekick
##onal
incapac
prayers
musicologist
136
thesis
##eneuve
prostit
##10
thousands
sher
quatermass
separates
fbi
s
cyclists
wolver
##ios
commandos
knowledge
animator
hayward
bight
campaigning
wint
##osures
##aki
ɒ
regis
cluster
leib
shoulder
recogn
itza
drumming
behalf
pound
##anners
todd
until
maz
irvine
defl
##hertach
developments
mysore
##ratory
heaviest
excerpts
##cw
stewards
##eye
andri
##esee
fresh
shortstop
historia
##abar
1799
##tight
conferred
prosecutors
untouch
##encia
vint
negro
advise
##auri
manu
##just
komnenos
1765
##pat
##ð
guadel
suffers
undergoes
bess
##egro
centimetres
avalanche
pittsburgh
1774
193
pure
compound
jonny
other
pais
remedy
armies
coggins
rear
gator
phased
chatham
nintendo
lamb
##mata
cen
causing
collaborate
inquiry
chronicle
##opolis
psi
revision
inspection
##roy
ø
tragedy
murals
broad
lions
prefix
bjork
clothing
mostly
bisexual
watkins
trinidad
##anians
##herty
televised
##て
followed
venezuela
crystall
del
helen
lotus
finns
allan
limitation
traitor
collector
confrontation
unrest
ironcl
kol
weston
##acruz
breach
dum
##ership
elmo
initiated
strength
realistic
generic
ג
##atable
hippocampus
coax
arm
margins
ulster
exhibits
lonely
convoys
primitive
priv
guinness
mall
prowess
english
##ikon
weekday
dipl
guil
lane
russell
solid
1896
governmental
trumpet
hutch
realizes
##atherine
##eo
rp
##jam
morotai
bon
ceramic
contractual
arlene
serviced
batch
vonnegut
talks
##ク
reunites
descent
enthus
##itty
collapse
cycles
##pes
fulf
enraged
##ल
tarn
政
party
awkward
panch
streaming
##abhar
slovenia
##ends
scholarly
walt
diddy
pept
bomb
commune
disast
churches
testim
##nel
suspense
tarant
##umin
arterial
beale
scathing
lever
fabian
diversion
persia
return
midshipman
graz
kinds
booth
radicals
titled
##iet
viral
hazardous
##rehens
fly
bod
trich
territories
tattoos
gonna
##alk
blanche
##beck
29
astronomer
cautioned
specifically
ramsay
demonstrations
yielded
valky
vill
singing
ext
citiz
southbound
erased
altogether
overdubs
dictionary
susqueh
sant
##break
hostilities
mantle
##gr
##wan
happens
evening
synthes
revisions
bronx
##ushed
afl
##umont
##ger
luther
every
##hma
mcdon
𝕡
vader
cognitive
vast
##fest
1957
exploits
##vre
lombard
bolet
tails
ω
##kien
chess
reliable
slowly
cot
philosophical
humid
pinewood
380
##rimin
##iale
##aday
vans
י
continent
explanation
arkansas
whitt
auerbach
ʁ
utter
altered
fren
greet
া
exposition
hiro
asia
sake
organize
rar
nickname
##mire
smith
downwards
pad
classification
blown
caucasus
microw
gymnasium
κ
detrimental
##asu
trafford
establish
compulsory
fake
scout
disagreement
uncomfortable
rez
metabolism
garrett
matter
qaeda
memor
goog
duches
##idi
origins
brom
##gerton
regaining
tibetan
moses
##itud
lemurs
automobiles
foss
##onial
##ester
extracted
suez
theolog
bundes
##brids
##aments
barbados
civil
dem
grab
hesse
brock
crested
meanings
embargo
sequence
レ
exchanged
revital
oakley
picked
fleeing
ornith
canadians
##andra
##iei
songs
remark
dunham
metres
chau
kent
treb
prepar
egyptian
incorporating
beersheba
grail
barton
##ienne
##iness
lich
tracts
yard
chicks
я
##pace
stratton
texians
stal
alumnus
gallons
actress
diocletian
##emani
arguments
milton
स
guam
##tr
violence
traject
48
አ
attend
river
believer
milestone
temperament
##berts
seismic
mohave
タ
brim
designation
##oreal
##cht
aspects
aleppo
##г
phase
str
clarks
unpa
apt
mounted
ethanol
##oma
cub
roz
kidn
ported
skiing
ు
medicine
profess
jealousy
dryandra
wiz
bans
outposts
topic
mongols
dinosaur
##aping
overshadowed
##inction
chalk
rack
pace
chow
enlisted
operating
flanking
dungeons
##ali
kron
provinces
##cius
buffer
flight
##aic
traded
adventure
establishing
##atham
clearing
##dam
beaten
laurence
conditioning
##uable
tabloid
everton
2010
kelly
luzon
1916
infrequ
midwest
gamespot
parkinson
creative
unfor
invincible
pigs
eaten
##enant
athe
kicks
underc
##oci
##dog
stip
halfback
barons
##く
bravery
diverg
corporal
factions
filter
inconcl
accomplish
##wester
teresa
existed
appropriation
##ق
heisman
##arians
##ნ
liber
proposals
violet
##throp
##bon
long
mccl
weeks
sao
##iam
##o
##roscop
abdominal
##fold
romeo
differs
tf
reconstruct
≤
invalid
承
##ores
ridley
caen
honoured
elong
strut
moths
relig
##mc
torn
inev
##othor
duke
staying
##ution
つ
astronomers
foundations
horseshoe
eastbound
manuscripts
jenn
gla
##ulco
fracture
assassin
system
baseman
physicians
doc
atkinson
discover
smithson
nodes
##town
mona
##iac
initially
intermitt
lethbridge
case
shearer
dominated
vijayanagara
doubles
yugoslav
##vert
##ь
carp
billie
##marked
envision
aux
天
analy
chen
vocabulary
lans
cochrane
coliseum
##onna
disapp
##wana
dear
aggressive
aalborg
creation
wak
lesbian
reintrodu
##cek
those
bened
turtles
##athan
status
kund
defeats
produ
aguilera
sek
##hequer
communists
either
nanotechnology
##antically
marine
detriment
fragile
stimulate
信
adj
hakkinen
minors
##duke
gain
##roe
pregnant
##burn
tis
herod
##are
voluntary
hereditary
wardrobe
##ਾ
georges
𒀯
spaceship
laced
orn
ス
interchange
harassment
instit
temporal
phillip
##stad
1908
expressive
##terson
##amental
steamed
whereas
sec
##vic
below
left
friendly
##amen
blood
mald
qatar
bloss
egypt
##ounce
interaction
##ach
fast
darkness
gloucestershire
portrait
tended
proportional
##witz
thrash
##ither
战
ath
##cy
##head
manif
timeline
venice
papacy
imperson
blending
bowman
sanctuary
triumphant
travelers
investigators
baird
##ismund
bran
shatter
##waters
initiation
雄
releases
1000
lanthan
vert
sitting
muhammad
resemblance
weird
桜
carrad
falc
fergus
##elt
sustained
breckin
listed
contents
scholarship
caldera
twenty
##amy
handled
reelection
defined
popularized
earnest
##str
##greg
preparation
wolves
物
majors
c4
geneal
##ellations
urine
hazards
recommissioned
##ore
##via
breech
chino
introduces
redding
evolution
terminated
deutsch
managing
encyclop
luxury
soy
delic
extrem
##olds
grounds
##ware
giorgio
staff
##abulary
eliza
##ilda
457
plane
chinatown
europa
##opt
fearless
singles
##isp
forens
bom
tina
##owa
##tim
guise
stanton
ser
crimson
passions
potentially
carved
governorship
bidding
docked
prank
marches
##wright
clerk
saus
nca
bowler
vernacular
##stidia
gully
storms
de
belt
defenceman
finely
##icz
regarded
imply
log
braz
panama
excluded
gene
drink
ky
作
cinema
painter
maurit
vir
repay
##ickson
spore
reads
forrest
##uals
hunting
vermont
1819
overdub
statesman
rising
ench
##izes
к
stuff
sealed
melodrama
eid
dio
angu
northumb
murdering
nab
asteroids
affect
liberated
aec
gos
narrated
carmel
relations
experts
poll
shape
rolled
len
tol
buoy
五
indict
depended
subdivisions
drew
glut
trailing
##aked
jag
kul
premiers
mutin
cliff
oswald
functions
loy
##ᆼ
rooftop
was
debates
obsc
##atty
floods
simpl
volatile
issue
eligible
##the
hansen
restr
interp
##chens
33rd
8th
passed
humble
lesson
brussels
trey
bridge
physics
subgenus
##aryn
fusion
behaviour
##zz
##repres
impacts
##ureen
closing
iber
staircase
bike
attributed
spart
camden
##odiac
about
##ib
gutierre
caligula
祈
bangal
edg
artem
##breaking
administrator
##itas
banker
levine
##rum
infused
chef
sheet
feeds
molly
domesday
##lies
##ikes
consult
contin
moniker
escalated
puts
tame
tax
##nell
occupies
leth
fines
amalgam
wives
##र
loyalist
transylvania
anderson
rewrite
##shore
chapman
confessed
##lex
unjust
wehr
sams
accol
dakota
##pin
guarant
aegean
natal
chalukya
whereupon
goring
motorcy
dana
banks
hide
midst
##enna
predatory
lt
咲
##abad
curie
desire
contradictory
1884
430
landslides
capita
gerry
resp
lifted
下
parliament
б
heav
moved
steelers
wick
malley
et
narrowed
mah
beast
ancient
tart
helene
fully
soci
constit
prosecutor
wester
##don
misch
##b
38
requiem
ninth
nominate
##assed
stanisław
##alth
coverage
rif
judy
壁
bethlehem
sacrificed
redsh
subsequently
rb
lara
recapture
twin
lup
##ket
##mers
rena
martinez
dixon
vent
ashton
filmm
europ
binary
klam
##lest
douglass
##oid
caval
parasite
lordship
involved
stamford
pulp
programmes
gala
clitor
ske
antarctic
toes
##ographically
washington
units
cinder
##њ
enfor
masterpieces
delaware
orang
commando
hinduism
vamp
##anga
privile
rutherford
suddenly
procedure
##iner
logs
rubbish
ingr
disposed
##ა
entirety
arena
body
##ה
nursing
shower
ッ
singapore
conductor
delayed
##etsu
blaze
brady
##wing
louise
vict
ahmad
lawyer
immediately
nou
peab
##hr
sy
homosexual
cairo
tuberculosis
spines
proceeding
##oreg
unnamed
convers
starvation
alien
南
##zan
totalling
jokes
alan
charcoal
4000
repetitive
gye
incident
longtime
200
0000
##dain
epstein
1650
contenders
instruct
sells
lili
autoc
bae
##ensed
##jiang
operation
krishna
harmon
see
##ishable
##obacter
caesium
hunger
gyr
hawaii
au
##ovny
##sky
##iana
cam
robertson
boycott
honorable
added
pretty
##65
exception
israelis
##itted
##ylan
##ames
refuse
##brand
capturing
ქ
time
concerts
gdp
classic
ignoring
slight
##uania
gangster
prisoners
mirror
##ilton
ump
haze
acquitted
masses
denomin
enrolled
berkel
112
mate
mandate
compatri
revealing
1933
dialect
variable
aph
molec
suggestive
montana
coward
197
ل
stag
##ulated
shifted
unsc
swimming
##icked
##asa
##uto
hiding
torm
vol
depicting
given
leves
dioc
##ript
triad
jacob
inappropri
strick
patriots
##inity
##amins
postal
ł
detroit
leslie
##gn
dublin
lar
depend
##ø
##gar
pau
rhiz
weinstein
mandela
commission
9th
##osen
neighborhoods
driving
##auc
exile
##י
relay
##ten
vera
maeda
14th
##jav
श
repeating
kry
andes
##utors
greeted
stay
que
##efa
encounters
##ass
ced
##a
910
jaguar
moult
##omer
wal
originated
gif
crystals
##avery
##ardy
genes
dens
flesh
kel
miz
dougl
producing
brains
shocking
currency
##bell
##rush
##aya
karma
administer
accordingly
##elf
clip
structure
hepburn
mirr
lacked
false
modern
harvick
traf
clif
##hib
##andon
##ի
##rys
##cu
intellectual
细
currie
##speed
##va
##chw
##ny
adoption
##hen
beauchamp
shea
stard
##ti
explod
sto
elections
hydraul
telem
tactics
free
prediction
adults
朝
capability
inquirer
debating
herge
mechanic
flyers
scare
shash
jeffrey
攝
##liest
millwall
##aline
formation
sho
nuth
bastions
##ellor
flown
scratch
refined
soundtracks
opened
##gamer
orthodox
jeep
relegated
spartans
supreme
##ski
##に
transitioning
rotate
leis
kc
temples
representing
crusader
##oil
34th
swallow
alkaline
ょ
accustomed
##illance
abbott
screenings
##tas
##eler
shap
jer
##bons
raises
suspended
seize
##อ
精
323
##iph
stainless
228
##mb
declined
jut
storyline
320
##ube
marqu
火
ћ
legal
satell
golden
cooler
ᄉ
busy
slot
rejected
whitby
##je
cuck
reluctant
harvey
pand
battling
##gement
devastation
kur
##aching
resident
##konen
##و
stout
gesture
basically
##group
ions
earl
1928
fairbanks
##ical
cinematic
′
preserv
remembering
exp
dromae
andrea
maw
normalized
##ved
mur
trench
athen
formulation
indist
romano
carol
seventh
back
absence
##ilis
##ject
ج
whenever
warned
yorktown
sultan
fried
tirpitz
individual
nurse
consistent
enigmatic
hym
ordained
cond
inaccur
##oth
update
##ij
##ay
alej
escorted
##ini
estate
damon
absorb
gaze
recombination
##eks
##ourt
##onduct
fertility
funds
##asp
statutes
route
162
kond
deputy
##bourg
ր
convection
##pled
subtropical
hardened
##assy
##mer
##ifully
unm
erect
cush
nanot
##atz
##uras
avril
##aced
essential
transitioned
visit
question
sequences
undergraduates
lori
usaf
##arya
panther
music
decorations
hartley
recomb
kens
sifaka
che
learning
overhe
grenades
‑
270
ashes
marijuana
##iscl
practices
##es
brooke
fuse
tampico
##me
recre
casino
overlord
postage
confront
selected
anton
you
myth
copper
rockwell
ferrari
resting
soldier
pyg
##adan
execute
telegraph
resorted
clear
##ppe
##orus
foot
##gaard
recruitment
hanc
##berg
deliber
hypotheses
guarantees
power
episcopal
bugs
decor
##y
tracking
##vae
hos
##थ
roll
exchanges
provide
##ente
contemporaries
chiefly
grims
swap
vote
gwen
dwarves
##gradation
stepfather
backdrop
humanity
##vill
##so
donors
##đ
pour
##aze
鬼
humanities
liability
##anor
clements
slowed
remn
ist
町
mongol
started
dwarf
translucent
trag
##nae
portfolio
stafford
guang
video
including
obsessive
intensive
recognizing
unstable
bonds
traditions
heyer
hoover
sailing
宿
dm
synth
##ained
jug
烟
##c
evolve
telescop
peregr
unim
fantasy
bute
robert
ն
motorsport
berkshire
un
oscill
deterioration
##auer
hoop
ʊ
ours
moratorium
##pread
##math
accelerated
##iaries
wage
unimpressed
debuting
laying
shiva
raik
comparing
utt
mosaic
theatres
spacecraft
futile
shif
retained
eden
rup
stall
##tenham
contamin
radars
destroyer
ver
unacc
##br
choose
notre
sits
pleasing
barbarossa
##overs
cites
domin
##ح
##joy
recycling
meeker
ramones
slope
surb
fair
##ondheim
##ayan
##ত
comp
frith
racer
batteries
disrep
infrared
##zig
comparatively
mutiny
##osuka
##imi
indu
hills
##ened
1810
教
inad
equally
demon
##ands
##eons
barbara
sork
fused
nail
oscar
potemkin
molten
operative
kem
##oka
intends
hawks
mosquito
remot
ants
derivative
speculated
built
inconsistencies
atomic
strawberry
likewise
1944
bo
kav
protected
gilligan
##ochem
roster
decorative
ashford
##olitan
relies
##mid
##о
superheroes
surv
##istically
schumacher
unch
1885
##inis
eccentric
yas
shoo
rye
lemon
excerpt
indicative
forg
identical
##cks
silicon
ウ
desp
privat
560
jurisdiction
pupils
laur
##vi
spark
anticipated
kann
##onian
waterloo
option
jas
enzyme
imaging
revers
newcomers
##omura
standing
real
1822
dorn
##look
1789
gluc
fingleton
beach
coolidge
grill
##stem
stead
spare
poetry
##etics
jewelry
stargate
##ane
bizarre
##esh
improv
ascending
madd
berk
celebrated
##room
gearbox
##castle
##brates
democrats
malfunction
means
fol
exclusive
supplement
##after
nigel
impedance
escort
sends
physic
##enet
bat
millimetres
modes
weis
##house
##osaur
assignment
##onder
remembers
##enta
##ユ
##ylvania
キ
legitim
belief
hypoc
campaigned
realized
crass
面
trading
doubled
written
konigsberg
ally
olivier
counts
construct
textiles
##ken
accretion
interface
vitamin
集
##ix
yuc
jun
kappa
##vd
waller
linux
intros
grandson
illustrator
modification
word
royalty
unfavour
thriller
owls
##ould
downt
##icle
eunuch
tobruk
riff
qut
janeiro
braga
seminal
downfall
problems
mass
privilege
colony
kenseth
1804
perce
1990s
pok
risen
fourth
june
combines
visc
bombing
shady
gebhard
lies
bats
abandonment
sar
brewers
teenage
peace
bucc
hanged
&
##avir
types
playoffs
housew
influential
drummers
titular
ou
burns
generals
cress
teacher
ordeal
hon
siv
##amas
shakur
mou
autobiographical
spawning
drinks
appropri
stu
microscop
filament
instal
nish
osc
faust
hern
reopening
##inck
##cestershire
physi
quests
##ল
39
seneca
canberra
intention
rappers
implies
alternated
##water
jokingly
dream
convenient
hell
dz
shangh
objected
comparable
chesapeake
199
targeting
contacted
happened
##odynamics
1976
city
moy
gillespie
nicknames
##gin
raimi
unpre
contested
narc
stim
}
boogie
warren
##25
sombra
eag
proc
alph
##ɾ
conducted
supre
bec
##letian
ju
retro
eastenders
wade
allotted
chorale
ਲ
terraces
spoon
strata
magdal
kand
doppelganger
##makers
reptile
february
von
quer
brunei
1841
themselves
contain
implementing
dignitaries
substituted
cartman
updates
farms
begg
associated
downstream
philadelph
##eness
crossroads
143
gund
peers
wool
a380
delivery
golds
manning
a2
mineswe
##sex
cerem
thornton
##pc
arth
embr
experiments
outflow
alderman
2014
dias
resembled
##я
bringing
macl
aiming
##aug
traits
盟
gild
maintain
opin
clad
mason
pains
arranging
appoint
17th
hung
evaluate
##lia
oversee
korean
##া
ga
gable
crus
seaboard
inevitable
welterweight
น
opening
##w
programme
born
neutrality
worksh
strongest
##iment
loyal
philosopher
mask
##よ
fitt
occupied
accord
undermin
carefully
amtrak
scale
##vised
invasions
##state
誓
vertebrae
par
dean
##uffs
tilden
##shan
##itano
preference
capacity
##ling
crude
notoriety
charitable
tending
immun
evolutionary
january
jing
wearing
##ary
##oi
complexes
##rano
backst
throat
od
##ibi
positioning
®
1854
chun
##qa
##ofsky
treat
##gestion
javan
##oso
roles
severity
timor
##ك
godwin
purana
nescopeck
slap
libert
57th
david
francois
jub
mixes
megami
sens
historically
apparently
ant
trol
natural
lifestyle
chronic
spirits
##good
transformed
##oqu
##anin
atlas
##ush
stylistic
##aled
simms
quarries
1824
warehouse
##umatic
serp
techno
pruss
stokes
contention
nur
everything
allegations
registry
ops
manufacturing
protoss
##wall
pil
throws
planes
##vern
friendship
争
typhoon
##ffer
##elo
ᅳ
地
soils
ducks
nero
##itone
resembling
federer
##ortun
faire
sporadic
tempo
cretaceous
machine
doct
voter
charted
somewhere
employed
mickey
aronofsky
##ley
rupt
dissenting
conflict
##acco
text
attendant
##tingen
composing
renault
##atas
corridor
complimented
ell
spectacle
speedway
##rific
999
bids
ghost
satt
ahalya
unass
##rical
##omb
##ague
tommy
now
aft
joins
lyd
merrick
airfields
divorce
bodied
##hetamine
⅛
boundaries
nice
furnace
elvis
##ieth
activities
peterson
hilly
dangers
nov
middles
##ᅢ
##iley
burning
##leros
ऽ
weary
##ation
##omi
##ppen
draught
circa
可
##dot
pinafore
sentiments
documented
##iculum
scores
wass
stereotypical
animated
mentor
τ
surve
powerful
nsb
maus
botan
##vy
cap
麻
32
hour
youths
help
pelt
lindelof
induct
garris
##ows
shooting
enacted
jed
##agen
brennan
turk
valentine
syrian
av
suhart
tc
begun
centered
bosses
ᄅ
isotope
practised
##uh
div
hurrican
##ses
##ixed
##nes
##cock
hot
disappoint
devote
verd
pomer
##agraph
sep
philippine
interception
186
bis
scenario
scharn
##pont
藤
scorer
##ilver
tides
koval
##vement
softer
##uve
waldo
adopt
distrust
motorway
ah
maud
bk
prohibits
parade
##atan
fict
subordin
##lf
concealed
##ody
ric
typ
requesting
##ude
penal
nowhere
##integr
##ʲ
disconnected
daryl
##ially
##atown
女
ち
ben
fischer
gaster
bands
latitudes
austral
multim
competes
##bird
conjunction
##ico
insisted
##veston
##appen
identification
##ג
gond
matric
experimenting
jump
macedonian
ob
edward
it
##acp
stocked
sino
##illand
rubble
carroll
officer
vail
deutsche
ba
##we
##ellar
embryos
mont
ace
sank
##ed
killed
liverpool
clemency
abel
##andar
simpson
ת
##elg
garb
##prints
frequ
##adian
nort
dared
alexandra
chloride
zy
##oun
cartridge
€
bill
dig
din
californ
stipe
##eti
mammoth
northwest
bov
scotia
finnish
wallace
catcher
sierra
≡
throwing
stole
diplomat
fellows
princes
##lude
tumors
kenshin
ᅭ
concentrate
turn
##gence
sax
occupations
tellurium
done
##dh
dri
poets
raft
##ismith
alteration
microphone
mahler
м
invites
1967
arable
spike
greek
reggae
puritan
brave
##ћ
austrians
sightings
astronaut
sykes
basic
bell
surveillance
195
orientation
sweat
inc
otters
sandal
otis
1910
##gau
familiar
vibrations
##esi
##ilah
check
actresses
##ag
##astically
intermedi
phill
mit
upris
##coming
sales
turns
mystic
trondheim
brittle
##ible
honduras
presley
utilities
coleman
##ስ
angrily
##cation
extre
flux
cg
rooney
lecrae
norman
disraeli
substantive
wolverhampton
confucian
ged
instance
beng
##ensis
##osc
##ocles
suffer
##თ
elaborated
##wal
##erl
roger
dub
undisclosed
wanted
##hel
##outs
temp
1861
resisted
falkland
bure
whole
trivial
quebec
emot
##tec
生
sheikh
eventual
##roph
mandated
deals
wels
fleming
630
mitch
evicted
kabuki
##verning
##aut
mound
cooled
water
keel
noise
premium
digit
gaga
##abor
sack
muds
does
outlining
judges
alto
claiming
feas
realize
enquir
annually
##hra
##ew
hak
clair
paying
##kre
148
net
taunton
alleged
mystical
##scape
hits
processor
admits
##ho
differentiation
##ら
##lando
gamet
compliment
##man
behavi
1838
teach
crosses
1793
worms
rhymes
alonso
meeting
##wood
palaces
nan
coher
falk
elliptical
ave
hertfordshire
fragmentary
proposing
peloton
securing
graduates
tasked
alv
shipment
anarchy
compromise
sticks
ac
coch
ignored
##ariat
holmes
eminent
pl
##street
rund
arcades
##indo
thorium
sacrif
leaves
sah
assy
dodgers
##owing
little
heff
##ם
univers
cad
unemploy
oaks
enjoys
panels
macmill
precise
##ure
tanks
ground
exhibition
bags
materials
graphics
burke
##ynt
fw
extremes
##estrian
##se
fronts
kiar
decrease
jos
poul
sus
fallon
islands
coerc
centimeter
resided
lucky
##ipeg
minogue
##omial
aberde
benefits
wilhelms
ቆ
implied
queens
calam
evangelical
afloat
##urg
歳
両
archaeo
mixing
seashore
refurb
pointing
coleridge
##gan
##vo
baja
available
whale
offensive
sv
relation
searches
herschel
breeze
superseded
artistic
substitution
##jo
macaulay
operated
##assium
been
auxili
ago
♯
aurora
marched
vertebra
junction
remote
variations
suppress
scandinavian
##islav
petrol
parents
lynch
attributable
sa
encouraging
baron
organs
##encing
congr
1805
##essed
defer
goats
awareness
##ophren
mard
spectral
kip
lauren
wer
trem
pot
##ems
##ャ
constitutes
victims
protest
portico
resources
sal
cherry
spaniel
burrows
50th
penda
opt
brought
stanza
zappa
vh1
sherman
schum
##ft
minel
prostitutes
jesse
thrown
nicola
poly
勝
ɨ
respiratory
degr
ideology
hank
chip
##ج
ii
husband
sean
contrasting
confederate
forces
fluorine
##iae
butcher
loves
debris
singled
beard
一
cruiser
legislature
wow
##aman
oce
garrison
mathematician
file
commissioning
fal
##isi
##standing
facility
homeworld
##unts
##akouzen
montfort
touches
duane
pc
neared
hast
counteratt
inadvert
profits
##onymous
palm
klan
##once
fcc
models
bernie
##kka
subsidies
bale
intert
cloverleaf
1753
counter
cheng
worry
skies
##quest
terminate
traw
##use
evac
reprodu
hp
raiding
blow
vents
##yne
cautious
collaps
roof
talented
##met
pirate
helping
tier
nons
violating
passeng
ь
eruption
aber
wheeled
detect
ry
gutierrez
bor
third
christianity
publicly
##mates
claus
##horn
##ces
jackets
vulcan
##walk
chimney
understand
cly
326
2002
##rand
color
帕
meadows
111
prop
gael
brill
weber
province
thinking
##gles
interstate
deport
rode
illust
bi
scenic
##amination
##hened
gained
shepp
bass
λ
diplom
##kie
lars
clinic
lok
missing
satan
outward
goodwin
##enser
moments
##arine
wheeling
carl
excl
companies
erlewine
##ancey
##ος
##ailable
albums
resignation
phr
overpass
fern
##anelles
katie
scots
##osaurs
##lywood
characterised
bankrupt
gossip
terrible
##oton
##horst
康
monaco
monitor
tang
embell
st
formerly
agenda
##ishn
glob
internation
batted
hund
upst
ር
ratification
##eral
nostalgia
purd
passages
ʷ
lime
prefers
accidental
racet
crustaceans
welles
marines
tips
expectation
hotel
overseas
intrinsic
distrib
gaps
journeys
miev
##ves
##pective
guilty
vik
##emaker
##ington
phrases
##osing
sw
isis
cla
newspaper
##verse
homeless
##ネ
greeting
domains
puppet
##wald
##chet
belly
dominating
unnecessary
primarily
grampa
feminism
ᅣ
design
subdivision
c
leices
313
##city
bishopric
nationals
##iso
refuel
malays
perkins
seem
##alach
xii
mentioned
sorties
##ayed
madras
rogan
##aff
forming
##bes
harmful
single
##ycl
infringement
penny
feud
blunt
templ
shuichi
shrek
##iole
okinawa
aspen
sheer
##aters
會
peac
jeff
adjour
jeanne
islamic
judiciary
territ
fem
nud
timbers
persistence
fab
alley
議
thel
mahend
give
falsetto
distinguish
##ear
future
lutz
autonomous
取
##ow
##ola
sava
##athing
mechanisms
hemisp
engagements
##kamp
parodied
homo
herd
fn
mysteries
roofs
series
kier
categor
shant
##ricted
##ogist
##otam
expertise
seldom
criticisms
reappear
database
voltage
##uo
aquar
owed
gaming
hood
sephiroth
problematic
token
referred
##core
explaining
williamson
wholesale
↓
agrees
antagon
requ
approaches
angeles
trends
tucker
gob
##ace
##heads
northeastern
acts
requested
##rust
kick
reworked
renaissance
aylesbury
corresponding
vari
orchest
##avy
tama
##intosh
cicero
ley
all
anyway
staged
##zine
participant
supported
kash
superiority
##ently
104
steamship
encounter
recurrent
unexp
certification
bootleg
helmets
waived
moz
roommate
logistics
##epend
##mach
intercepted
barric
crafts
bulkhead
##ithms
heroin
guadal
pd
##oths
##ᅣ
directors
tradition
celebrating
ᅢ
horsesh
quarry
spars
候
reader
maldonado
##pression
shoh
##ת
calais
realigned
jagd
torture
effort
##mere
##ublished
secrets
kim
owens
vargas
org
##ecca
include
timeless
##view
refers
##adors
agric
miami
genoa
kicking
bite
sav
readers
valley
competition
ม
##atem
analyst
subt
communion
seeds
redevelop
##onscious
thereafter
reluctantly
senators
##ologic
##armed
clutch
bes
freshwater
carpet
inches
pins
ter
parodies
316
##kos
definition
councillor
##aka
##wings
wang
ferm
pic
fe
gibbs
denmark
1980
identity
weymouth
liable
refitting
balkan
aif
##olith
##orm
citing
ensembles
barbarian
philharmonic
babylon
##nor
##retto
rescued
##bb
##atur
washing
travels
maclean
##h
boar
salmon
cinemat
scot
princeton
enrich
innovations
bridgehead
ᵿ
ramp
priest
maternal
intensified
attacks
apparent
demonstrated
attempted
sluice
pear
ster
balc
##hammer
falls
bin
##alf
deciduous
##irable
marlborough
survival
luttrell
ヘ
narratives
repl
##ब
##requ
repetition
competing
antibody
remarkably
sunset
on
rested
locks
says
prol
due
scripts
poem
##raw
ranaval
1930s
sinc
ceram
drake
blanchard
investiture
sainte
overlooking
niger
points
oxide
ll
alienated
setback
doing
guards
englishmen
dismant
##zac
##atra
prevailed
incub
labrad
##nings
necklace
trek
straf
kai
##uria
cheating
##ayer
shocks
oricon
proved
flanks
tribes
mining
eternal
##hing
rapper
proteins
1880s
##acha
1855
khal
carla
electronics
##iery
manoeuvre
schizophren
degree
233
reason
##him
whatever
contradicted
shang
##ba
界
hearted
##plet
penguin
visits
beating
##enge
madeleine
pick
##hang
wordsworth
reporters
obl
##olome
##stadt
oh
protesters
claimed
cutsc
activision
unfav
turmoil
centenary
末
service
burden
wether
relayed
説
ecl
harvard
inver
protestants
##og
commentary
managers
dictators
##ising
li
subordinate
satisfact
squarepants
##affe
abraham
prair
trulli
gabri
storage
dresden
amx
byzantium
synthesizer
ryan
barack
helena
##vil
##ether
configurations
##erce
quiz
offic
outsk
##ikh
##adows
overlo
attested
campbell
ernst
technology
##marine
seek
jennings
change
##nock
cag
abbre
relocated
##ur
va
mahar
squid
sympath
claud
iih
军
spite
confederation
images
roundabout
events
injust
exclusion
flu
incorrect
##ichi
opens
townspeople
rimsky
hosting
infancy
foothills
islay
denn
array
precisely
##enders
##light
##س
孫
dou
libyan
橘
nectar
yellowstone
lebanon
deteriorating
sedu
quadru
professionally
allegiance
point
bald
unconst
game
democracy
##erun
danc
hem
unlock
hin
makes
stood
factory
utmost
researched
benefic
mans
pull
portugues
irrad
##bul
miners
prescott
##cot
##aven
musically
##ʷ
pamph
tibet
##tape
##в
yamash
hans
404
committee
lover
windows
destructive
##ela
tools
serpent
magnet
lowell
dawla
spongebob
124
##oys
surgery
private
grief
##imar
defiance
makers
bryan
famously
forage
terminating
##caster
piers
finger
dedication
fract
spl
2001
pioneers
rushing
444
donated
##istocene
⇒
##less
gimmick
ai
popul
##ц
disk
bahamas
review
collect
andre
##okovic
imm
##abi
taegu
vaginal
##eated
pursuit
olive
skirmish
sensual
##ect
carried
cur
logging
south
1847
reprise
話
stretches
ammunition
1603
stables
vincent
joking
gaza
posting
##lamation
disj
##ey
egyptians
##ubishi
interplay
fash
trop
procedures
instructions
house
pros
1878
beer
under
disputes
myself
callaghan
ded
galleries
obliged
americas
grayish
protein
ख
unbek
manuscript
barbette
witches
way
zeta
introductory
gardiner
eyewit
ritual
##igence
##imo
tad
mcleod
users
sein
vil
dollars
peterborough
##sek
##yard
##lace
##ills
took
tidal
₱
149
cher
instructors
hindi
##aris
brazil
commanding
kobe
fights
paterson
knowles
regret
海
ᄇ
constitutionality
yosh
consisting
lobbying
lohan
wooded
accum
##agn
animation
recognizable
shrine
edged
joint
discipline
losing
doctr
indef
merced
preseason
##cles
lifetime
seems
prince
frozen
ott
frig
bul
##atsu
fortified
pierce
auton
mn
superstructure
alp
plaint
math
returned
spect
reportedly
##duction
##hetic
debt
##icially
salary
gloves
neverthel
##rome
advoc
dissolve
chap
lid
skill
athlet
uneven
milne
15
ocean
aspir
ħ
classifications
odd
embroiled
harmony
shik
editor
linda
##okane
cus
classed
##erse
mafia
##ird
ה
##ged
plays
haifa
vanessa
unsuccess
tyne
trilogy
flute
siberia
wise
質
texts
hc
veer
clarence
cn
schu
##ou
penetrated
##hedral
uruguay
skinner
clocks
##ied
scientist
fails
healthcare
##1
##ə
##alese
wimbledon
os
suharto
spill
wrote
parties
delaying
##ర
kett
##umberland
delicate
extreme
theob
##ural
paranoid
smithsonian
##self
israel
lidd
ijn
daytime
##intend
##ived
##і
undertake
continents
##ʃ
##wa
inexpensive
partic
cuts
四
1940s
concluding
tut
√
₹
las
##ancing
remarking
vilnius
wollstonecraft
plun
premiership
##gle
##uld
wither
##loe
billion
##wave
tall
envelop
santa
cyclone
herald
burgh
crest
rook
##aud
joyce
occasions
ownership
detain
tempor
##د
unauthorized
sayid
cabin
役
installing
神
identifies
##sta
ord
gateshead
##ʋ
widely
boyfriend
benitez
lik
##isle
marker
los
fleury
deficient
greenwood
what
忠
cripp
の
sanchez
##ulative
bosnian
##ned
communicating
consecrated
possible
nathan
spiegel
##len
gad
##mas
plains
branches
compiling
lord
abra
shale
##е
let
##illation
ph
sz
##comb
vapor
tear
interiors
sib
shall
aet
##adic
charl
fraternities
kik
iso
philosophy
##yers
##atin
pollard
ass
dvds
##φ
##ruption
clown
adele
eb
stripped
siblings
##icial
##tenstein
appointing
20
glitter
2018
carrying
muk
双
comprised
inducted
noteworthy
refitted
zimb
##ote
headed
italian
clara
bce
hr
maryland
fief
pitched
assass
brat
rump
perrin
companion
ore
recommendations
unlocked
##grad
##ribing
jude
მ
##hic
investig
elevators
degenerated
##inty
inventor
coh
inquest
clarkson
kinc
incorpor
thom
intensity
##iol
wholes
proposed
11
buccane
forceful
advertisements
crompton
##pm
meditation
乙
prim
##aa
##immer
operator
lamont
foals
saxons
##lam
terrac
uttar
##gas
##enon
##berger
pony
patrolled
##ycling
removing
hubbard
between
##bergh
##ة
demonst
##hening
##ond
hawkins
lau
##ifying
bing
coffee
p
upside
ultimatum
泉
keating
bro
puzzle
谷
##activity
lat
business
isa
summit
叶
neur
נ
showcasing
disturbances
entertain
champions
full
##undel
##achev
guthrie
hier
renov
予
1932
brings
recipe
hands
р
bigger
hispani
raided
big
concussion
clr
tort
fitted
sonny
portraying
##bot
withdraw
##oup
northward
proxim
##aware
ceremonial
playoff
##all
##ommod
neptun
semitic
scales
##ulia
##itutional
##ɨ
##oids
nothing
##ceed
##osity
reflection
platform
##iculous
leuk
finishes
##of
##ndish
viewer
obli
##arivo
olymp
##inn
fenn
##п
sheen
##hern
wildcats
co
koscius
調
ashley
operatic
主
michael
blockbuster
mia
rebound
versa
myst
details
dor
##atine
raphael
##old
##onium
stealth
##net
connection
responses
psyche
##gor
openly
##lington
common
trades
franchise
track
intercept
distinct
##rid
illiter
outsider
##zies
##ւ
enhanced
timbal
forested
portal
greville
ε
extraction
portsmouth
turkish
pluto
75th
##nius
mentally
##atural
kag
thunderbird
miscon
watercol
##hot
steering
richard
1813
ancestor
everyone
##ettes
burd
bacon
##ion
##ffman
##ada
sud
##rat
lut
##uous
##gian
zebra
coasts
nevada
##ח
hut
##ksen
侗
handheld
dew
historian
##kef
1947
118
unmarried
ensemb
##wor
##ae
mariah
popularity
##atching
≥
mech
firepower
catholicism
refuge
interlude
inlet
##ign
katharine
affiliated
ecuador
arist
perh
berry
222
##irm
lead
productions
crewe
##ד
arabian
hu
swe
lied
altru
erin
beech
melee
carmen
##mir
harassed
colorado
presumed
luigi
withdrawal
juniper
duchess
gladi
##jud
##eur
##la
expl
napole
progr
complex
xerxes
alphabet
##esham
officially
strang
731
captivity
¶
swung
nak
eyewitness
aest
chimneys
necessarily
legged
madame
isabella
comparison
johor
irrit
beyond
ryu
taxon
2004
##die
mersey
speer
unpop
vince
emblem
main
brakes
quality
##inced
sammy
1912
cart
columbia
##ined
##utnant
nfl
murphy
plus
muss
disarm
humour
vaude
##ogative
cuis
habitats
##θ
policy
##inski
relocate
act
1066
mes
##pa
ross
gav
immort
educated
mutually
dish
##owl
syllable
inspirational
meaningful
dement
pilgrim
enduring
building
##ध
invading
sycamore
##irming
nationwide
yemen
revue
extremely
funny
1837
##knot
psy
gamer
affili
hypothesis
cole
##ue
##inal
incubation
##erson
plaintiffs
##hus
expenses
##inder
dated
mid
freel
episcop
chemically
kaufman
##rav
dungeon
gaston
venetian
giants
books
derives
liked
metab
fishes
determining
d4
signifying
blurred
eco
century
waterline
ep
danzig
hatching
ఖ
ripped
##ocation
nes
fart
negot
##apping
received
1881
##pop
1880
directive
mcdonnell
confl
##geon
##acerb
clergyman
avail
baff
cadet
shack
modest
improving
##anz
##una
boletus
cited
coul
outcomes
rejection
##wey
portions
evacuate
spray
##wich
1968
pemb
aliens
wic
arrival
tracked
packages
vonneg
##cers
##empl
blamey
bryant
##hn
tiberius
dorset
hampshire
##cca
indictment
instant
##xy
##atta
claim
occ
icons
散
alberto
##hd
rhin
herds
dried
##vol
both
stereo
philippe
displ
##inct
coinage
##pre
##aby
pig
sasha
##ვ
font
##ren
ballet
uerl
clean
curb
regiments
multiplayer
##aiolog
##rible
website
stacey
##nder
fle
fender
kuznetsova
mycenaean
##olini
incorporates
tsar
overland
validity
adren
worse
hugh
nib
argent
dow
##arnated
quadrant
unsigned
rele
##ph
olympus
tennis
calc
take
west
spaniels
notch
volk
բ
sponsor
pension
freight
therapeutic
barriers
pilots
daylight
ethics
chance
##icity
racco
positive
verme
interim
months
lois
nih
produced
blucher
legions
治
toilet
seconds
rehab
##fs
admired
##eder
define
aqu
251
diet
ecosystem
canary
fri
wrestler
figure
prat
midlands
olaf
truck
fus
solids
transformation
##por
ghana
lyrics
nellie
object
puerto
##amo
supplements
moscow
vett
approxim
strips
there
##rative
seg
staunch
piercing
poured
franch
burg
д
##edo
γ
vitar
trauma
禰
observed
##pass
consequence
cream
overhauled
ramirez
catholics
reilly
offer
rainn
allowance
northwards
##oku
soundtrack
##rees
lester
stature
traces
pocket
projections
sut
hydraulic
##umped
ustase
##gs
largely
##ulton
termed
randy
star
key
describ
hides
splin
further
carnival
screenplay
november
##ovina
charles
lukas
outbreak
directed
##izers
##otype
engel
empl
byzant
##ɑ
explode
イ
clues
dung
crowley
##ell
##ghan
derfflinger
##т
dukes
##ozo
knowing
wei
stonework
improve
##asha
kang
realities
psh
pronoun
receptors
tavern
marie
kal
##through
eyewall
keith
essays
121
eliz
christy
celebrities
soup
jubilee
kub
capitalism
poole
ongoing
peripher
1750
stool
cooney
engineers
minority
1969
add
smok
departing
ville
desires
pbs
tod
debuted
pab
minnesota
rains
imperf
affected
##ishing
940
argument
##letter
bred
##ड
sixteen
suck
##jet
walks
##clair
attackers
matrix
closes
porto
visitor
cof
vomiting
tooth
##antan
kantakouzenos
bh
uru
victim
ipc
…
##avas
##zed
molybdenum
presiding
vog
##porary
gems
adolescents
164
election
##down
castle
martinique
similarity
colonies
endured
想
greco
##worm
injuries
coel
frogs
##baum
j
elected
streak
##rym
trajectory
embry
examples
damien
colonization
urb
ত
witnessed
western
##arg
diaz
undivided
##amoto
##adena
##ðr
87
rue
cis
extensive
careful
##50
tough
nebul
r2
nelson
bottled
forged
hostility
romney
m3
##thy
gunfire
vampire
reward
touchdowns
particle
ం
jin
roland
thai
##ulu
should
poker
hay
standings
contrad
pottery
inhg
##try
mk
ʔ
giov
##ique
barrier
##olog
細
headquarters
brahm
wah
inferior
holds
gravel
supersed
pinfall
encycl
trib
y
railway
##airn
peppers
wilhel
##tery
##line
sings
smyth
econ
persec
conferences
technological
minded
##uded
carter
bavaria
##ɛ
quang
provided
##press
canadiens
canucks
miniser
discharged
长
extravag
##thr
cyrus
##ctory
pemberton
proble
marin
coda
shre
classes
welcoming
buil
declare
hilarious
##tt
assist
##ader
barbar
rounded
authenticity
psittacosaurus
disposition
credits
subdivided
largest
syd
republic
##cus
##lifting
##acle
council
fallen
黄
##ibly
##sein
soldiers
emily
##opods
1807
shearman
##power
kuiper
hooker
psychology
sall
occur
treasurer
##ส
##ifact
##iation
ct
mozambique
freemason
ap
hail
mainland
##enton
rendition
peoples
humber
ర
##uding
remained
sic
hamburg
nel
weiss
licenses
mothers
centre
eldest
hairs
bates
forever
motion
resemble
daddy
dl
gosp
##hips
mathematic
heartbreak
nx
circum
conductors
reporting
childb
thirds
translation
senses
memb
vane
angles
messiah
dan
##week
nickel
insur
malmes
perm
initiative
##ata
ᅵ
artifacts
sq
comrades
##bium
##mington
priorities
fu
##int
##isot
ces
favorites
ate
beatty
185
6th
##iona
reinst
##our
##eton
beaches
performer
flourished
dominate
farm
##isand
meadow
wears
precipitation
scaled
routinely
##feet
christopher
defended
chibi
##iem
antis
navigator
##ari
##ances
many
lovato
##dale
melanch
forwarded
fail
geology
elector
markings
wreckage
dispar
fed
hybrids
##oust
covering
##hend
commissions
##enveen
##マ
theophilos
perpetual
widow
lange
infantry
probably
bonded
taught
cater
say
sel
##raft
##ument
術
explicitly
advertisement
monsoon
abst
reactive
gamers
modify
rankings
summary
pending
surfaces
mediocre
miser
engagement
scully
duchovny
remove
adopted
幕
maf
interviewed
1940
jabba
disband
briefly
stalin
helicop
beaut
##ツ
caused
muc
quirigua
ᄋ
havoc
airlines
chann
philanth
foref
##erys
andalus
##ration
##iu
##heus
pregn
randomly
arter
telegram
##eni
hanna
reel
dummy
brilliant
shp
shown
245
tint
infield
##lights
prefecture
age
wilf
exported
peirs
##aul
##robe
boosted
hopes
jinnah
launches
chaos
1882
injured
##oan
ಾ
krakow
exerc
esp
fasc
curious
roe
action
gently
nobody
authen
##ノ
##hog
sledge
tav
##staff
pw
brunswick
##amus
slave
pap
##ips
expresses
missouri
forec
mount
cloud
203
##rich
germany
damasc
a1
terrorism
メ
##ocar
##etric
##itarian
semifinal
lineage
leader
turning
lavish
##othes
commonwealth
apprent
statute
supplies
nebula
tolerate
##strom
br
consoles
shield
battlecru
freeze
palestine
reviewed
enforced
eat
thief
react
roth
call
psychic
courtroom
##itt
follower
##film
devoted
challenging
sparta
guevara
takeoff
hampton
melted
relying
##oves
rockef
##awi
economies
doris
1827
friday
refuses
colliery
##aleigh
birmingham
hiber
cylinder
enables
healing
wheel
barb
hoisted
reformed
infrast
clamp
##ʂ
reconsider
intersection
tense
squall
alabama
hobby
ceremon
inherit
taun
##cing
burrell
prot
##enner
forests
unhapp
mater
larkin
##า
app
tot
unbeat
benj
generated
chorus
##ቆ
##ranean
adapting
filled
##sson
overtook
dion
bradshaw
590
downloads
tau
towns
189
radar
##zb
nymph
prolifer
honest
filler
erected
161
1891
futuristic
kab
##anim
conceptual
wilderness
deuter
biff
gat
##ruction
among
roose
leaked
##ibus
maharash
jaz
presum
book
apologize
torres
nate
entrusted
quotes
##herjee
springer
·
warning
##aken
equivalent
metallica
founded
household
flavour
redist
preval
fills
codenamed
deserv
expand
subdued
divine
application
engaged
appealing
prohibited
dialogue
##adow
dell
rosy
introduce
wee
marshes
ministry
struggling
##icits
tunis
confession
field
pattern
year
dying
fit
maroon
aims
glacier
wyatt
cello
##yrus
organise
reclass
revoked
dalmatia
airline
mob
round
krupp
##heastern
command
##ग
cran
segregation
gags
watches
mistress
mari
representations
her
northwestern
hamlet
python
pupil
honor
##aces
##emon
ਅ
##gean
##mouth
nomination
brac
ß
耕
lundy
trip
daniel
recipient
##arked
##δ
fall
attendees
plead
commitment
wor
jord
01
pint
dal
1923
assessment
typh
##vey
orp
esther
shift
##anti
##hou
bolt
disclosed
virtue
merchants
maced
##awks
sepin
kisses
strengthened
thursday
oleg
##izer
guiding
eury
trac
kost
casts
resurrection
##oy
survivors
defending
unlaw
enactment
widens
quarters
karls
reactions
shoe
crash
baroque
conced
weakened
primetime
lyon
spokesman
296
325
deck
mere
sm
ห
##rote
pine
depending
elliott
##lements
##raph
serje
‖
blo
jour
wesley
deputies
г
multiple
nba
##tach
##vati
slogan
lsd
independence
soror
##igan
reflects
disb
toby
outfit
receip
obama
losses
unle
tribal
¢
##rad
##kel
cardinal
escorting
##iferous
##aming
zeke
khan
financially
quark
##gart
wheelchair
chaucer
comprises
mulder
ballot
manuel
##ens
pressured
biography
allegedly
tal
fraser
tropical
reigned
violently
allerg
##ocytes
climbed
doof
enrico
grateful
##riet
ς
##ompt
83
ronald
ridge
surveys
aspect
sensibility
cons
econom
entom
fiona
ultimately
travellers
descend
##ogn
intermittent
hawke
accessible
pumping
attractions
##yar
##oga
repuls
injunction
nier
benjamin
circ
mem
merger
carniv
179
dumb
underw
jerusal
##uer
alluded
subf
shing
##ains
unwillingness
disposal
resistance
disparate
perfect
harold
##char
pods
era
anyone
##estown
line
rak
comb
address
voices
vegas
prosp
become
aboriginal
underside
dep
afraid
superficial
coff
overseeing
kilograms
eponymous
dwind
armistice
administ
jama
partisans
representative
acknowledge
branching
##brough
##ː
going
1852
westchester
department
waking
objections
layers
californium
##iah
heffernan
altern
richmond
##ᅩ
practical
het
uter
divers
expressed
concerns
bubble
crist
##isted
hangar
aoc
guine
labeled
pos
narration
##ock
treacher
charley
ain
minimize
roosevelt
happily
##ր
morton
merc
##iable
guerr
व
sen
ホ
covers
advanced
libraries
cambridge
正
殿
funky
##boat
##ian
pistols
sermons
##foot
apache
prok
dv
tran
theo
##iz
275
tables
failed
##ty
zh
##zai
ordnance
experiment
observes
sabbath
232
couch
##irmed
##hmus
##rosion
lucy
##rec
investigator
polls
##adowed
##pret
loops
intricate
strengthen
coal
periphery
կ
disrupting
hert
##ussion
burges
turbo
storeys
causeway
descended
##itis
confir
₤
grouped
weap
chrono
stabil
closed
hither
63
##ogy
kaz
##ground
pina
virginia
shoot
inspiring
legit
wimb
dubrov
volunteer
commerc
stop
beck
consortium
resurf
drainage
##iegel
death
##found
turbine
##dr
makeup
##fi
leonardo
dark
intervene
caterpill
ʲ
姫
##ysz
durham
chicken
progress
sf
families
flats
blackstone
##l
interior
options
spokane
craft
ideal
wetlands
emir
conservative
advertised
meantime
boxer
please
wickets
rodents
barlow
coercion
businessmen
##inqu
commented
seen
##isto
reinforcements
##thi
arb
legisl
##iliar
istan
bowyer
maurice
redesigned
##ј
##alp
thematic
este
conform
major
##helion
mavericks
showed
##link
alleging
rect
cutscenes
##ommitte
alk
aspirations
centaur
scripted
##ead
taked
sacramento
astron
dup
brigadier
fan
bok
ъ
pays
fermi
##irut
ultr
##eliness
stabbed
psych
terminates
ober
somewh
##rane
confronts
finalists
##ortion
decommissioned
##hello
ვ
blind
prohibition
imb
fia
pounds
rosa
##anova
##dled
hel
examination
missionaries
influ
µm
possess
flut
896
##on
accompanied
##ב
jail
1918
coincide
##ʌ
budapest
sentences
selection
print
asking
unhappy
trad
administering
wel
##nam
fluids
##opatra
weighing
kerrigan
nhs
##roke
chill
##azar
fortification
intermittently
footballer
##urb
unn
47
##lud
坂
cause
results
memorials
barrichello
policing
mariners
influencing
dozen
##veen
ottawa
##illon
week
loun
religious
credential
ﬁ
跡
trend
coke
1816
mccay
challeng
hun
monsters
taxation
mammal
þ
##rocess
klein
##nought
justify
##overed
meyer
188
true
ux
oryx
gal
saxon
glasgow
dredd
disadvantage
calendar
smallest
response
##itative
hardly
legends
rob
regain
taped
promoted
greece
feder
25
abortion
projectiles
armed
##rack
tiger
knife
transforms
criminals
playground
##ʁ
really
##imented
den
gl
劃
cer
##irman
overth
dunstan
##డ
sexual
docter
##asts
culmination
skopje
##essions
concludes
somme
goldman
sega
##obiles
muzzle
##amette
blessed
upperparts
##kary
hypot
##no
##sw
unemployment
housed
ramsey
##ever
ethiop
##pert
skelet
consciously
##zburg
clitoris
icel
realism
carpenter
##ska
bachelor
program
loosely
opportunity
travel
severe
spanish
psp
rous
lower
thr
calls
conservancy
mind
taraki
collabor
gradients
₨
politic
granting
reconciliation
##reat
##work
afterwards
literary
##hold
competitive
meteor
atmospheric
anxiety
##ud
jell
constitute
manit
共
alongside
diameter
##bl
magnific
kylie
alert
prel
samuel
keys
bangalore
carm
postclassic
##onym
lit
harmonica
trouble
recover
##onent
linden
independ
dx
katy
denies
bb
leban
closely
possession
teamed
monarchy
trunk
held
propeller
rotherham
crit
式
##bles
banished
granada
kod
laurel
pioneered
##isy
fairly
arjona
appearance
##iven
##onge
pess
iceland
kaw
sult
unpleas
akira
poor
hilton
quietly
lov
roost
artic
mcgill
corn
1500
monastery
drill
##orrh
fruition
fragments
##gorny
301
ዕ
##ifix
haired
##ints
varied
##oking
ann
trenches
predominantly
atlant
courtney
guides
unt
##oplan
wicket
##elock
woodstock
oregon
clothes
convince
feared
liaison
super
blanket
##ibilities
brachiop
survive
##ו
prose
##ifers
iz
remarks
implying
raptors
bismuth
##ovich
##hu
##harmon
dennis
theoret
gretz
##fe
underwent
colour
chest
383
cyan
benz
hunted
talk
blocked
##ifiable
85
claire
##related
evaluated
##chair
ingredients
accommod
pioneer
depleted
algeria
##iver
display
storey
scept
processing
##icol
##gi
##ating
sentence
moder
morphological
beside
stras
southeast
##rict
##iss
denounced
average
##apo
panthers
generation
shaping
##ely
subur
##berht
attractive
realised
imp
##rete
compares
juxtap
sinatra
pulled
leningrad
steam
##intyre
tender
scheme
balcony
™
##oint
winding
abdul
robbie
salam
subter
stores
tripoli
precursor
devot
wash
goaltender
lett
pto
martins
##ectors
consultant
##aver
turin
elk
beat
whereby
suppression
pol
rav
emm
##aneously
bakshi
drown
1862
##sch
squad
statistical
ы
loth
simplicity
incor
##jected
robinson
anter
preparations
##sty
##umal
sexiest
democrat
stunning
leigh
##ucky
02
##ontin
朱
killer
knock
storyt
##illard
donald
rooft
overall
gruff
220
hero
bastard
percy
judg
##chool
45
##द
belcher
stef
reviving
ku
##ects
drains
landown
coarse
surprisingly
##imura
shanghai
##medi
##enay
##ength
region
mcmah
entitled
venez
##irk
partially
gr
discrete
orange
420
##produ
##usty
congestion
earlier
arche
jobs
##restrial
measures
detained
skeleton
majestic
dimension
michele
benson
##aceous
blue
1902
##onde
slater
guardians
jewel
1907
abandon
encl
crack
cowboy
anthem
##ushes
eventually
metaphor
##kind
quota
cin
essence
##rop
singers
device
hambleton
logistical
ec
certificate
##mph
##ulate
##thal
collecting
rit
keen
contractors
trin
beef
patton
emer
mcn
exper
levy
##iki
reminis
ample
toured
chiefs
scoreless
operators
warner
kiev
##pect
##donald
schools
directorate
plates
troms
phant
pradesh
entertained
lichtenstein
worsh
##izz
##idence
154
wilhelm
fur
multip
melancholy
widespread
##itals
vag
designations
##צ
undergone
ski
supposed
##loid
markedly
##empt
##ev
##izing
pay
roo
♦
sof
sketch
pistol
participate
neal
kilogram
sons
##ocr
confirms
enjoyed
dishon
272
##cz
##urgy
entries
pix
driven
percent
pledged
##lap
peril
larger
cath
##erite
freak
elevations
start
##adelph
caut
2012
##yah
speaker
ट
aadt
became
##iast
knockout
##kop
retreated
intervened
upt
裏
beecham
holst
tonga
sole
##oye
##mings
wet
infinite
利
accepted
calgary
intelligent
regards
sled
talbot
##prom
resh
##ン
graded
##ova
equatorial
coordinator
xenon
960
##brit
caldwell
##anda
##uine
malvern
##apa
halves
drafts
calhoun
accomplishments
ש
ae
posse
upgrades
bergen
underwood
hick
##rick
sampling
married
antiquarian
completely
sche
##oured
training
monkey
accusing
dispatched
herpes
appreciate
##zant
nans
##ש
##ulsion
##45
##ver
##ashed
temporarily
##udas
statistics
##base
##bol
becoming
atm
restart
assess
cinematographer
zen
shirt
athletes
hog
84
interned
fanning
hotch
fairs
silenced
cocaine
clover
kenneth
favorably
hamm
compromised
directorial
t
rejoined
exist
khmer
responsibilities
##ל
translations
##iaen
lie
1850
countess
##fan
lynx
obligations
##oxide
fen
barre
##ishop
##zier
le
overran
kate
gate
schwartz
##acter
latin
##azy
##unciation
kuo
##mi
wear
⅜
organising
goll
kana
att
babies
strateg
##urd
hearts
##cephal
paramilitary
##upon
bj
##chan
mis
kv
conversation
cultures
##nitz
cartier
ద
personnel
contracting
skysc
ironically
subfossil
sharon
##mant
##roiled
sensed
andrews
barrage
balzac
##uther
advisories
410
bestowed
ein
##pher
##eer
turnpike
3ds
rookie
styles
powers
##ま
seals
lae
##fulness
patrolling
reassigned
robbery
##iances
eagles
invaders
cheese
hendrix
eu
##fica
1872
southward
danced
belize
incumbent
hostile
torped
citadel
previously
ar
discontent
gilles
填
nevermind
##orse
imminent
incurred
460
205
improper
roc
ome
contempor
impacted
ƭ
##he
livery
copy
vant
clause
elph
清
districts
leaving
unofficial
wilkins
##haw
ʃ
barometric
hayes
aroused
到
announce
kyl
that
telescopes
1711
##12
##flow
sector
區
##thor
shooter
barley
336
##volent
redskins
##gard
disagre
nutri
##hor
hastily
colonel
worried
##ions
investigating
##acht
##atory
stages
ballads
pian
intending
dap
responds
##thur
reprised
ia
fined
rely
jerseys
##olars
resigned
每
worries
napoleonic
chaotic
intelligence
2013
moul
##dle
robot
其
rust
gram
##rude
##itre
##ern
inhib
tob
##irtz
##เ
##jin
forecasts
melt
centimet
embrace
breakthrough
dic
##fol
##ack
spaniards
##и
hes
campaigns
reacts
##ori
##amily
breakup
blu
dupl
challenged
e4
script
parry
yid
koz
##ella
earthquake
cake
lanc
scouting
buckinghamshire
seller
donnell
stam
miles
س
ultim
周
pund
successful
##ros
plans
featured
##scan
ming
1931
##illy
や
##ท
bombardment
viii
torpedoed
cir
diab
solitude
ソ
apolog
seemed
##etti
woodland
symbol
penins
fluor
侬
pyramid
rocket
##aney
restaur
uthman
lookout
bohem
spont
epile
georgia
oppenheimer
dann
paramil
##attle
hust
rage
jel
bos
mineral
hab
##bing
pillau
wiped
##arcer
successors
lump
##atar
buck
##eco
的
follows
##steps
herman
tells
dreadnought
##hol
conclus
1761
hymns
gent
trademark
sampled
puls
induce
tipu
maj
dominant
forced
##amba
updated
haunting
gentlemen
登
##jection
pools
flower
shipyards
odor
slated
##ellular
guðr
middle
surrendered
newcomer
##zona
1986
ruined
##heric
gone
##cept
mcm
tent
particles
recordings
##uring
robin
endeavour
surround
brisco
ide
afghan
implement
edmon
vulnerability
repeat
stumps
outfits
##pi
##akan
combination
minefield
363
aure
##ored
##ampton
cheap
revolution
regina
unopposed
consolidation
louisiana
slovakia
bad
booked
reorganization
##changes
testify
frankfort
206
dev
hum
deserve
yar
seward
kane
+
care
gren
##oven
empowered
emin
dolls
pedest
explorer
endure
奇
chromosome
forerunner
mechanism
obst
bog
devastating
qa
diffuse
athens
##en
glove
da
##eaux
newport
talents
och
fletcher
pendleton
皇
jack
contradict
surrender
##ithe
tramway
manchester
appendix
mediterranean
##sd
unique
1762
inhabits
sanitation
irrig
oxford
furniture
ralph
divide
attitudes
##war
##ilocy
king
mats
deposition
##dick
mistake
broder
healthy
1851
laws
##rive
strugg
##nesian
karlsru
nashville
kra
defamation
riven
klaus
exhausted
fiji
rugby
algor
championship
cincinnati
cud
dul
##ilities
vein
gallon
died
prest
role
antioch
brest
##uk
breaks
marilyn
amyloid
marath
cattle
##awak
trapping
guarantee
tank
##qing
cedar
locations
publisher
alvarez
micros
vs
nec
equipped
pizza
##vens
dop
##ota
##ases
create
##irez
##ahu
tensei
113
stemmed
howe
##araja
peruv
stock
understanding
vanderwerff
overwhelming
andron
schuster
##atically
brownlee
lung
detachments
synag
sha
doctors
##8
desha
compass
1776
variability
invari
##ipping
alice
fierce
千
burton
dose
##orts
psychedel
hollow
football
contestant
ferv
audition
seren
##iday
協
forestry
sounds
abbasid
##borne
copies
alab
##iroth
ect
paleont
##yo
depictions
##uris
raped
hemingway
exceptions
stein
bonus
hermit
##ography
gastro
projecting
experimented
colin
novelist
ligament
reminds
kob
lakes
wielding
137
clut
down
##rim
##ing
unb
runner
unders
nbc
##heimer
threatens
weight
lottery
selections
##uit
ironclads
highs
knox
jason
喚
vowed
charters
labour
downtown
##ience
september
##aska
sacred
eukary
sitcom
##egr
reign
payne
e3
storylines
geometry
budd
deer
##reep
fortress
##ifax
##st
ted
jewish
nicholson
##enic
##jah
colorful
jerm
devotion
hol
souven
trusted
##iden
partisan
deaf
##ienced
deeds
subjug
punishment
shet
everett
mangrove
execution
##esa
nostalg
raj
nay
prepare
klux
answ
digest
reformist
maximum
##ergy
##ivel
maintained
futur
roads
杂
divorced
##ounted
sympathy
##abit
##icul
db
files
sawyer
motto
##bag
assumed
canyon
##orted
charts
chavez
shakespeare
##ques
scholarships
departed
convict
haas
##ɒ
referring
lynn
8b
##k
rsk
off
naj
riv
respect
guardian
rosen
prosperity
recognized
plantation
financing
european
##onsc
overhead
navar
ে
boring
##occ
tightly
darling
never
laboratory
replies
##fts
yankee
##opes
cass
wizard
strictly
hears
mun
dental
##eries
michel
railroad
freddy
eclip
##arity
##ichil
controvers
mba
pra
consecutive
bengal
nablus
recounted
torch
##roft
op
colfer
pus
靈
dude
promin
maneuvers
apologised
chore
advising
barrels
cartil
##oul
creating
conceding
brant
apartment
ʄ
indonesia
differences
emphas
tie
fades
upward
prologue
benfica
##alling
criminal
６
southampton
performed
##eto
compr
barracks
polonium
indefinite
gustav
planetary
rewards
##ously
bar
summoned
undergoing
mund
amalg
dies
##aration
##ecki
pope
##book
ferdinand
possessions
motions
guer
gamesradar
street
expanding
rome
reformers
208
menzies
muslims
albert
least
##ट
meals
gne
cruising
national
wisc
dif
during
##obar
181
meet
explosions
ﻋ
insurg
anglesey
japan
sbs
stuck
vicinity
canyons
browning
ios
1870s
tb
timber
赤
tip
graduate
millig
realm
##mont
##onica
loop
recovered
columbine
kay
##ellow
col
prod
hardc
radios
tac
elisabeth
rendering
##ides
sam
begins
cosm
doubtful
delay
vehicle
rin
angle
##hist
gawain
##od
orth
##arty
perception
##phan
location
##ribes
gall
对
bug
somewhat
##col
zepp
##will
unfortunate
芒
ragged
terminal
dissolution
peng
gilberto
woods
54
janet
repres
adv
progresses
1952
inspected
contem
greenhouse
##appa
wander
tour
rated
kid
lobe
運
##rov
exhaust
oblig
elephants
cigarettes
thailand
medley
gangs
##attering
anast
##odont
##organ
kuznets
##eter
febru
renounce
angola
##ert
shifts
loved
cent
hungry
loaf
slough
##ability
henry
forks
echoes
daughter
lh
ragh
convictions
accommodate
bobby
cas
sast
pierre
pall
swim
lights
##ਹ
eisenh
魂
##ks
##aying
foret
##change
pious
physician
sized
such
more
schizophrenia
judicial
honored
fledgling
phosphate
veterans
decisive
stance
ons
##ind
metac
ध
maker
retic
shows
statement
dominions
anti
newfoundland
protestant
tasks
ebert
qualifying
nore
suz
lists
saddle
pt
depos
dr
planc
hosp
ulysses
orton
##ు
past
interviews
##dy
companions
mean
ladders
elizabeth
##istles
virtually
narrator
lucrative
methane
trust
sevent
yug
mayor
##ionage
anom
ade
nasty
rex
chat
joints
saving
malcolm
usable
trained
yuan
selective
##ai
steel
charity
crossings
compose
ourselves
##ste
staple
lana
loans
duel
max
##vere
abbot
##agon
occupational
##eav
ros
crock
##inker
vig
pract
colleges
##ignment
pakistani
evelyn
##eh
constellation
##abeth
antenna
43
herne
dimin
##neath
navigate
optim
##չ
coron
naismith
##73
jac
workers
bors
tenuous
behind
crazy
1966
settings
endors
##icia
##life
##pool
opportun
rus
jewellery
arrest
##omon
mummy
qi
nav
reconstruction
nelly
apart
employing
gestation
ordinary
odessa
musical
##bits
nag
reinstated
welcomed
maur
uniting
emirates
arrests
kuala
butterfly
##orman
congreg
114
parallels
dragon
##aker
jungle
ʀ
governments
1973
bullpen
##canal
examinations
grip
populated
##ighters
cumulative
ayyub
permission
##mented
undermined
pillar
172
男
bones
christina
##ultane
consequ
job
dropping
##manuel
escalation
emerson
##rier
ᄎ
accessibility
adorned
234
afric
trunc
recoll
1785
headlined
ク
groundbreaking
##wold
##ipps
suzuki
upbringing
##eing
##with
tire
identify
人
terrorist
##ouin
cameras
connecting
transport
•
##ineas
sage
totaling
coldplay
fired
##mud
scor
batavian
kubrick
specialised
##ppert
state
daft
replac
##oller
prestigious
##rent
kicked
¿
##eds
##anka
avon
accurate
ger
##e
##der
slaughter
island
03
„
##lides
item
joc
rolling
ler
##atic
used
##ping
naming
reminded
hurt
so
billboard
stella
auditor
##rep
enforcement
##eck
##ment
impress
estates
ด
##amorph
sever
##vent
##ω
profit
##isting
hip
troilus
admit
boulton
hudson
##iest
assange
件
penguins
rule
##dup
##hest
overtime
##odynamic
manson
bombers
identified
##plain
marking
sherwood
##part
banana
pressur
herb
seab
##lla
event
goat
##unda
cambodian
venue
##enter
ᆨ
fuels
icc
meets
republican
nests
stack
negotiation
mississippi
ب
pretext
sequel
layout
##folk
upstream
parameters
truss
wealthy
##recks
passenger
grimes
mourners
inert
nurs
##iano
manufactured
nemesis
280
carson
sett
americans
##king
compilation
dioxide
chilean
##zynski
hogan
listing
crises
rites
disarmed
scenery
fine
abruptly
##lic
metaph
##ivation
post
##ieu
suther
quartz
archive
carte
cuisine
tying
salle
addiction
##gener
were
routed
guys
leo
inaug
raiden
##rial
moran
deus
##ustomed
neville
derive
nationalist
chris
schne
##hner
##plate
hass
backstage
##ean
mankind
competed
camera
##ahl
peel
congress
侠
auditorium
had
budget
gaunt
document
bella
風
##utant
revolving
wood
czechoslovak
tissues
conflicting
gland
immunity
very
peaks
raja
oceans
prokary
usual
##ighed
##ochond
designs
dynasties
miyamoto
bind
functioned
##wise
pavn
audi
##alm
forward
transept
cayman
der
barrington
stacy
larvae
pr
出
##icans
tao
##noy
##ゆ
takeover
archives
capture
outfielder
minister
growth
courage
う
wounded
cul
scheduling
壳
quiet
dreaming
estonia
moffat
antanan
entirely
fatah
navig
wilkes
broke
auburn
nagar
##iv
paus
wi
𒀳
##fc
susan
gradual
affecting
##oop
¥
fossil
sure
differential
violate
gear
blackm
fou
glazed
##ggy
##pie
kanon
offence
connector
##iter
superf
connie
lash
leyte
lp
loph
deton
nacional
espn
##linary
witchcraft
eastern
unpleasant
paul
expans
1867
##leaf
griffin
##ession
↑
##cliffe
##adar
disillusioned
lough
viewership
conflicts
encod
eras
##giving
belong
steamer
vault
##icin
relied
servic
##ogo
screen
friend
knuck
alleg
##osph
rain
patterns
##off
molybden
everybody
degener
choice
extract
runaway
japanese
emancip
##orial
165
##oring
success
triples
architectural
lend
##rew
disappear
melbourne
pertaining
superiors
coyotes
##otta
##iticus
torpedoes
zer
electrop
agreements
##amore
narrower
hauled
mental
##կ
##quit
##प
nissan
inmates
signing
evacuation
andy
##hrer
##rock
influx
##amped
##apy
##iform
giving
progressively
horse
yah
presentation
##zym
##zin
boiler
courtship
chaluky
jew
manip
μg
agree
aggress
impaired
glenn
spends
##athed
bestseller
vancouver
bars
annie
clin
##ax
allot
##ウ
ball
gardner
met
##plant
queen
recalling
therapy
##uta
rox
equator
sweet
tribune
orders
gaseous
nino
ache
loose
520
citation
nem
principality
##enos
maclachlan
##artney
alcoholic
hirst
wilde
autob
onset
##n
204
kfc
kan
branch
feral
##aires
##ieux
##ɔ
triang
sophia
##ister
resultant
currents
chakotay
mcgee
probability
##ological
honors
ribos
robb
sil
transitional
7
pend
hyster
69
guadeloupe
godfrey
##elage
ith
fundament
1903
pups
ravens
motivations
soluble
##yon
objectives
blade
hugo
mosques
seyd
##fd
authorship
draft
lec
settling
orderly
goose
prud
##ols
fresco
doggett
##lim
ian
videog
ez
buccaneers
painted
blink
刘
diana
proximity
reclaim
bush
ria
wrap
lw
blur
##men
crawley
న
toe
##ilde
##ᆷ
georgetown
mahal
andretti
finn
overnight
evid
##astrop
1980s
##icus
##π
reflections
260
lag
without
##rist
sansk
domain
sum
roosting
##ot
次
hair
##asted
turkey
sporting
anal
ubi
til
shortest
disney
mycena
26th
hired
devonport
dumont
fireplace
tested
retaining
学
verbal
ought
photon
breakfast
partly
##ors
repr
kore
appointments
philippines
disappointing
disg
##ס
andreas
actually
original
##བ
trough
minne
照
upcoming
##gins
compet
danger
religion
axis
tsr
##gers
dating
##strong
went
maori
mainly
##hm
calvert
troub
rah
hebrew
glac
marit
%
typically
cog
objects
legislation
seating
targeted
incap
thoughts
grossing
mobility
regulations
rer
##ivals
suf
##ugg
giac
controversially
hamp
auto
boun
bosnia
adela
archibald
rep
sym
##hes
voice
curator
clinton
infring
surname
bunker
notable
36th
##bom
charge
win
yankees
boles
substant
durian
##oon
dependence
improvements
obstruct
nomura
swear
pel
rebellion
like
drummond
feroc
preferring
ל
grand
windy
##atropical
238
##arin
gregory
wurtt
bombard
destinations
embodied
liar
beetles
1200
tornadoes
##ii
forc
直
communications
eccles
visibly
seeded
gamespy
consistency
moisture
accur
wherein
northeastward
azerbaijan
demos
cocon
ineffective
forcibly
iss
poc
airc
exact
##led
boone
declaration
‒
artist
grim
practice
grays
##hi
kovalainen
reboot
feet
sing
wisdom
##asim
compan
##inas
highlands
clare
capcom
busters
diffusion
sneak
##rel
greenwich
##bir
distanced
adultery
slu
nob
spani
longev
siding
ᄌ
##ec
nascent
daytona
stick
diva
303
fool
toys
vacation
sadly
setup
jeans
thunderstorm
nascar
specific
calib
approach
100
anterior
encompassing
bypassed
craven
##icals
ultraviolet
qual
striking
amin
1808
deng
ي
stevenson
№
step
hillenburg
##amos
paratroopers
ナ
μ
putting
sussex
foreground
##outh
applied
##oot
ferdin
conquests
##orius
##ene
each
stratus
trolley
curve
##ls
redef
119
##athlon
tatt
caus
##etta
##ي
synt
##21
##teen
shipped
inadequate
bibl
kneale
language
aside
ordin
unl
includes
barcel
irrigation
angelou
gertrude
boeing
para
##ost
16
ʌ
yo
essex
weaver
osborne
phil
tobin
##λ
verge
comm
worshipped
##rators
sexually
biggest
por
##fork
protective
cbs
banned
zimmer
sarawak
##л
spar
##jack
mile
##acc
reminiscent
rings
wein
schultz
##elled
merges
bears
aboard
subsid
changing
came
des
nails
arrows
##iger
mature
missile
astonishing
excess
cust
##v
ern
personalities
holes
ী
##2
##soever
##rally
reb
fruit
غ
conservation
android
squadrons
##illa
depr
domitian
celebrate
##bels
gather
projected
fontana
bourn
uncover
decided
##ndi
gown
aston
unicorn
##kick
##enal
formul
nepal
##ง
nh
hench
unconventional
squadron
##ouri
##stra
marching
##ycled
ortiz
nicol
surviv
##etically
tutor
##qi
##ograp
longevity
aristocr
consciousness
fry
coc
щ
twent
drowned
strains
api
australia
mouth
informer
##ered
launching
supervising
##ө
##rance
saf
tox
miniseries
pict
700
percept
memorial
handic
isotopes
mini
rabbits
##aughter
bamboo
impossible
747
dissolved
element
public
##ower
##ullah
##ila
##jor
mosque
37th
hyp
##72
##ormal
wavelength
provider
福
viruses
peru
purchase
rent
seeing
massa
respected
samples
treating
philadelphia
rhet
##ि
xiv
conditions
pulls
sides
coventry
##bin
equival
modernization
combs
##finger
seizure
toget
supporting
divergence
##fact
irresist
publishing
##ababes
216
dhar
specifications
armen
finds
penult
bond
attorney
blocking
131
exerted
cena
neigh
parish
sanctioned
archie
poster
adequate
wake
scrapping
##ophagus
hammers
bureau
certainty
juice
##iker
##oms
airmen
hearing
625
penet
manag
stump
brood
fission
##sover
gy
singer
protocol
##child
##otes
##ographers
vanity
zar
monopoly
andersen
incompet
##ayana
leak
compositions
deteriorated
throne
唄
##oya
traditional
specimen
grt
##ums
hoy
##xes
##econ
occult
relate
##ues
sickle
##inely
aval
bliss
prevailing
naktong
##ription
duch
wartime
nun
stor
stereotypes
sudirman
johannes
jumping
ข
arts
##arf
##さ
collegiate
##quet
師
arrogant
##ential
get
##cel
goofy
magazines
functionality
punish
outs
fore
emper
##inated
sacrific
cyclonic
##rawn
antananarivo
##az
##etium
default
##arded
dedu
##janovic
##houses
##speople
mac
ibrahim
epoch
did
doctor
browne
disin
tanker
deciding
##nen
welded
derel
underparts
northeasterly
crucial
concent
352
centennial
tow
wandering
flo
reconcile
barth
direction
canal
zeratul
firefighters
99
illiterate
##ъ
divisional
##ective
welfare
subc
valve
za
somalia
nerve
ward
表
rowling
##iffe
transm
vl
person
kelley
verstappen
子
denis
barbican
魔
kahne
generate
airstrip
above
erotic
metabol
worsened
##lings
worthy
reorganized
colored
spectr
dunes
vehicles
##ju
##ango
crem
ninja
vacu
2nd
##advant
spa
threshold
most
##about
municipalities
ruse
pregnancy
cory
##atorium
tide
crewmen
##च
##ania
clone
reasonably
doyle
adjacent
glamour
slips
hezb
royce
frustration
brigades
##rooms
sentin
assurance
##active
##ishes
quickest
growing
rede
promotion
fuselage
beg
degradation
##abh
##leman
hotspur
##opa
ᄂ
draper
elsie
boot
sponge
ait
rew
nic
##bilt
tes
gangsta
commodore
indicted
##odes
ding
footage
##ommon
andres
port
randall
spurs
abs
187
none
legs
を
dut
anthrop
semin
lesb
hymn
mitochond
airing
##አ
replica
devers
retiring
topics
老
##isers
auth
wicked
producer
##א
##gae
amster
arsenal
regained
vat
shy
poland
elsewhere
monk
membranes
kg
draw
amidships
##oses
mice
terminator
##omorph
moroc
eleven
awes
ups
ss
scler
caps
behave
mccorm
butt
theod
circulation
fungus
macarthur
idiom
flawed
##had
##ek
emit
copa
##ว
licensed
potomac
##գ
tcha
cemetery
forbid
entre
salim
defense
correction
terminus
##radar
##vr
enzymes
##հ
marm
unpopular
soe
##load
##origin
polly
victory
##illian
amazing
mut
viv
lah
clauses
kensington
origin
attracted
advertis
vista
meredith
pm
gathering
antio
##av
##iths
horiz
estimate
severed
##isma
according
difference
believed
minerals
cuckoo
imaginative
yorkshire
domestically
enclosure
ecw
interested
park
blog
orpheus
techn
stela
lattice
236
β
ք
engra
uncom
orch
yarm
dreyf
rework
##hies
ferraro
psychiat
paperback
gird
aimed
agreeing
beryllium
exter
exchequer
##ulum
accuracy
malayalam
bodyguard
##hama
hughes
##riment
bounce
require
hul
##ement
appearing
1786
nell
dissipating
##cup
pedigree
##il
widening
car
alg
tons
hurley
briarcliff
omn
absorbing
swan
combustion
##eed
territory
pup
zap
stimulated
share
disrupt
dash
##kee
phoe
family
##9
ﮮ
memoirs
exotic
gomez
casas
embarked
koot
ventilation
##47
thrace
realms
bust
nancy
foraging
rulers
contender
##case
cv
##abwe
bohemian
popularly
light
caucas
tud
##ayn
様
jointly
##annis
endang
excuse
theres
##asion
##olo
independent
supports
##kh
find
##ology
##ifications
##otherapy
birthplace
removes
meads
stingray
##icted
metropolitan
30th
incompl
continuum
signings
recycled
##ocol
lighting
##notes
floor
gle
songwriting
pew
iranian
eddie
##zn
kak
supermarket
anglian
shallow
taft
forgotten
bigelow
emotional
brightness
##urch
madh
converge
atmosp
annex
krist
crushed
men
spice
amman
unev
pores
pops
rumored
wyn
assets
proclamation
##creen
chall
constituted
##adio
##ficial
##imus
mush
##qu
corrosion
massacre
supposedly
nearly
韓
hardcover
##arius
camoufl
elastic
poisons
blonde
midland
##erb
hypothes
labyr
jacksonville
rewarding
surprising
schro
meant
urging
overturned
crashing
tanner
蝉
slept
organizing
90
gib
##lett
branched
temperature
investigation
youngest
rental
console
comply
delhi
haunted
##avel
hd
chewing
##ahan
confisc
mourning
germain
##racted
##emb
##fried
ventral
rabbi
tokyo
ties
availability
rainilaiarivony
chinese
厩
##ifa
civilians
thulium
liam
midfield
babe
rudolf
attrib
yous
strengt
high
verde
australians
debate
throw
britten
sl
inflammation
##000
purse
manila
belongings
recession
bn
panc
dent
##ibility
asper
##ostami
upd
prussia
tig
prophet
hermann
scratchy
forgiveness
forms
orion
delivering
rainbands
subfoss
relatives
bund
coronation
detached
##ksh
editions
pasadena
##ym
goals
glands
diver
##oo
房
##alu
reinter
culver
inverted
lifelong
##bay
bilingual
municip
violations
freeing
flowering
shirts
##ucing
served
rapt
stewart
##ヤ
longitudinal
crystal
ricketts
reached
attraction
daniels
##out
clifford
extension
midnight
columbus
firm
tok
expenditures
vocalists
widowed
##ᅵ
##books
tomatoes
intu
##iff
pillars
##acial
beij
labor
##opl
cartoons
emmanuel
mom
106
bethle
mazz
socks
immigration
reverse
htt
chronicles
##play
shocked
differently
prime
jillian
rogers
keyboards
##ะ
1860s
##eller
subscription
##म
stationary
nike
fey
jones
picnic
rival
occasion
seeking
penultimate
##ilden
aloft
request
atoll
imd
##itch
owners
##ismo
ued
leaf
letters
##brid
nutter
wag
showcased
—
myles
conspicuous
1900
theor
##ik
mirrors
308
##ainty
systematic
礁
fought
ode
mauritius
volcanoes
##ah
juno
bach
seamount
##upp
bru
##ہ
located
nomenclature
toug
intellect
wrought
hil
～
terror
removed
##enstein
raced
atom
touched
##ieties
quarterfinals
teng
intriguing
青
extratropical
reflecting
thal
staples
24
arthrop
##ɡ
elgar
##othe
lear
sabres
extra
arms
eliot
1929
girls
剛
paran
##issa
talent
pathways
grown
##rene
##ared
slam
surprised
##ishna
oral
yield
上
##tains
shill
sniper
merge
##aneous
##fellow
forem
testified
nos
assistant
enorm
clearly
arizona
bulld
perceived
moreover
enlight
forefront
##ν
recalled
##ो
##now
##acent
zah
munro
cats
cont
distortion
52
gom
##its
ito
sims
scr
robe
1982
##ford
mahat
colton
repet
tourn
promul
nir
donovan
norway
##cher
stipulated
##iously
search
##xim
##uz
##esford
regeneration
euchar
assassination
##asting
anglia
##jina
sup
photo
precedent
jerusalem
##ovo
nat
tennessee
escal
alejandro
##inus
excelled
テ
詠
interpre
pestic
westminster
rogue
pirates
portray
overture
ruth
bruss
facilitated
performances
stalls
box
assassins
defenders
swall
canad
occupation
magnetosphere
##ocating
cop
ɡ
raw
dess
jinn
supp
##ecting
1900s
looks
merry
maharashtra
##enches
attempting
staffordshire
baghdad
associations
downloaded
ledger
##ieves
schles
assessed
phases
excessive
depiction
ን
##aser
ptolemy
cb
illness
bas
##abal
skyscraper
##achers
ronnie
jard
@
##it
chapp
seed
assault
gods
detachment
redes
##ison
precious
wounds
hadn
nad
lee
##ೕ
bu
##idal
##lore
1955
erlew
inher
գ
researcher
rov
oz
named
joker
characteristics
collided
sciences
hue
wen
meth
##hal
##ッ
fiancee
kyushu
##ander
妙
sacrifices
##laim
arbitration
parro
victoria
caret
battery
ki
dressed
saudi
fearing
firth
##iere
ellip
tomato
taiwan
nick
punk
transcript
##ptic
proponents
mh
fremant
mahesh
spectators
lean
malt
belgrade
##ark
dubbed
thir
##ify
outline
bowling
falcons
sacrament
##istics
squirrel
lj
shaped
fah
prer
spine
dry
ud
squir
enum
##born
bombs
surviving
steered
##ather
deed
##vir
flav
reduction
official
mention
titans
##ishi
ɾ
ousted
podgorny
god
##ence
parach
assumptions
improvised
[MASK]
##ering
rid
ら
##itious
kle
zero
labyrinth
hasbro
veracruz
conscript
keyboardist
juliet
invaded
fate
instructed
fantasies
breathing
foxes
‡
macfarlane
pennsylvania
mcg
dale
sigismund
placement
##er
##screen
1817
##over
ˠ
autumn
##acles
isles
ensure
orbits
18
kosciuszko
cotton
cyl
huss
bench
elimin
trials
cove
winter
saxophone
ց
raynor
yells
insular
##xtap
##ament
mercedes
##ther
redwood
##shid
leb
cryst
gilm
mumb
##gu
baptiste
##ト
google
solely
attracts
burials
kidnap
##emort
heywood
ambitions
mounds
belmont
principle
ǁ
lacy
pray
buddhist
trit
highly
##atility
pairs
methodist
##anes
seventeenth
vinyl
watson
computers
recapt
dir
alternately
reviews
##itable
villains
injection
blockhouse
consumers
camel
newest
350
##ingo
##tered
lauper
##bn
cobb
gardens
erica
komb
##igua
quasi
##itudinal
nixon
mat
awa
utilize
##itsu
fatal
united
cranes
disappears
tucson
inconsist
cherokee
cutthroat
tchaikovsky
beautiful
metro
scope
##orne
##ounds
walton
##este
phrase
december
efforts
yokozuna
karlsruhe
dab
enugu
ym
46
tj
ต
replaces
sample
swiftly
aflo
invested
telesc
##agement
##ital
##raid
reveal
story
dutch
schwarz
regional
switzer
preventing
renumbering
barn
despair
permanently
ort
requirements
yash
van
berries
phillips
colours
deposed
commands
##inations
##onen
rev
##umo
方
exhibit
admiral
pater
nuts
playing
deities
ironclad
equality
examined
subjected
ensued
entrances
depressed
vandal
contentious
herc
##ate
##stappen
visiting
##juk
eighty
lunar
pacific
basket
drills
彦
negl
##ift
carc
congregation
176
adjo
alcohol
tuned
molar
phara
open
##hop
grabbed
##ulus
zig
submit
shores
canada
resign
processes
equipment
antoin
scan
southeastern
hence
宋
mrs
notes
##ben
##iled
##ulating
repeated
##za
com
beta
bord
##oda
chopin
##ape
##atio
prevent
##leased
##נ
marquis
##rows
##uru
devil
gc
christi
##obe
fist
offs
##zhn
##nu
quell
management
##rax
denying
varsity
rotation
##urations
##ummer
signs
absolutely
##resist
rifle
along
villagers
enabled
proposition
various
garland
servers
ca
expulsion
mcve
moll
quite
##aries
powell
tours
dad
#
satisf
jolly
##hound
treason
portuguese
parallel
hpa
outlook
##iri
##ripp
smashed
union
bur
electricity
stripe
lesser
ე
flames
##lift
feathers
mccann
kitt
pell
evacuations
bottom
lem
ea
assisted
contexts
crowe
##ocy
biological
pewdiepie
holm
girl
shin
polic
poe
exemplified
vigil
brightest
##ased
discretion
fing
chunks
corpses
prosperous
aachen
pec
dru
##antha
vass
luxembourg
spass
kinks
manages
rewritten
naugh
glucose
alps
advant
##ulence
disease
fat
continuing
##ی
khar
focus
##fare
lowest
dis
discouraged
underwater
zeus
aeros
fencing
pain
opted
frusc
fargo
merchant
flew
##fuhrer
webs
spontaneously
austen
colts
lr
approval
gue
stavanger
straight
paired
texian
silt
na
reeds
rory
##sel
landowner
relates
reused
bise
##osh
然
insp
liberals
##ilt
##ucher
ensemble
suprem
backs
marquez
overc
moderately
dram
##idel
quir
##les
collier
discovery
##ters
collected
climax
costa
bogdan
smithers
lein
##awa
surm
！
##achim
talked
డ
girlfriend
[CLS]
क
arsen
swamp
ड
schemes
##assic
inflicted
lyons
pills
feasibility
##combe
cle
##echapel
hardness
rarely
##mat
##aving
rw
advocating
babcock
unclear
militants
material
legend
bulgaria
regia
##shaw
chag
militia
competitor
criticizing
stemming
uran
関
meng
creep
##maid
shooters
footsteps
reapp
צ
spent
tulk
food
crushing
##mund
depp
pulse
utilised
shipbuild
abandoning
kootenay
##unn
seld
bathroom
dough
porch
mysterious
stranger
##inton
bedrock
the
##uns
dame
varanasi
takes
##υ
aud
walker
smoking
aug
eclipse
##ities
hers
patent
recreational
boycot
devotional
sept
requests
woolwich
break
midd
##ays
serbs
recently
otter
connected
recognizes
arrangements
##ront
##ułka
59
earld
boards
半
frontline
rece
acknowled
exam
vibe
##gham
borneo
heng
##roid
paced
派
146
uci
##hera
stats
guidelines
quay
vaugh
sanctions
hyder
faults
deteriorate
archaeological
##బ
chanc
monten
##zef
expend
poems
quart
assent
tonight
generating
confined
弓
lita
copied
##gil
##บ
fav
##orth
plagiar
decay
asymmet
cables
develop
withd
vertically
knocked
signed
darius
per
corner
assaulted
namely
hend
temperatures
##ocative
behavior
morale
microsoft
label
##cal
tas
adaptations
guild
wides
mul
exeter
suburb
##aim
twelf
243
##ecast
intimate
noticing
booker
##م
stem
##val
##abled
viol
saint
revis
mather
##xt
trees
puzzles
##arina
crater
##owered
interv
precision
rko
sediment
##rating
mother
##obile
skeletons
amen
tra
##uster
shapes
kant
royalist
reforms
whitney
##itra
aust
tributaries
pipeline
scho
disadvant
demand
migrate
##ulos
lobby
forehead
mengsk
deadline
observations
cou
herring
pius
bud
thail
cair
sixty
presbyterian
machinery
##algar
sundays
coastal
thrust
morphology
thickness
cine
##get
scouts
##heaster
saved
##ophon
landing
encoun
thess
controversial
dool
##esses
sre
##mar
unsure
##tel
##imp
rash
107
weym
interrog
##per
usur
lev
ames
subdu
alexei
sewage
martyr
grohl
specified
enslav
protagonist
chancel
##ua
spat
squidward
##ality
彩
guns
generators
lingu
deemed
paralleling
automated
charting
secession
##aceae
puppets
scenarios
stressed
##tingham
##american
128
suscept
chew
fif
haakon
chassis
orient
##game
##anced
101
jum
deter
##min
unhar
unsatis
accusations
reflect
probable
minaj
refugees
doughnut
venom
march
util
consulting
##rians
##esville
##erg
remastered
frequencies
ص
fernando
praised
tariff
laboratories
61st
corps
overly
genocide
戰
riga
vii
headquar
intersecting
hemp
bluff
閏
lite
##seau
insistence
professor
northbound
##uating
smash
headwaters
wakes
electorate
kriegs
stap
rigging
eager
appet
ষ
loud
russians
smile
shorter
##dd
##soft
herbs
chenna
reaffirmed
galactic
sophie
च
preview
##eps
dexter
borden
##ikovsky
technologies
abbrev
practically
conspiracy
##ultural
inv
730
situ
##aceans
##lev
preserving
gabriel
alexis
vijay
cadmium
from
##ouzen
liqu
stepping
##unken
horizon
couple
stylized
carlisle
khand
pictured
expensive
hastings
immense
leading
ᅮ
temporary
marvin
shore
cic
fascination
obliv
spices
honoring
arthropods
cheroke
equilibrium
lap
inequ
##ե
invest
period
wart
ussr
paternal
conference
mitochondria
subsequent
dynam
##itation
colors
crom
avenue
##cci
cs
yosem
་
neighb
enemy
bival
ignited
woo
heid
surg
ム
##alam
revolted
gm
##adores
subcommittee
goalt
ስ
auerb
wich
rodman
aw
expo
bisc
њ
##gett
dun
plating
晒
nato
dramatically
await
batter
parkway
##ims
simps
chadwick
ari
equity
hammer
played
##atched
pollution
petition
cultivation
voldemort
elli
conve
roosevel
editing
rap
civic
##ending
les
brun
fourteen
##ታ
bristol
kidnapped
streep
ull
biographer
pes
accompl
compassion
social
exped
ellipso
correct
bib
midtown
breck
plants
melodic
bournemouth
fro
linked
chrys
##redit
sc
attachment
##engt
munch
##idae
bitch
##cheon
nazis
紅
roman
##rest
specimens
##の
##yn
distinctly
rollins
teachings
##abil
damaging
##ily
laz
sham
filed
nap
exhib
monop
engaging
##un
##lessness
violent
breast
##onshire
core
事
mixtape
purity
foundation
##ose
yak
labrador
livestock
mines
##onyms
tact
rab
replied
##reuth
brush
##icket
##ør
fortresses
煮
tertiary
heming
block
dante
ϕ
unitary
turmo
decrees
subject
##outy
##ction
toxicity
boarding
sympt
bark
##akon
mould
##ɪ
puff
convoy
interest
analys
controll
##umen
krypton
overturn
couns
savannah
degraded
postcards
marion
##liffe
patrick
obverse
##achments
receives
##franch
offense
##gren
rural
lauded
basins
moist
crusaders
basil
curr
sprites
mclaren
茶
clinical
amber
simon
##eth
witness
irresistible
cuba
emma
devils
serra
propri
seasonal
bapt
thin
##arr
maxi
phelps
.
oriental
bursts
lips
upr
modeling
nages
mythology
baghd
grossman
sauce
##eit
hertford
airstrike
##tern
prevalent
##ess
cambod
zeb
technical
##øy
diurnal
farn
##ector
aless
morm
ᄐ
##tong
scant
は
undergraduate
shelby
inact
##opy
##ians
boroughs
transl
bac
streams
murrell
launch
recruit
auckland
vine
photographic
trainer
xt
##gel
orlando
drag
jerem
##osition
curling
978
farmland
##lands
lug
##orsky
##idents
##न
##ে
non
obit
sheltered
kung
basidia
buttress
webber
appreciation
shootout
##uana
##cco
achievements
invented
article
lig
machin
defin
sovereign
treaties
375
abuse
##gens
his
answers
alsos
stephenson
illegit
overs
chandler
⁺
cork
sailors
convinc
titanic
criter
##actyl
##iting
bulge
##ย
landscapes
bost
demons
150
210
overr
jackrab
johan
##orsk
fumbled
sounded
laundry
cum
whedon
cannon
##ogenesis
ॐ
rapidly
corners
coulter
sandman
##urers
frances
昌
kansas
stojanovic
decl
saunders
waiting
soon
tak
locomotives
teens
thereof
chatter
predicted
himm
outc
pointless
ξ
centers
invade
detailing
once
theropod
commander
renewable
greg
orator
metallic
musc
watch
dance
bronze
milwau
ucla
##rite
julia
spp
aggression
quaker
geneva
hawaiian
worked
sanders
abd
abandoned
collaborating
canby
seaman
##gio
banking
suffix
developmental
prior
##ido
sark
commemorated
circle
shetland
heb
salem
##ung
pied
ʻ
amer
robo
##omatic
stars
eating
##ulture
hornet
##sole
vassal
##orph
##geschwader
scroll
theorem
##ynthesis
averaging
pygmy
francis
disillusion
debra
interfering
##unc
##fall
camps
mutation
inf
overthrow
whites
records
##nant
##icians
buy
groves
tottenham
##icken
亚
##unte
racial
vegetation
foil
favoured
fuji
##𒀳
##roc
antarctica
piv
epa
xen
shire
chief
cameron
##cl
motivated
malaysia
atrocities
##girl
everywhere
pione
noel
##etary
grayson
##iji
befriended
rocks
neighbour
pillsbury
##rifying
monroe
spin
keynes
unse
broadway
##mann
##β
distance
marguerite
kit
limits
shops
##inges
force
reversal
states
##liner
byrne
##airs
peaking
ow
##andi
##jic
257
mcveigh
##orny
disputed
shadow
rick
lowlands
cumb
salesman
##rib
cephalopods
berth
670
ang
undertook
情
tens
therm
press
highways
gets
smel
##utor
ves
prompt
eve
hobbs
##stage
safe
sten
##otny
overflowed
framed
##ᵿ
adopting
need
osbourne
ɲ
transformers
lys
##uter
nine
sands
##ados
acidic
ralf
##orno
atl
importance
##gling
##inite
adding
populace
170
coated
cassette
ful
willkie
ir
unst
revisited
##iary
##olum
##lr
##yad
reun
consp
higgins
shelters
convention
corp
##roup
perth
sob
distingu
ree
chr
brighter
carell
##ly
gris
##ures
bering
##itary
##erton
inquir
stricken
##itism
伊
gazette
grandparents
jane
stup
##ient
cement
replacing
##0s
stroma
regimental
wilhelmshaven
short
bahrain
zagre
pact
mach
suspension
connery
##esque
ayy
1100
##ʒ
nucleotide
indeed
incomplete
##avian
pest
portrayal
hilary
sans
manipulation
和
premise
monolog
dism
##etes
traff
rebecca
cyprus
##luded
artific
##rof
emp
kratos
assembly
##erman
victories
wilder
oilers
scre
europe
tir
1989
ais
##ese
##avier
zadar
kits
principally
##ardi
dusk
stretching
unus
关
tam
luminosity
stained
白
guit
movement
deported
##jols
counted
empower
densely
##ele
հ
adolescence
archaeologists
ruin
reproduce
##ated
coup
halifax
repos
carlton
nuc
producers
hats
##iant
malcol
live
##horse
maneu
##manship
dee
ramb
submarines
consumption
yucatan
pir
##emate
rourke
cubs
blessing
res
phineas
backing
##lio
stake
##iras
##op
affirmed
py
academ
auditioned
swimmers
##bs
##ภ
##angs
mutations
unification
munich
nio
ory
serv
nudity
helpful
##low
ェ
piet
vitt
originates
庄
bulldogs
internally
window
fulfilling
capped
weakness
lucia
oc
amb
beam
remar
##care
level
closet
concessions
mcl
promet
lac
implemented
##alone
sultanate
chicago
traumatic
glaston
georg
equations
oversight
##tter
brink
##dies
columnist
vand
additional
complained
canceled
##ories
turbulence
##icip
slaves
777
plaus
learns
ewing
##iparous
prolific
plentiful
194
x
cavity
redu
##alg
##ede
methods
constituent
towards
##olian
rosec
famitsu
impact
##vention
helps
：
cre
##illion
mys
ye
has
indian
compl
jtw
founder
chasing
ecst
primary
lull
calves
lancaster
explos
crane
forest
performs
sn
##emy
enormous
listened
bourne
good
flot
t1
regulate
gaz
blitz
superc
abused
rose
ambig
awesome
1768
サ
ned
telephone
##avings
##nal
60
rf
motors
champagne
##ached
proxy
example
narciss
vc
selling
concrete
##enzie
##kat
prem
exercised
weakening
##atl
bites
254
cec
pomp
broadcaster
gallagher
hurricane
contended
reckless
##jko
saturn
muscles
gallery
tablet
530
ricket
1890s
satisfied
yus
imagin
bit
rockies
ji
demolished
opponents
tailed
apartments
##ovci
wine
lithuania
depends
correspondence
spiders
眼
diefen
based
groups
groening
liking
compelling
alberta
##ished
il
bun
incredible
momentum
insec
ad
claws
nihil
stallion
##odic
wholly
##iced
eun
alam
elevator
sheldon
ʋ
acquisition
six
taxonomic
bolshevik
consequences
##hs
bizet
т
ral
outlaw
southerly
anglo
mcclellan
think
shillings
khrushchev
##onds
##ub
appe
expanded
schwar
ラ
sit
directions
fees
##otov
##andez
representation
conch
tej
ャ
mathe
tris
semifinals
pinned
rifles
tem
footprints
theory
humidity
apocalypse
federal
revived
##ador
propriet
promo
antibodies
##werff
murdoch
salvation
sung
quar
##pler
inj
solitary
ambassadors
chauvel
focusing
amounting
imprison
##coat
graves
waned
costume
telling
black
space
〈
intersect
mammals
blaz
optimistic
oklah
hott
wheels
economy
carv
wings
eleventh
transmitted
##eration
arrested
良
knots
pennant
passengers
burge
##agara
##izzard
jette
lea
gb
diamond
##ᄋ
safer
leonard
countdown
liver
##queous
swit
lave
##rod
mud
写
##non
mascul
##ky
side
##round
ー
broadcasters
##ascular
flat
##ł
invent
##antes
sickness
similarities
##ci
outlying
27th
earls
transporting
##ided
amphibian
mausole
running
gior
notion
longhorn
##ench
phyll
##uling
tourism
rehears
christian
sad
uneasy
kitchener
immature
proceeds
##bane
120
empire
coasters
gas
und
worlds
##pped
pressure
vukovar
heating
##ο
素
transparent
##rast
ticket
loch
simp
eyes
naacp
fifa
eighth
mated
##al
extermin
##itar
##to
gusty
ytter
bridges
##uliar
厚
olympics
grandd
eurovision
ernest
emitted
tudor
##abes
em
mitz
lacks
nineteen
researching
sain
root
acapulco
conspic
invoked
margar
horsepower
artefact
##tail
yeoman
lam
paisley
所
unless
uematsu
shelved
kramer
reverend
gill
previous
settle
billy
inclusion
hotels
entrepreneur
\
950
colleagues
meteorological
##igen
##ive
publish
want
euch
home
incorporation
エ
chemical
workforce
##reet
unrelated
speak
##hany
mcdonald
mixture
inhabitants
kidnapping
ས
professionals
spurred
attended
compensation
abc
oct
christened
greed
environ
coordinating
sor
warrior
ridicule
changes
blew
warships
##achus
isbn
1978
tuc
rerouted
##ommun
describes
grievances
sket
faces
ket
argentina
colchester
bourgeois
providing
ram
##ت
ʇ
##enport
490
thy
##astics
patrol
hasty
remarkable
##ffen
drives
duff
##ourse
solst
spook
##stone
carlo
tyre
nigeria
praise
##ogne
springfield
tack
sloven
cookery
commitments
traveled
nts
trump
conj
×
erupt
降
incidence
to
rabbit
sabre
ine
##ta
studying
clement
colomb
automatically
##itated
baz
becket
ivory
symmetry
prevention
commenc
##erc
konig
ferry
##æd
gaw
##lander
##osexual
killings
steward
admire
jaw
trunkline
meal
verbs
##ж
bits
cauc
##ight
analysed
crippled
lath
jackal
fig
harsh
2005
derelict
realise
controlled
，
sterling
ruff
##art
withstand
musicians
discoveries
cody
sensors
##chy
symp
cues
rests
nguyen
seth
polyg
##ught
ludwig
##ber
purpose
bombings
elegant
geoffrey
armor
reclamation
cunning
##itely
dynamics
lasting
commanders
明
gi
chocol
moon
##は
##urgical
refer
notor
minorities
##yer
daring
polar
##angi
washed
pole
chart
##his
hed
laughs
artwork
ackn
starship
##innati
shipbuilding
##wyn
ecology
##erv
##bu
charco
##igate
floors
召
##ocamp
mugh
insulting
international
ref
replacement
webb
pairing
fant
touring
disappeared
experienced
es
國
link
##isd
declines
285
breath
1700
wrath
syria
##ulators
myths
prof
freestyle
tends
maidens
##nity
simultaneous
signatories
##onte
lucasarts
harvesting
sumatra
amounts
bra
lyn
captaincy
portra
numbered
喝
operas
cinqu
sigma
stretford
compressed
moral
inade
milligrams
majesty
edwin
somet
##step
hypn
##ellan
outnumbered
numer
umay
dixie
hector
salute
##zhou
stands
isaac
智
##ef
fut
laughter
khandoba
hypers
marina
narrative
edge
preferred
brothers
ambush
no
##ier
##ates
fo
restricting
formula
intellectuals
sooner
chrome
ল
##married
##tra
summar
waterfall
hazel
spoken
chic
originality
##lee
grasslands
tenn
denial
concentrating
trig
doubts
thi
format
catalogue
upsetting
luft
emotion
ko
##acing
reaching
dupont
caution
insult
##rels
lancers
京
buddha
wetland
fountain
exceed
arabs
##ɫ
suc
prohibit
水
traffic
betrayed
9
flush
ent
evade
ek
tillman
excellent
revolts
limestone
orle
cheek
sidd
‘
władysław
christie
##atics
kicker
lens
##oj
transmit
jenny
boris
socio
captive
incentives
aloud
禁
livingstone
##hems
##ieger
##leigh
alvin
wwf
malicious
##lan
bl
mansfield
occurs
vietn
μm
straw
omitted
##marks
incumb
retail
conventional
unfit
##ibal
fault
##bed
unite
wes
##も
rights
crowther
dilemma
pal
guard
anzac
fam
##ographer
##ieval
champ
fiance
practiced
##osaurus
credited
subgroup
##aise
apprentice
##craft
jets
avoiding
epistle
admitting
##eb
peer
1943
rever
rebuilt
##reted
##ecoming
##ophone
##con
murders
traveling
craters
##western
wired
involve
finished
statistically
##omy
ubs
physically
trium
ze
##diepie
##ress
##nar
upanish
##ounts
lining
mong
3rd
attributes
##ively
anticycl
together
purple
##reek
pitt
difficulties
emigrated
strasbourg
re
bonap
law
migrants
##athens
carlos
##person
##yards
crescent
##gent
##ᄏ
indirectly
壬
coma
independents
compos
version
authorities
deliver
##holder
finland
lille
##ovsky
diction
chateau
folding
fluoride
schult
incoming
620
islam
liga
myspace
##ize
wald
torrential
ndh
dropped
ऋ
ditches
##bt
milian
railroads
##ische
##lassical
cube
hockey
ታ
austro
##kshire
nightclub
strip
##illed
biodiversity
varanas
tears
annul
kru
noble
wary
piccadilly
arriving
lecturer
equip
##arp
use
bow
resched
##ansas
rendezv
##bourne
faraday
sust
##vat
euphrates
##lock
revelation
shak
destro
tragic
eile
une
bret
acceler
suggests
praises
aquatic
ਹ
revolt
dec
mythical
struggle
brenda
defe
heim
dom
erroneously
urgent
depicts
##obo
percentage
##ria
##ckx
against
309
allison
##eyer
rudy
hubert
amended
jenkins
royale
majority
sixteenth
##at
eval
pier
timothy
speakers
bf
crucifix
gilbert
弘
unopp
lighthouse
##isively
##most
rud
restless
autonom
宝
lenny
bread
radius
cnn
impr
shop
hungar
libya
semic
##jan
bax
motifs
promot
##ugu
eug
features
##print
##classic
##how
nielsen
anarchist
professors
bould
magaz
warns
manzanillo
nearest
vector
rendezvoused
adject
vale
operations
indoor
uss
rcaf
steams
##ysis
tar
##stock
constitu
vocals
miranda
statewide
##pieces
bibli
##leutnant
plasma
euros
put
##յ
mug
bunch
released
reinfor
garage
chand
hain
drought
encouragement
##word
attacked
caes
graduated
stoke
actin
cool
wednesday
solidarity
##etown
embed
demobil
messi
##lain
slender
aggrav
leveled
scranton
pill
after
ways
top
sloping
objective
feel
ker
##balls
austin
laver
money
suk
vlad
anna
header
announcer
##ault
akin
punches
vocational
falcon
##atively
arched
vibr
styl
honorary
##ige
danielle
bleak
##ece
stelmach
democr
##oir
piłsud
brushed
beverly
cities
##ee
exhibited
ョ
anfield
##bok
##olls
258
spun
arte
surreal
ս
##sa
thermal
stern
mccoy
wire
cynthia
planet
##ton
celebration
cler
effected
deeper
##ハ
rhodesia
southern
##jm
oval
gibraltar
speculative
##bold
eclectic
cruised
heavier
aged
migrated
gaul
damascus
adds
controversy
macaul
effectively
ile
tick
##employ
easterly
clarke
vacated
非
##wondo
##yth
letter
regener
wong
malone
##roads
cruisers
tz
##s
segregated
outcome
enclosed
helmet
lud
leather
##heed
suppliers
##ilyn
adherents
##usions
##ready
broken
secured
economist
load
場
delegates
##ograph
ntsb
##fo
##icate
devout
##ithm
purport
mistakenly
parachute
welding
##ニ
voters
nouns
layer
1959
theories
placed
schw
poles
##leet
null
##øm
pseudo
naturalist
parole
##anan
##icke
mai
##ream
camouflage
garrard
described
1798
reliefs
cystidia
modeled
##oom
guests
dismay
disability
kyle
here
sill
regime
w
navigational
investigated
##hyd
insol
gould
##pl
bless
muse
refreshing
chocolate
merged
spanned
transferring
sergeant
significance
write
betty
haddock
##bro
##keys
mode
##abe
individuals
millimet
##lusion
battleship
bivalves
herodotus
θ
venet
178
##cil
voy
##istani
afford
sne
##ning
##vas
popmat
mvp
mastered
tool
score
##ancies
resulted
mormon
gaelic
pent
##aean
##jar
dislike
bastille
##undo
runway
excavations
1883
##loo
slide
pur
vt
##sity
tomb
dau
soccer
luis
##flower
##olan
810
##under
desired
##aging
cels
abolished
thereby
wanna
princip
differing
##cip
damaged
endangered
1938
##ecd
##uously
##parents
##entric
ren
sk
initiatives
响
gonz
deceased
churchyard
##ignant
##uma
subsequ
offshoot
chadder
##ighth
nervous
subdiv
romans
premiere
##adu
wars
juveniles
92
##rm
conclusions
checks
announcing
philipp
##itory
unorth
carcin
1975
conroy
impressed
peten
boiled
weld
mol
highland
stil
##roix
immedi
labels
volunt
comprom
hundreds
##lund
cambodia
reform
richardson
##itors
charter
orson
sebastian
unfair
gettysburg
ih
sod
patterson
dud
filipino
district
##ando
virgin
branded
antoine
##ropithecus
wallis
resume
proport
indicate
snow
imax
##actinium
##ck
##hill
reclaimed
cott
##vers
charac
schmidt
chemicals
elongated
viable
sihan
##kward
luftwaffe
aar
tsunami
augmented
values
##neg
interests
scoop
comprise
recip
##uner
separately
accidents
freedom
wayne
enqu
bieber
tougher
bungie
ahead
sheep
secure
socialism
scar
175
##inating
gift
buff
castellan
##pared
prolonged
##utt
書
elements
breeding
weas
##ruz
xi
particular
samar
##otypical
mitochondrial
university
thomson
##urable
homet
autom
rented
dome
capt
##imate
string
speculation
##oe
offices
converting
aqueous
diseng
believing
rutgers
plut
bikes
heroic
yorke
succ
judas
capitals
endorsement
screaming
diabetes
##iston
esc
prophe
##abs
quote
oberst
began
##cos
impart
neighbours
dissatisfied
pv
##ܒ
##omal
##raints
picc
commence
=
ripley
keller
thunder
introducing
inserted
##rit
##boro
advisers
∴
kir
width
wob
surgeons
alter
hens
thelma
hesit
##enth
##nr
##des
involvement
descriptions
das
convergence
##hoff
paintings
jurassic
convicts
catalog
kess
angel
increasing
corb
jor
deleg
dallas
granddaughter
bureaucr
wiltshire
stew
poignant
sch
tributary
graphical
toward
dictatorship
masks
inqu
willingness
edith
²
eich
exploding
iii
memorable
gun
shear
##mun
relics
cardinals
overseen
##uts
よ
meat
##itti
elephant
sput
ァ
##yu
##eca
barrow
##las
assumption
星
emperor
infections
fcs
bible
prosecuted
##arum
184
hatch
calculation
conscription
##fort
darje
raid
reserved
florence
prejudice
##adeth
##liche
##ida
supervision
##macht
ribbon
ォ
storyboards
##aham
##oughton
##ature
月
roadways
appeals
demean
huge
ruck
nation
cannot
erik
##headed
cleopatra
saxophon
1873
neptune
suillus
lost
clap
##etz
cocker
##ء
ransom
anth
bab
alexandria
farewell
concept
1961
embarking
պ
##erning
relinquished
stradd
cypr
negoti
suites
##ominal
moore
synthesis
extending
academics
sounding
featuring
dylan
applies
##leys
exacerbated
succeeding
##lu
conformation
backgrounds
hispanic
shelter
var
deeply
arrived
##scope
pair
1848
rousseau
sour
cong
coll
述
competent
agent
promotions
spectrum
quantum
hex
domest
slavic
##urring
##ency
collision
##uates
stat
disruption
1866
blend
shares
supervise
##acey
normal
zoe
##ici
hops
excit
constantinople
kure
##hyl
groove
arbit
websites
middletown
ho
##ropic
jules
bism
!
corrid
mex
worldwide
hours
lancashire
norah
unidentified
finest
finding
##heim
josh
focal
##achlan
topography
jaws
always
[UNK]
inexper
quoted
congressional
theodore
succeed
##umble
cleaning
chain
##vant
unre
gou
frames
自
abu
terrorists
restaurant
conscious
ri
kennel
amor
stanford
educational
mcbr
naturally
bikini
pash
combust
lloyd
brooklyn
##ュ
hines
raikkonen
support
k
houston
##mor
walpole
bail
surveying
discl
rendered
soil
rink
recall
when
♭
##ysc
##set
politics
hen
##uro
env
marian
salvador
stallions
charm
productive
##erget
situation
##ations
部
utilizing
consol
speed
pursuits
ǃ
disrupted
##m
curtain
##oline
imposed
via
nest
maria
catalyst
distributed
##atri
unreleased
##iversary
hierog
##wr
emery
##oen
related
baj
grimm
krie
masjid
motivation
someone
drugs
phylogen
eld
magical
##um
h
hels
enlarged
banquet
pie
following
burger
presidency
entities
vocalist
fier
aerodrome
marshal
mccabe
kafka
70th
##asing
յ
jacqueline
palladium
courtyard
wemb
sydney
nm
##ementioned
masc
lax
##ban
マ
thus
jealous
indicated
casey
northcott
winger
felipe
crown
##olution
1970s
britt
iq
##ting
griffith
malaya
forecast
ucl
##œ
palace
han
connecticut
##hom
doubted
unbeaten
kara
##ki
##ξ
cameo
dod
tah
feed
words
con
latitude
geographical
aur
kany
this
apprentices
avengers
advisory
wha
contrasted
elis
owen
##wh
##etted
vampires
megal
sj
obligation
bambo
four
evan
complications
elderly
reduced
stayed
crisis
telev
philanthrop
##phi
surrey
##chang
##izal
amphithe
whitish
damage
provoked
jo
read
jar
##mp
checkpoints
satisfy
form
5s
duchy
sponsors
sharing
ambul
##ᅡ
virus
peninsula
gul
criterion
rehabilitation
anatolia
##emates
push
akh
##oz
guth
sidelined
moves
inadvertently
eva
ユ
quater
malagasy
liberal
22
##essional
insurgents
paradox
regulated
commissioned
revolve
initiate
quake
taking
##rup
##garian
##μ
solomon
hous
##ш
dragged
scapa
bolster
christmas
annum
pock
153
adoles
atv
definitions
草
sports
芽
##omin
theft
indonesians
camb
gim
cephal
remed
anders
demonstrators
wa
vary
printed
themed
milky
blaming
cigar
pac
anglican
newly
minnes
vic
date
abdomen
##pole
##ening
stepped
##edience
avery
phot
##ऽ
theaters
##ቲ
dard
hamb
worst
succeeded
##asia
kow
romantic
gour
prototypes
testament
silence
remov
besieged
##do
pam
value
rockets
santo
theology
##iot
vaz
##vich
garrisoned
definite
ask
##ectic
processed
dust
reserves
1992
specialist
luminous
wulf
ж
church
##omo
collaboration
1763
37
elect
ि
irreg
shoes
villages
leagues
pump
chi
skyl
canber
erika
celtics
tallon
spelled
kissing
bie
sibling
dave
ethical
##houn
comedy
rails
plaza
grumman
asked
##arian
refriger
sarc
waterways
panor
embarrassed
##atile
nowotny
anonymous
deact
;
them
sloop
1806
brake
numerous
granted
contempt
##rig
sanskrit
motif
##इ
donations
world
hampden
thoroughly
eck
##umn
ย
remembered
##isons
howitzer
intercontinental
fann
bil
##uration
hap
casualty
ship
chairman
integration
lymph
prevented
repairs
investor
istanbul
市
##ams
##ishment
nominal
observation
northeast
idea
sleep
amsterdam
grains
stuart
##ife
ard
subcommitte
mozart
hymen
spirit
##bling
1844
aztec
prefect
jak
marquess
rost
##abakh
##adin
princess
beak
seah
annoy
ism
sulfur
hokies
aaron
worth
unwilling
seventy
tight
##wo
##glers
trustees
defenses
hartford
##yp
##igne
impl
defendants
resolution
##ч
explosion
spitfire
photons
controversies
production
map
monument
crying
mare
rh
adm
##els
##43
dib
bert
apprehend
cartwright
crust
authoritarian
includ
cinnam
##リ
slalom
intersp
ʒ
leopard
fins
malta
prisons
refres
iihf
myc
audiences
activism
suspicions
##ound
nose
##icer
##ord
##ham
##agne
eugen
cologne
hanging
dob
workshops
normandy
##ekers
referee
cey
experiencing
##inem
gey
##ional
##isch
committe
making
final
gaa
##վ
als
prag
sag
vietnam
hatched
marij
##ual
##uder
თ
baritone
cerro
brig
archb
forgive
abreast
congrat
anticipating
verify
dancers
carmich
josef
耿
##erm
recurr
protection
compensate
highest
pentecost
declared
alliance
##agram
##oral
km
applicable
shook
turnpi
handel
dressage
radi
transcendental
eggs
trips
tournament
township
砂
appro
yoshi
s4
reserv
rotten
retract
subl
supernatural
voiced
##arthur
##istol
purcell
composers
brow
weather
sexuality
伝
wilson
shar
##pr
##uy
miss
kirby
##wit
1950
reports
peacetime
##oning
appears
bruno
caricature
म
nl
grun
disgr
approving
divisions
rendezvous
##usal
##ombo
##erved
leisure
##ron
becom
requirement
##ics
over
handicapped
##odies
lodge
staffel
##aret
rebuilding
beneficial
premolars
##osem
macdonald
campeche
stig
schn
told
nightfall
doom
occupy
##age
laps
bayreuth
tamar
revered
blast
##ocyt
conquest
mystery
##ication
oryz
##iques
ecc
cricketer
distribute
gym
airspace
ま
##elihood
145
mobile
genius
414
applause
ی
##isations
##oles
vind
##aju
surprise
##err
longing
aircrew
having
98
holoca
developed
screenwriter
dong
intend
fermentation
comet
reconna
jill
dependent
##akov
fidelity
##rison
consensus
airfield
feather
##cast
mesopotam
mana
mayer
incent
extingu
observers
rainfall
belgr
##ages
け
distances
napoli
##enced
learned
gov
shades
変
deviation
mountainous
duct
warm
##ateg
terrestrial
ो
schooling
1951
graph
fx
gum
pledge
tw
##ees
magazine
day
cort
bullets
octagon
eats
respective
concerted
semester
vivid
1925
repair
a5
warn
resisting
propulsion
encourages
lex
##ocked
grooves
gives
dresses
ery
minor
interscope
gam
calculated
##ites
vort
rib
contact
patient
##leton
cameroon
paratro
##oway
danube
ostens
elementary
itunes
benefited
rectang
##enues
480
antiquity
docks
ल
serbian
cares
##ᄌ
mainline
explored
tadpoles
##ea
##quette
reservoir
arn
purported
bend
##gered
uganda
everglades
imprint
jury
massachus
ingen
##stonecraft
1796
coupled
kaiserliche
armour
##arily
##champ
variation
innocent
likely
ariel
admirable
chin
revelations
goods
“
showcase
sri
angus
funer
grouping
mathew
same
outre
rapp
lenn
##won
##iev
outages
cres
ambitious
ew
palis
spiral
peculiar
lakers
relent
espec
silver
fauna
remake
##oming
contacts
##ank
decap
aed
happen
builder
opinion
chariot
rolls
haitian
##ties
defender
##rator
123
tyler
86
##α
pett
kotaku
medals
pagan
transactions
##ophile
electro
ung
informing
int
##hemes
lef
batman
##anned
##inter
informed
##irth
coen
survives
isolate
##clay
##bard
ケ
residential
toh
axes
fuller
farmer
##erner
dispos
denied
considers
##agu
##oshi
##uf
uncondition
pyro
correctly
cf
rend
merchandise
808
bent
synthesized
tired
suite
fashioned
scutt
budgets
cannons
promise
rebels
adop
tuber
##ostic
raymond
##sept
hack
##ille
cover
gn
males
gauguin
209
形
bak
##ƒ
##ernan
virtual
##entiful
echo
1906
hars
offered
##ubs
buren
vanderbilt
##sburg
owned
pers
##น
overweight
cell
reiss
expedition
grove
##erous
gaining
illustrating
song
ali
253
garnered
cannibal
regular
comprehens
eli
soud
integr
mint
reaction
follow
##chen
engr
wallach
cris
luftw
breached
##bery
##mm
succumb
science
rice
bumble
intrigued
yosemite
arvn
gottingen
ssh
olivia
eul
entr
pollock
existence
penc
submarine
mow
##th
mo
underworld
flaws
summed
cantillon
kilomet
federation
mistakes
analogy
編
vehic
structural
tun
dmowski
commemorative
##linger
valves
##music
remixed
thresh
bede
pag
entered
stylus
aging
incisors
har
nobility
discarded
##used
atlanta
vin
replen
##iding
stur
signatures
arose
alternating
##ura
shiv
ip
listener
66
choral
kas
amplifier
##ecutive
##aghan
acqu
##viks
carpent
foremost
spaces
strange
satellites
french
jurisd
storm
##hyn
doubling
consistently
##fire
crabs
vanished
setting
employment
##ち
##ר
##alla
cuticle
yogo
certainly
##urst
circuits
coinc
身
1965
##gill
rhythm
helicopters
adrian
##airo
##ista
##ogene
minh
motorcycle
##ylon
conventions
##us
while
gloucester
lutheran
##phal
investigate
##itive
survivor
##inging
mckinley
##urally
##issions
unchanged
establishment
welsh
smoked
32nd
goblin
jugg
conserve
penns
humor
kriegsmarine
kids
gentry
cyt
governor
attain
luke
evap
loyalty
##oux
guar
heavenly
lice
noir
ts
serve
cobalt
##and
##onis
magistrates
streets
published
exhibitions
rector
fram
sumner
make
donkey
##odox
neutral
##hawks
judah
venture
116
##hea
hyper
periodically
sand
108
outn
creatures
##isa
##encies
delius
susp
shepherd
liners
##aning
##ival
##wealth
councils
##far
correspond
depressions
borne
haf
##rations
macho
preserve
##oko
alm
gaut
subway
leach
deposit
bay
22nd
vega
fame
柚
##urer
oxy
watertight
江
qf
##eld
##chev
descendants
winners
lacking
cd
##ρ
felix
hajj
₩
pushing
spec
some
dopp
nep
arlington
dolby
##hei
fright
kell
sev
recognise
oldest
brab
mccartney
##raha
damages
##eming
arroy
##chedel
depart
foy
resolutions
ordinance
inexp
##ermo
##ding
ו
doll
bucks
novelty
keyes
optical
##holders
thinks
invasion
doesn
stamps
gon
recent
##cs
flour
##adh
george
explanations
fundraising
crime
paralympics
upheld
wills
fledged
alternative
czechoslov
chopra
decorated
evenly
kes
73
rel
lgbt
##alas
##run
deficit
inconven
##ontinental
mobil
folk
mond
secular
syrac
verm
3000
perez
analyzing
jacqu
ワ
##х
brothel
securities
famed
aggregator
misinter
##ogl
simple
##ile
ψ
geography
mix
##ery
##loaded
##umed
##ove
invention
media
evil
ps2
jessie
duty
د
alma
ke
protege
batsman
partner
commercials
type
##iom
reuter
##ink
accompan
dehyd
pert
仪
##force
syntax
cred
rosem
neut
azerb
##cess
routine
picket
breaking
getty
clade
eurogamer
reduce
packaging
115
legitimacy
##izations
stockport
kerala
##embourg
##fu
shipping
coincident
snoop
astronomy
##ween
rhee
tend
liz
endeav
basque
##itage
hierarchy
##assment
benign
159
doors
unfortun
horton
##thing
myr
##д
##rar
boots
##wi
interf
homologous
qu
berkeley
##omen
##ᵻ
catapult
archipel
opposition
donaghy
summ
riots
enthusiasts
authorised
dyer
alike
thrill
##stead
acceptable
ა
shab
monuments
##ordin
scrapped
melina
rooted
my
traction
atroc
##elines
interpret
imposs
##eka
marriages
woll
kuch
finale
using
function
agents
minton
driver
recommending
shifting
achievement
undet
##ug
essay
didn
commemorating
dispute
denomination
hyd
containing
darryl
tried
76
##nd
##asaurus
palate
reputed
drunk
gh
forget
##orf
chapters
##akers
filmmaker
grey
##essing
northern
##ride
verdi
cambridgeshire
ཡ
##ute
356
lil
di
honesty
applauded
##wat
nash
inhibitors
applaud
wy
tom
ringo
manage
arbitr
alphab
germ
listen
jon
##agnetic
asset
勇
rac
urged
creeks
contrasts
fir
##ter
##خ
afghanistan
nk
##bent
disliked
##icas
amateur
dors
fre
possibilities
lightning
naz
magma
##etus
newsp
##lie
##ου
maple
adjoining
trun
##agonal
fleetwood
sarajev
##appers
yang
九
pants
unanimously
rhodes
primates
##oto
##ioned
jerry
michigan
23
spartan
causes
counseling
okay
set
tgs
southernmost
rik
##imeter
tunnels
engines
underst
stakes
discourse
bett
promulgated
zac
exploit
frigates
despised
defines
fratern
##35
longstreet
aver
##ns
allocation
1960
baptised
ornam
lamp
matt
opp
##lein
sections
backward
baha
##de
pow
##ロ
orchard
rhy
##ouse
retreating
pinning
nin
anime
sex
##mith
hilar
lab
jade
borrowed
extent
mumbai
##stahl
jelly
##iety
disapproved
approve
asleep
ক
error
convincing
conject
##ologists
individually
strain
1886
##iqu
##rie
reacted
##rob
##hood
lodg
toler
dwight
sentiment
sets
##her
##itate
##rey
rut
llan
##my
drug
click
gest
counters
rushed
guided
g
severn
passage
divided
photography
argued
immortal
relaxed
##ailed
middlesex
mesopotamia
##psy
inclined
unpl
cact
hit
joshua
1777
irre
gian
premature
##chal
marble
##fig
##zon
mycologist
1930
devotees
work
resembles
gough
breton
##une
norwe
##idge
freezing
1803
opus
elders
##zyme
drivers
local
ᆫ
pets
theorists
hostages
##iste
##aba
plat
bottles
程
bot
assassinated
phones
##ieres
neighbourhood
fleche
ale
martial
1995
cells
fields
wainwright
obtain
storytelling
##amb
paleontologists
½
stocks
dunk
theoretical
kart
##ul
crawl
bassist
herzeg
mack
rivera
starter
exports
dian
thro
内
æthelred
simulator
thing
influence
comprising
##arid
##ar
columns
demanded
chord
##org
matched
paula
halted
unpr
joey
shed
mood
tulagi
tackles
bonuses
faisal
##hed
indic
fund
##ometry
clerical
freighter
ቲ
interactions
staffed
yellow
team
ypres
goalscorer
hindley
strum
profound
colbert
awaken
nude
caragiale
haynes
extrater
##well
330
bragg
端
somerset
##せ
sheriff
harrier
connor
##yss
portfol
stated
promotes
1941
##inc
##enched
shortage
##ple
hungarians
merg
ital
##aughters
reck
##elli
razor
decoration
mot
xer
alone
147
findings
locate
gasoline
mal
agencies
lindsay
procession
manual
lying
profile
##ried
attire
shade
disciplines
##igin
onwards
gin
seaside
##º
sul
title
##enson
##etic
##iata
radioactive
whig
##acon
rows
pyram
sortie
##alde
##ε
grammy
ன
laden
、
tomorrow
##aint
bey
masts
通
journals
##ab
believable
reject
##cent
##islaus
##lor
cans
##exp
##ras
billed
betr
transcription
##ᅮ
##een
amend
acton
sonic
bart
rod
silent
kling
writings
##क
tsuk
##pt
studio
currencies
ر
osh
explorers
prequel
die
144
behold
チ
filters
before
duss
onto
##kap
sparks
commod
own
##iper
pastor
satisfactory
in
obituary
proclaimed
soul
capable
executing
anarky
telep
distribution
##odied
som
##acia
tru
selfish
superb
dim
occurring
##itri
oly
##apan
##lets
slightly
policemen
dollar
kamp
expose
advocate
##lance
pedig
##anni
ornate
wikipedia
duet
##թ
discussions
eadbald
1826
oak
rockfowl
##side
trophy
slang
hear
buildup
discovers
ardent
gotham
airborne
cypress
ಡ
faulty
##oll
phenomena
cellar
hunter
##edy
##uted
##gis
situated
mathem
brewer
packers
1773
lexington
satisfying
zion
##nown
honda
sorry
airports
robyn
woman
kitty
860
shepher
melan
19th
regent
##olson
treated
pitts
york
caretaker
mod
##away
association
bern
nmi
rejects
##uan
##hand
kend
comed
isk
obstacle
heels
bright
mya
##pers
settlers
principal
clergy
pictures
madrid
##och
##iero
dining
wilts
genev
shad
inner
##oran
masonry
mentions
fragmented
##gie
canopy
nolan
hatter
##oration
tub
viviparous
repeatedly
merging
tale
##oslav
statutory
franchises
strikeouts
enthusias
##agree
saga
tone
oper
rise
textile
iroquois
war
##adle
##agues
courageous
addicted
magnificent
desirable
twice
hagen
az
price
##rium
halo
sheets
shelves
##year
simply
coffin
corresponds
ニ
grape
batista
transports
judith
rockefeller
deir
guest
prion
radio
might
lang
repulsed
lola
##エ
nhl
manoeuv
tuck
##drop
metropolis
##feed
inn
buys
remarried
tae
inaccessible
rhode
certain
##kt
posture
perl
shil
##ocus
una
shakesp
##poles
brian
outrageous
mak
withdrawn
how
hav
younger
##uen
outwards
repeal
kiwi
ws
##chest
##ises
mushroom
spheres
kla
analyzed
seduct
##izard
tyrannosaurus
painful
##enhagen
guantan
##bye
friction
accused
rij
##anne
arthur
generations
moose
apple
jamaican
##icho
maybe
cheaper
mark
##preted
exha
byrd
engineer
ignore
walked
edna
suffrag
##ilon
##ontinent
spielberg
telecommunications
criticism
submission
playstation
##aen
tunnel
jacques
kl
militiamen
bethe
##night
flashback
##owski
plotting
dismantled
##edict
retains
gothic
creat
##ミ
infection
о
tres
sid
alerted
##time
brad
electrom
##yen
scramb
leve
shue
enough
weakest
pryce
distinguishes
1831
rope
##enium
##usive
1795
##ie
heraldic
ノ
feeling
##keeping
ibm
preparatory
stereotype
ensuring
##intang
krajina
##enn
liv
julian
saying
µ
sleeper
maynard
installed
triv
garlic
thyl
venomous
hobart
alcoh
songwriters
##atars
rot
ambival
filip
gaye
passport
yeov
gibson
itself
##inters
##arn
annoyed
consum
readiness
##ን
stabilized
inception
separate
surface
tradem
←
itv
wanderers
##asters
linguistic
unconstitutional
arg
fi
shankar
mgm
totals
kept
electronic
815
sheila
uranus
supremacy
##read
bonnet
##tedly
restored
vick
herself
levinson
foster
##gend
##ich
##aste
lund
disciples
nassau
carey
##bish
choosing
ads
got
##ethel
cliffs
wooden
marc
describing
pots
##zak
confusing
mediated
beirut
hof
##utes
##frith
plc
##otide
##uka
innov
separated
censorship
##nan
casket
cogn
kingdom
ュ
##eded
straits
miley
bitter
##orship
##baker
∑
myster
252
##win
memories
napoleon
757
stun
xl
comprehensive
##xton
raff
alec
caledonia
conce
promises
duets
parl
##encer
briggs
winn
stud
arafat
renumbered
empirical
duck
emerge
brodie
plunder
exactly
sabotage
micr
at
unhe
ascent
1920s
activists
##ਲ
umbre
26
##ought
ibn
next
dunlap
enterprises
southwest
psychiatry
reve
##inos
snap
electrical
##odrome
inscribed
##wed
managed
##36
inspiration
antar
come
dockyard
pool
enthusiasm
euro
glass
promised
##akh
malmo
recruits
tv
whistler
continual
discourage
##ithecus
♄
##ycle
##bo
morph
volcanic
paradig
nal
remaster
scenes
derrick
##amiliar
nursery
1988
soph
indigenous
corals
embassy
ashl
networks
yuk
crossover
johnston
affinity
examining
nicknamed
resulting
zurich
appalach
heath
conveyed
##ledon
##urian
friedrich
og
nrh
corey
vocal
##boats
corpse
curriculum
ds
##cott
ः
important
accessed
slid
millionaire
shi
recommendation
##χ
##mon
chants
config
intercollegiate
restore
suffrage
tril
testing
neoc
into
##eng
humili
ninety
airplane
rewrit
timing
square
mysterio
melting
nar
disp
##unct
tension
friedman
##oct
dreams
kad
leland
##asaki
##raction
buttons
distress
א
historical
1811
##achi
1950s
italians
swearing
mi6
skip
amassed
1832
1781
##eff
dover
disqual
vigorously
##ittac
##emen
governing
ankle
##att
1836
hir
uses
countless
closure
mist
backwards
##nik
##ices
funk
batgirl
hilson
crawford
frankfurt
248
##entions
consulted
needs
replaced
nj
francesco
seizures
refugee
founders
王
civilizations
estuary
stalled
palmyra
mt
##idden
mccull
flak
protested
kre
cadron
stow
##amine
wife
dix
birthday
##ilai
juvent
closest
##arck
convened
milk
unex
warwick
##rael
nottingham
phosph
horne
##62
armenian
latino
##anity
tast
##arton
mohawk
1926
せ
masculine
limit
squee
process
louis
falun
##orable
lasts
formats
underg
贺
alignments
meld
zhou
402
igu
portug
divinity
itchy
businesses
runs
sugababes
lor
hipp
face
##eland
##omar
or
##inda
ह
exceeding
scorn
goth
熱
##rics
son
##utsch
data
faded
æthel
##ष
soviet
##kl
romani
##right
urs
seasons
##utic
mb
maximilian
comput
fourteenth
acropolis
envis
shock
jovan
aman
through
agn
sticky
infectious
canon
canc
symb
server
wards
mortg
herr
gloss
##տ
expired
accurately
##ants
traged
corresp
heavyweight
calig
for
stunts
financed
issues
##avan
favorable
duan
ハ
inward
¾
electropop
singap
inflation
determination
disneyland
secretariat
pardon
we
##aly
vitaris
certified
shattered
brund
measurements
areas
fib
choices
thicker
segreg
litt
hang
fishing
bx
skate
ce
diego
pearson
##lined
##works
parall
##lit
[SEP]
insurance
julio
deposits
manufacturers
lo
woodward
successes
##ulo
progressive
φ
##ira
moreno
lieut
balkans
diplomatic
b
##uits
masked
gab
##pres
traders
ɔ
waterfront
kenny
observe
經
##ut
singly
motor
rumours
pin
ecliptic
persian
cash
##rone
hormone
proportions
finite
##ult
relegation
encountered
landslide
copyr
##if
bowled
ampl
honourable
##osa
predation
##igar
guy
entrance
furn
blooms
byzantine
jurisdictions
consist
##ittal
6
ت
bevin
fife
##otus
eruptions
o
jackman
##ictions
table
laun
1846
僕
france
##iasis
##oupe
freely
hv
##form
##mental
metacritic
well
courtesy
preced
gramm
candidate
transverse
blat
##enne
writing
mir
orleans
##ometers
sellers
completed
lumpur
##cia
##obil
advancing
birds
vander
##ys
stav
scottish
melvin
spiritual
underway
innovation
prow
morals
clubs
seventeen
lc
influences
##actical
snowfall
henson
marse
ic
名
enters
##acker
##ulatory
substitute
sr
wants
secret
watching
burned
区
molars
##nian
##thel
wyoming
milner
governed
confron
##van
meckiff
##aton
42nd
##pow
conversion
ging
bee
timberlake
##orney
retailers
road
band
uh
kov
##ully
truth
##list
##burg
##ayette
collapsed
tones
experi
cout
energet
prayer
##シ
tiss
ネ
removal
covered
dire
jr
##irl
minute
croatia
pen
epilepsy
chuck
##asse
tribunal
さ
template
cao
gir
disappearance
##uda
grac
##mass
smaller
limitations
teaming
1829
bore
fulfil
hussein
lets
sideways
recruited
##κ
elev
bays
distorted
evergl
##parts
infant
##elssohn
perished
decision
expelled
barney
overcrow
##ius
olig
lands
1871
obtained
sixth
tigers
scarlet
engross
##umi
discusses
##uman
prehistoric
if
ra
pref
recorder
drum
latest
phys
visible
barges
couldn
collectors
tell
##riages
pamela
##stop
chili
##ouver
legislative
xiii
koh
58
vult
only
##rell
dates
audrey
unacceptable
##ite
phon
countered
grade
sketches
ssr
oste
rises
he
submissions
158
passive
favourably
æ
detailed
simulated
report
解
sly
unauthor
strikes
promising
nets
alkal
hoped
measurement
confluence
mays
fashion
gradually
messina
paras
fac
starr
##uth
globally
##heart
honey
corporation
income
salts
uncertainty
hoc
υ
unint
##ness
misf
forecastle
preoccup
cote
##ivity
nut
scheer
holdings
swiss
stretch
##factory
ท
ة
cull
snes
տ
pageant
gotten
##cements
##sis
jeremy
clashed
semi
indicator
wasted
##season
localization
bruce
missionary
##odin
margaret
adri
pupp
consumed
##ugh
##ball
charlton
##ving
fost
confiscated
##idian
blames
neb
subvers
preacher
tolerance
品
whose
ox
cock
171
##istent
fabric
##iotic
cooperative
ballots
founding
solutions
mck
unpublished
##asty
##ouf
acknowledging
nova
rehearsal
##mod
teachers
reacting
bedroom
montgom
remain
760
旅
##chi
pandemic
biz
monastic
lann
dalton
274
ncaa
##assis
vr
borrowing
accumulate
sparsely
picture
sudden
compounds
##aduct
zit
tert
expeditionary
massey
java
landlord
staun
##olph
650
##ी
##ellery
separating
mash
estu
鉄
ensign
1909
impairment
##ht
mcnam
hypothetical
lisbon
expert
vulner
##cedented
cancellation
"
##lend
frederic
##icking
instances
represent
today
alt
eight
##ena
tribute
relativity
##kins
gymnastics
attitude
##ivas
28th
##rodu
##jev
alzheimer
rpm
infr
hatt
##iture
##send
1792
crab
##5
kimball
reciproc
ufa
casting
onward
gender
length
nitrogen
##ctica
##tor
exclude
剧
theme
impractical
nuclear
scarcity
flows
marks
technique
divides
inspire
transatlantic
serial
counterparts
strait
##ids
stre
rather
relieved
exits
diffic
aron
winston
theobald
本
hurd
haiti
fles
ing
legally
unintention
##bound
priory
##ingu
##ounced
rowland
##ridges
blocks
payments
illustration
button
encore
wrestleman
confirm
sle
lenin
purchases
instruments
amazon
propagation
##pot
whal
##hett
bachel
conk
zeppelin
romanian
famil
rams
zed
##eason
skirmishes
express
noun
rigid
nim
##izable
advisor
mouse
sunken
illeg
boarded
ɣ
##rous
ego
tentative
ज
##iar
thames
dissipated
##vin
chron
maha
pamphlet
bomber
suppl
cromwell
tul
injury
56
trick
slovak
decide
ayr
0600
##igh
##ccess
##igo
potassium
wall
lethal
mammoths
reneg
look
bri
ends
sacks
homest
cmll
caern
##amer
jefferson
plate
sentimental
aerospace
martyn
preliminary
tanz
bang
grow
academy
dominic
cavalry
ᵻ
downhill
copeland
ե
any
##oned
carn
clic
occurred
consumer
approaching
reinforce
fathers
shen
unprecedented
##ocre
##inga
northampton
##nals
professional
##litz
kahn
##ʀ
catchy
##lys
downlo
jake
##yc
cau
predictable
maze
kom
fil
solar
frequent
767
1788
##iling
battalion
durga
blacks
xia
concerned
programmed
##lyn
##oes
rush
starfish
persu
sms
whit
meteorology
friends
更
hurr
1998
rite
##powder
annals
craw
##ublin
263
ira
deity
galaxies
abduction
##market
nomine
glam
loads
alleviate
landis
crosby
##pping
automatic
consul
said
ranging
europeans
katz
wisden
##bies
foley
woodlands
waist
proced
buried
##ocated
##zko
heroine
prison
pawn
hate
##adically
stif
mercen
vap
elabor
augustus
ony
##१
pud
scientific
emergence
maid
mess
jeopardy
##rogen
ches
ottoman
zoo
##ག
definitely
mole
desc
chords
italo
##oc
gates
##irt
poet
yeah
amphibians
##itus
##ony
##ayashi
##ans
beyonce
serpins
##ler
##nda
owner
pp
seam
##rified
being
octavian
cough
championships
symmetrical
nod
determines
siberian
sau
unavailable
comets
waters
##son
seine
prejud
##bled
created
intervention
##yt
retire
mord
##mars
committing
cortex
borders
phenomenon
guaranteed
shots
lorenzo
habits
##ga
dolphin
cusp
xvi
pits
lots
variety
keep
stalk
kanch
biscay
##kn
auschwitz
instrument
exhaustion
boll
displacement
##uchi
grind
disqualification
honolulu
betting
dinner
fairfax
bunkers
##ole
wedding
lessons
rand
envelope
sd
##annon
su
vogue
hopeless
##car
cape
dictator
progressed
facade
日
##arus
borg
##asions
supporter
cancelled
manusc
seminoles
##lessly
obsolete
##э
whip
continue
siege
dissip
ordering
accumulation
butler
##apped
##om
##ɬ
miner
titles
##lay
##agiale
actively
conqu
displaced
roode
##ret
assaults
reverted
matthews
called
eliminating
toky
##iments
ix
advertising
gol
##uez
##rot
##pper
returning
accepts
lowe
embank
riders
bicycle
##idad
klingon
ultimate
##pora
also
ganesha
##ez
fr
hinted
##acons
dignity
##bius
##ance
##fur
cornell
##hesh
ranked
may
blaine
socialists
manner
##з
##lins
bordeaux
##ulla
vijayan
finals
explan
horn
locker
anybody
linn
philosoph
gan
diseases
##orter
incentive
rd
samaras
outcry
perry
mercenaries
##fil
forgot
##udes
predominant
小
nichols
kathryn
accident
##fires
bollywood
##iang
vineyard
penn
inhab
discour
v
##rina
monitoring
forster
orchestras
##ixon
##mu
intervals
##otic
##mic
implementation
##one
incorrectly
coaster
lith
vows
pepper
jes
classroom
##oin
upbr
fest
##ᆯ
starkiller
223
pled
##olved
##roll
##utu
grew
##iska
hindu
councill
portraits
old
funded
##issary
##otron
summarized
uns
香
##ogen
##iya
exc
efficiently
troupe
thigh
##nas
warming
touc
chennai
insight
endurance
tong
humans
participating
perhaps
filing
velocity
真
brahman
prerogative
karnat
localized
hamper
toledo
condemn
##nels
rosberg
wagga
stalemate
850
kaf
127
##yas
conducting
aravan
contributors
shit
geor
395
lopez
jams
##enh
studied
##ase
forfe
compress
weren
seizing
southall
guinea
subst
##agonist
##gall
brass
ting
ratios
##fied
conception
confirmation
iaaf
##uge
brook
histor
hewitt
presbyter
cartoon
fei
##oken
britain
##ca
occasionally
gavin
weapon
dwell
##page
funnel
contract
157
−
insanity
ja
manually
rebellious
burn
##ycles
earn
е
shoreline
refused
##ona
##urred
##øe
stamp
baltim
lucas
##ateful
nom
sue
##ɕ
##eche
salv
1778
立
##opus
chair
replacements
outt
confidence
partners
fru
##aro
quick
unf
viet
##ono
lowering
disrael
drain
scandinavia
##ff
regarding
diagnosed
eic
trist
##anj
bub
darren
scrub
morris
##ired
₂
hib
##tro
dist
##vs
pokemon
relief
concurrent
##reated
postpone
bunk
medica
rupert
steve
amate
target
exclaim
prints
tabl
drastic
bacteria
オ
piper
horm
lun
ans
##icht
##aga
trophies
##oard
penetration
mimi
syndrome
thrilling
permits
kemp
bros
discuss
外
cens
handle
pilot
glider
emerg
##t
safeguard
heal
alth
concentrations
##ux
misc
irene
hm
constance
parted
##aling
ancest
pne
becomes
1890
##bras
##bh
oil
oakland
epis
gold
crim
tempest
allig
muller
unseen
##ం
enchant
lack
immigrant
prefer
race
musicnotes
cope
blanch
picks
marxist
receive
giro
hello
retirement
##herr
£
confederates
module
northumberland
inherited
lovely
lindwall
headlining
courts
architecture
museum
exploration
fries
haruna
cem
backup
arr
astronomical
beow
##ܠ
##angu
decaying
emile
freder
presumably
間
clo
whitlam
無
chaired
count
censors
shake
manh
flair
##ople
monophyletic
leafs
kannada
sight
##メ
utah
mustered
hemorrh
displays
cra
##elius
paulo
cannabis
beijing
cary
gp
disqualified
diem
incomp
##hl
blamed
##rama
stratford
diss
can
105
mifflin
romance
forth
keeper
programmer
##rag
tur
dodd
kaj
mets
##ipher
merckx
##mus
agu
imprisonment
alger
246
prestige
sesame
stewie
##fish
絵
fluct
perennial
##quel
recommend
facts
##rious
intern
##nah
finalist
taiko
seism
remainder
hemisphere
##inished
##ition
intercon
archaeologist
##խ
cultivated
colleague
##spec
kaiser
##ብ
neutron
vegetables
nonsense
wrecked
fa
bother
wiggins
hitchcock
articles
slav
##ﮮ
neighboring
rebell
representatives
##ror
ua
1839
topping
stevens
capitalist
dairy
monitored
confesses
mushrooms
verses
balloons
presidents
rommel
micro
opium
##stick
命
cobain
germans
accommodation
reformation
discrep
sis
stopped
turrets
revenue
##omot
hernandez
##irect
##ika
minim
schol
hardy
meter
##ipers
sicilian
detonated
evacuating
cro
lyndon
25th
nagasaki
parson
##face
##athetic
##inia
kirch
##umb
mez
##inks
##iate
fernandez
campus
disintegration
reserve
inhabit
double
metall
##eting
swelling
ܒ
paralleled
##ctic
speaks
і
##ract
beats
indones
prominently
##ish
##ctive
conscience
##autical
##ification
brittany
sacrifice
h2o
tat
灣
dissatisfaction
##aha
choir
atlantic
##rants
threat
enigma
hitting
northernmost
tram
norse
package
naruto
##erable
reorgan
##ils
tosh
volumes
intermediate
##ctions
paragu
54th
##6
備
deluxe
marathon
eckhart
spanning
counsel
mock
germin
##ocks
paper
invite
feasible
rept
bere
required
ב
transported
grazing
forecasting
##asi
##agar
jakarta
##ihan
arabic
kenya
##air
caves
bip
border
ammon
schwart
sideshow
cruelty
wey
cinc
geometric
undoub
##mul
homeland
fatboy
firing
glad
init
violation
surgical
jud
cutthro
guille
trafalgar
unified
surn
phosphorus
greenland
##enzo
hagg
expression
mine
chak
chester
heather
med
vulnerable
juven
##99
subjects
dani
superst
##vine
earnings
##chrome
##auch
fascinating
aided
##ighter
##ム
ante
dorm
shir
dock
parody
tearing
videos
emmy
rowed
kanak
##arc
repairing
indonesian
airplay
forerun
249
##apes
extrad
inconclusive
kn
reactor
mic
carradine
##ogical
pearl
bailey
lament
##eda
berkman
volta
advice
victor
satisfaction
gen
jean
sustainable
broadcasting
grande
wichita
cerebral
##ury
shorts
appropriate
ingl
shay
bought
defiant
##ted
bulgarian
ruf
##cey
jumps
minimal
≈
ond
continuously
##card
lay
tunes
##weig
hamasaki
patrols
##abling
##iduous
allocated
prelimin
positioned
submitted
1958
cleared
##ario
##uses
benn
##ι
customs
isab
##ce
president
mirage
jenna
energies
##フ
paler
paste
elphaba
child
64
##lying
heat
pri
embar
improved
literal
diagnosis
##շ
encirc
challenger
steven
1857
even
statue
deficits
brahmin
unexpected
##uary
१
cared
##astrum
dam
sheffield
craig
republ
treas
##ine
perform
salaries
sisters
maldon
籌
grams
modernist
##ences
door
anim
1740
corpor
stomach
mg
surveyor
wealth
源
collaborators
alamo
juda
##lear
meaning
direct
integrity
hud
portable
wished
butlin
amanda
lavigne
radial
##instein
flemish
void
##sts
manor
##jord
quickly
##kp
tapered
underm
##ming
replace
dilap
##atre
five
implicated
##ı
1791
algorithm
revol
##eg
wrest
karabakh
drawn
races
pneum
unlik
unions
kitchen
##atoga
defensive
dominican
aaa
き
banded
baltimore
##tha
planting
1850s
##rocks
utc
lieber
persecuted
aluminium
longitude
phoen
##ソ
1936
alarm
triggered
##oose
rooms
##ಬ
ninete
tongue
vicar
oath
classified
##astic
fact
samus
##verde
zito
velvet
monarchs
##elyn
ਾ
##acked
##asio
angela
basing
allen
unres
##ylv
yet
##rett
oceanic
ruthless
drops
terra
ioc
doctorate
244
inspector
##omm
##stru
##erie
1877
breeders
み
##ien
quinc
censored
shout
william
norris
1991
sequels
fighting
cunard
ceased
aeronaut
projectile
impending
finisher
suppressed
##isson
not
##hey
documents
##ads
readings
##mans
meas
ornament
farmhouse
##letown
##eces
negotiating
riot
standards
1985
riffs
balance
orbit
##enc
tintin
canvas
<
vanilla
pseud
nearer
examiner
neither
alge
ambushed
##weight
cann
broadcasts
##ysław
michelangelo
voyage
install
skulls
miracle
oryzomys
##mare
##itting
regulation
taxi
##var
vital
silverman
##ivid
##６
incarnation
##ne
acknowledged
grant
rejo
thomas
tasmania
maureen
stair
vess
bedser
##80
thanksgiving
entertainer
##ropical
##tle
whist
##ropods
bergman
yu
##kin
copenhagen
##omical
pensions
##master
suic
merlin
edges
compatible
##rose
circulated
saw
whatsoever
clarin
hond
kiarostami
hopefully
bayern
##unes
##emption
##ܐ
hor
artificial
evangel
鼎
zx
gains
737
trial
cune
cac
phantom
vickers
##kor
persistent
mackenzie
rad
##ched
riley
##stream
amids
usa
lengt
襄
##ह
م
alex
##iefen
##rd
ruben
bradman
gillan
votes
##ᄅ
1784
burt
ready
apl
colleg
##avia
mccullough
bombay
casual
##im
account
cess
manzan
##idency
bcs
advances
brend
brownlow
愛
乱
toshack
鵡
vuk
investments
drawing
lennon
tablets
tune
brew
organization
kor
painters
slayer
manhattan
##rown
lyrically
lair
##assing
emergency
##hesis
avid
eaton
dwelling
abducted
720
##ʻi
samantha
apex
overw
engage
声
unaccept
texas
pun
pon
inheritance
stain
trash
instinct
fringe
khrush
goebbels
viewed
94
pesticides
backed
##ᄀ
prost
town
sanche
cleaned
caroline
stanley
/
est
##yin
brigade
##cents
pressing
excellence
libretto
1794
effects
##kinson
##onso
##adal
rhod
gard
joan
##atures
thebes
inhibit
victorian
prospero
440
alison
agricultural
festival
##os
oversaw
pyr
ug
harriet
dys
quwatli
avi
ィ
##icium
shipwreck
london
bois
計
swarm
fatally
##lement
catherine
photographer
indul
basal
##ented
spoil
peter
chronicler
##leading
canals
##ception
vom
allmusic
##worth
henderson
sunny
primate
##het
2s
coordinate
sectors
knicks
conquer
simultane
avro
genoc
creator
problem
奈
ma
abdom
##iesta
hottest
##olar
##atology
hasan
1942
uranium
literacy
daleks
mozamb
unused
ron
##ር
##til
korsakov
##ouncing
suspicious
implications
mold
##ifera
խ
##acious
documentation
##com
ahmed
manitoba
slain
gorge
barring
m
delegation
shim
##cut
##aws
ova
writes
07
drive
##shoot
weakly
cere
handicap
ble
dund
subs
guidance
competitions
collaborations
halfway
thunderstorms
se
mathews
scientists
cumming
buckley
stating
##soon
rita
ping
zagreb
hale
schooner
##going
cetaceans
decreasing
stolen
suppressing
lords
##ocene
hold
else
faw
responsible
##lah
19
meyers
##iciently
1939
##tenden
flint
##ル
##dar
needed
away
##ya
great
##ings
narrows
##har
classical
##oche
thorpe
walled
colossal
spons
param
##sha
exacerb
conclusion
##illas
delux
cornish
charleston
opined
gamma
fortunes
textual
##pling
immediate
working
##g
purely
shat
«
voted
stagg
landscape
eddy
asiatic
enter
##casters
amidst
fleets
transition
accompany
creditors
hbo
ℓ
ゆ
countryside
photographs
anchor
unw
##eches
lust
oasis
exec
spit
##wen
##ipedia
gallantry
failure
##oughby
nme
##ina
matches
newman
realization
suburbs
facing
##ours
beams
congressman
politician
avenues
achieve
sphere
adjusted
##elect
201
propose
fences
toro
crohn
reg
##49
leave
##otai
umaga
jen
胠
relatively
minneapolis
headmaster
mono
##ナ
yahoo
##eleine
pg
outdoor
easier
caliphate
chem
##མ
adapt
limiting
defeat
buenos
ledge
crops
apu
represents
diam
anc
acre
##ized
diamonds
know
##umman
495
nearby
digits
foods
raleigh
precurs
##ield
hiring
pichilemu
##ents
reconnaissance
believes
##い
134
decides
##jour
charlotte
conan
kj
gunnery
steep
parking
##iating
stint
moltke
##iend
个
gre
soloist
ヤ
##ational
poison
gro
quarterf
##ial
struck
##atts
##ges
framework
phyllis
diagnostic
reflected
continuity
doncaster
etr
harper
##rap
cr
##oros
shipw
seized
memory
concentration
voodoo
preceding
unaff
polo
panzer
automobile
allied
wigan
ambulance
partn
shutouts
creepy
markers
lif
agricult
align
##ァ
regency
1874
##ibald
nautical
pembroke
awards
strategic
lounge
rog
##carriage
##ries
##reys
##moor
creativity
exempt
saffir
141
grammar
##kle
proclaim
##90
dahl
ballard
something
##tw
defeating
用
ex
##enes
office
1971
royal
intentional
cerebell
descending
melodies
##omp
##rail
derby
winds
##pill
##alli
conspirators
mastery
rivalry
laguna
produce
##utions
critical
##real
savann
##ubb
##gem
luck
creators
designed
temple
overrun
##rem
chatt
##uff
quag
fiss
##idan
pike
platoons
mangan
silk
ports
besides
characterization
kou
tyres
sworn
detract
##red
successive
leg
conv
halsey
sunk
el
activation
mad
totally
brit
recovering
##anner
mundo
regions
director
advent
genuine
demonstrates
##phones
540
scandal
outlets
er
reyn
plag
wrapping
##lus
alias
vh
coat
accounting
obtaining
page
defences
bows
п
chemist
##ch
organic
determined
sturm
fortifications
##ually
norton
##stood
reply
strav
##uled
bre
##ja
disorgan
harb
red
settlements
bolivar
biden
marketed
bunny
popular
hind
freedoms
sleeve
##gosaurus
theodor
##oping
deserts
nug
abut
輔
townsend
absolute
scaly
国
67
strat
##maker
govern
versions
##ako
doubt
knee
doo
kee
1964
horrible
##esian
rugged
coordinates
section
towed
##uel
teaching
1888
antagonists
##zes
apparatus
pia
crag
savings
designers
##gang
##ovic
listings
virtu
complaining
kors
cavendish
sov
ff
pivot
godfather
lyric
bono
centric
electronica
investment
##acher
lsu
đ
petroleum
referend
lic
vow
lou
imaginary
column
rapport
jaim
ars
foul
winters
interrogation
##raine
torpedo
undoubtedly
volleyball
ponds
##բ
telegr
##rates
##fa
judge
135
##с
embedded
##tering
skins
cornwall
joh
metric
smallville
gradient
sh
contiguous
台
tap
##ostom
sik
arbor
unbel
stopping
curraw
##wards
wis
cagney
servant
contestants
arbiter
drinking
闘
earth
defence
him
disorganized
keef
##lines
##rade
suggesting
mastering
particip
saints
177
montoya
judaism
##aniel
sparse
consequently
r
matters
mechanics
trusts
richest
kk
fighter
pamp
##acity
##zi
buch
三
idol
christchurch
questions
periodic
okeechobee
ival
promptly
##orn
##20
foreign
asi
haw
##inted
pandora
monog
ɤ
1843
alternatively
ideological
robbins
chanting
##while
channels
holland
mainstream
lively
legislators
feelings
##aroo
prepares
15th
employer
dispersed
sock
quint
zamb
##eroy
resour
filling
bea
gw
accolades
jam
alle
roy
abbreviated
trim
##fr
##eled
##ching
progressing
unpredictable
participants
brid
iod
statues
nurmi
lose
forge
830
##ief
deadly
reub
##ge
bian
##elganger
enth
choke
simulate
ling
compil
800
bombed
archaeology
enron
especially
lance
natives
autonomy
demanding
581
##ا
voorhis
##iated
##athy
houses
ascended
benevolent
gand
properly
taekwondo
migration
tand
meg
strained
lb
cruise
devised
trailer
award
##bec
pat
tube
cooperation
##rosse
distant
claudius
dietary
##ecs
orkney
reunite
determ
therape
უ
stephen
garden
##few
watershed
##anc
candidates
prinz
spoof
chev
unsett
werner
boulder
##rise
scene
1a
ferg
justices
##omas
nephew
supporters
belonged
iconography
ms
incorporate
bauer
##adilly
##uper
##aru
知
prizes
morally
discontinued
aub
##sen
winthrop
connect
pushed
pitcher
shell
pompey
unsuitable
##rehend
coulthard
grasses
devastated
mayfield
##agher
1779
gerald
dak
oy
responsibility
chases
burr
##heast
robust
antony
financ
confidential
parishes
mccon
addition
drums
listening
olsen
corporate
##chus
##onto
cros
lubric
כ
##uend
enjoy
##ales
ashore
##ɲ
ridden
huntington
cylinders
ʰ
##oker
residing
enhance
2d
motte
firms
wre
allev
horizont
simplified
limb
##odeon
scribe
trout
##eno
mab
wagner
portland
boyle
military
sargent
##bet
##ifiers
##haus
disabled
supervisor
limbs
sieg
boom
landed
scuttled
complaint
ascension
clouds
##gh
fee
fid
darwin
thrive
kentucky
##acio
puzz
sere
evenings
rolf
squar
dynasty
jersey
glory
fiercely
priests
reach
rail
miam
##ellation
hedge
noon
clashes
po
phel
boron
genera
simpler
gage
physicists
##mond
##oyne
tonnage
occurrence
##uing
dispers
lackl
##uga
meridian
showers
dorsal
韦
lincolnshire
angl
##elope
ballad
##ility
downing
##amm
reprinted
ig
##raged
##iron
planted
alpine
obs
1876
1840s
ejected
##estern
impressions
##oslov
eur
expenditure
transform
bonnie
maya
sued
thinner
amnes
plank
।
ach
doi
understood
spokesperson
deserters
##aten
turbines
##illery
remod
pan
tamp
ended
russo
amendments
mell
fiction
ancestral
transcend
[
arj
infl
waugh
43rd
dupri
substantially
charged
spear
##apest
posed
##ome
roses
steps
albania
utop
proven
z
baker
litigation
cord
rec
constantine
brien
darby
##ranes
ə
mcne
##ts
227
dwellings
cynic
##ko
‐
antagonist
##selves
baseball
beliefs
mandatory
invitation
basin
commenting
##qual
fugitive
##adesh
strass
##ussy
##asis
archety
##ma
enrollment
humanitarian
conservatives
diplomacy
few
##jø
plea
cat
fount
calvin
1823
wait
inappropriate
##vements
mel
##lot
warsaw
ub
hunts
appear
totalled
##aution
cabb
salvaged
剣
organisers
repatri
360
martine
php
401
##rae
accordance
croats
alliances
careless
athenian
drift
dubstep
sprint
890
cant
interc
caliber
##oskel
lso
exclusively
hau
1994
fix
poorer
##ieg
undergrad
1997
##esia
原
achieving
blah
intent
schur
sol
##ones
##eal
socialist
sibelius
broadcast
photograph
quad
35th
salon
##istence
pey
grandmother
nebr
sidel
##imin
superimp
warmer
quinn
brendan
contribute
ish
unleashed
reinforcement
figured
jamaica
concurr
##grave
pink
bulkheads
x2
berg
##ao
##i
perpet
reluct
undermine
plac
revolves
moment
but
##retion
bloc
inherently
shane
##oons
ambiguous
outl
pegas
raonic
##arivony
migratory
##f
##ules
buckingham
drop
homer
##ouk
mccarthy
east
courthouse
investigative
nadi
births
actions
ranger
discovered
derek
experimental
editorial
trains
iv
##ih
rufus
parap
surpl
psychologist
vers
chet
domestic
artefacts
absurd
vigorous
ƒ
##astrian
imped
opposing
style
scream
lu
molyb
flam
underneath
exposure
marx
eighteenth
asserted
export
##ecut
edwards
evolved
smuggling
##end
sincere
saskatchewan
hundred
independently
##ia
lon
pastoral
##apse
##ivan
manners
mortars
hong
volume
sugar
alarmed
##agger
hopkins
yugoslavia
baptized
##isation
catt
inherent
bradley
clemmons
weak
brune
punished
site
elaine
risky
lengths
she
sufficiently
developer
ruby
absolut
strengths
millimetre
tiles
apply
jupiter
##uce
trot
##ucent
##ization
##osus
catastrop
warbler
lanka
花
hall
hatchlings
##illes
900
agar
aid
iraqi
##han
ratings
aeron
spores
solicit
banding
seriousness
frankfur
paralymp
erie
iran
dives
redesignated
ideas
catal
##irs
increased
tickets
dawson
fc
jod
shakira
pars
##bone
霆
teton
spur
scattered
##py
rejoin
##po
coherent
poorly
gamecube
crore
nuns
acacia
restrictions
pride
flamenco
anark
##build
recon
incurs
kras
##arming
court
zelda
buchanan
407
##arations
13th
austrian
rainy
evans
increasingly
heffron
lub
##emann
external
manga
##urbation
maintenance
goff
brezhnev
regulars
activist
wines
##wart
zomb
wembley
##icing
notorious
##etime
ono
westwards
a
clock
zo
lute
##iciency
marsh
##olas
halley
crossed
##ن
predictions
network
bells
##otte
tactical
shor
purch
encouraged
toss
leon
obsessed
##velop
seaf
calakmul
einstein
toll
erosion
##essee
##bar
##inians
lep
voyager
ancestors
missiles
allman
judgement
enjoying
##jas
student
beauty
unesco
undertaker
aborigin
significantly
zhang
bremen
balk
poisoned
software
##cend
chlor
discern
dressing
host
darker
esh
hodgson
1954
ensuing
quwat
enlightenment
comedian
wavegu
ensured
clearance
undiscl
hadley
eth
centres
aground
ɠ
residency
anastasia
##uble
unil
specialty
prov
##umented
##alon
less
##asta
assistants
spru
hospitality
lawyers
azhar
coconut
##ample
quain
categories
rajah
sapph
eliminate
choreography
##arm
endgame
projection
##cor
##abilities
predecessor
##ense
milwaukee
errone
patt
poses
##ading
pursue
##fleet
shaking
##otations
protoc
masterpiece
ո
indigen
cohesive
##anks
illustrated
##road
aac
fearful
interfered
trailed
lg
crimin
gyeongju
lexus
dna
hi
矢
##quin
simpsons
peruvian
tri
complexity
madonna
roh
cyn
refere
disbanding
incarcer
interesting
##lord
announced
##amous
beans
##anium
hannah
housing
join
receiver
halpert
knight
lasted
criticized
##igny
dog
21st
layered
interrupted
sometime
euras
commonly
時
chick
hyph
impair
##ry
##ipp
##vis
capsized
370
kolk
accelerating
magician
herzegovina
spend
invited
##iors
ignimb
##avar
##48
varies
##vik
tantal
poisoning
aal
checked
ಬ
##ᅯ
communal
predator
lizard
bery
tus
discharge
biot
sap
##anded
barclay
tendency
pik
reef
4th
perspectives
sard
jared
intake
##prene
##ption
teenagers
bridgewater
proposal
whitehead
##щ
moat
earned
controllers
selma
carnegie
jesus
conrad
weekends
measure
deser
drowning
##iral
140
formally
misleading
candidacy
patriot
##usted
##bra
glor
155
sign
powder
criteria
exceptionally
humphrey
pronounced
gordon
##ussen
lew
armaged
safely
criticised
dus
april
belgian
middleton
bant
##iago
त
baba
countries
schwe
somb
cave
##mobile
recounts
##zman
kota
anything
trailers
##ires
225
unter
meck
lynd
plant
extr
stelae
##uation
bohemia
##liness
admiralty
separ
##ss
##hele
##glomer
active
banner
veterinary
afternoon
favored
daughters
¼
respectable
celebr
vain
discord
assists
mechan
neck
nala
abilities
換
bermuda
conversely
##asm
unconvention
caring
##usion
malmesbury
postp
lined
ment
pond
chelsea
moderate
jav
xbox
##ompl
deaths
##ally
hook
edinburgh
##iciencies
insects
brighton
turtle
underlying
dest
241
##agrams
suburban
1858
##avi
surpassed
aforementioned
##ip
bone
argyll
##rang
##z
translate
theropods
systems
nineteenth
bullet
skepticism
ག
hat
##govern
racist
angels
rag
##frey
convex
addison
1987
flieger
1821
bankruptcy
##gro
mani
questioning
fl
remembrance
heracl
claimant
dirty
##oss
ropes
damp
abl
##roscopic
ash
checking
cross
pitch
collections
textures
extend
memorandum
devoid
weaknesses
madness
breakout
##14
bilateral
##imer
340
murder
##ա
rhyth
##enger
breckinridge
piłsudski
2016
œ
sermon
mitchell
500
slash
##usa
banff
demolition
dot
convective
const
##attan
mits
lace
jose
☉
shrews
1970
revive
##top
confinement
読
coin
widened
radha
monaster
nitrate
testimony
##nt
annual
assert
disco
##ɤ
kombat
bols
大
provision
schindler
cree
##ressed
adult
##elet
vikings
##ivities
splits
passionate
nit
filming
kins
dimensions
erich
bundle
##points
reh
pinch
kun
100th
cruz
intro
bp
reality
ش
nightmare
radically
anonym
surgeon
##ayo
officers
persisted
##eta
organisation
ineff
send
grange
haz
chased
38th
britann
retrieve
rabi
environments
requiring
ta
rehabil
mcgovern
shortly
sequ
##otle
motown
##yle
smack
า
ranc
##icates
archer
mulan
carousel
mar
drafting
vern
##gain
samson
##ven
outdo
amusing
##jug
##cence
builders
intell
##alia
##writ
bott
jewels
bane
freed
discom
membership
##abl
08
wom
garrisons
rip
charities
seash
arrives
advers
##ps
intol
##acular
rahba
proof
turned
##vable
rms
podium
macedon
stad
dangerously
costumes
##cin
hsv
fullback
sene
exempl
tetra
tales
##utsc
goddesses
continually
characteristic
abrams
##bour
stories
destroy
##ike
##ᅥ
graduating
##iva
##green
regard
ibra
confuc
rum
corrections
volcan
derm
ivy
gamble
eradication
eusebius
mcmurray
48th
wagon
preface
bare
up
##leen
protagonists
##alez
myrm
##osse
fran
hy
pro
deprec
lept
georgian
##ersed
made
saigon
holding
emph
creature
trigger
induced
コ
##bury
zone
architect
debts
dismayed
prec
presc
undeveloped
rao
loses
inform
2000s
tornado
bai
##け
begin
weaken
imperial
conical
terr
hispan
ambition
adriatic
eg
fond
evidence
smooth
westbound
moss
walter
snyder
fish
##ook
hiatus
destination
sas
encyclopedia
finances
phen
commentators
stations
##agasy
teller
pavil
stone
sudan
masters
visuals
##wear
89
sync
shiny
designer
amphib
pursued
reliance
gamb
skilled
rica
centuries
##ic
manoe
morocco
exploitation
##ockey
spinner
stems
bundled
promoter
guitars
val
disbanded
marry
operates
miy
franz
instructor
similar
sun
beds
##jab
woolly
voluntarily
##band
yesterday
ᅥ
##uss
witnessing
peop
matthew
betray
refr
vessels
mansion
challenge
movie
etc
falling
##zy
vowel
awarded
nationalists
12
educ
民
spo
covent
##iel
respond
ak
inhabited
hosts
television
200th
74
maneuver
##gee
noah
attracting
†
extinguished
390
teen
lionel
conquered
##swick
selectors
minist
##orp
dart
godd
doe
##ric
facult
enam
ф
戦
jg
radon
##idable
perc
haus
fancy
goldeneye
lisa
um
spr
cone
unexpectedly
failing
gentleman
because
##ember
##way
accelerate
reich
underground
provocative
deficiencies
suggested
cricket
despite
backbone
reconcil
nadu
hardin
##ender
##ubl
platoon
boxing
okin
1889
drummer
skills
edit
cut
responded
monit
##ɺ
‰
carnivorous
deliberately
fritz
altitude
##aran
marvel
starboard
jennifer
subplot
bold
lone
sinclair
bruins
obsession
welcome
vernon
kass
envoys
hasn
406
##und
roma
resumed
bordered
ambassador
castell
arranged
##iza
bees
ه
##jima
moody
bloom
##キ
sighting
rodrig
distinguishing
drom
nok
zirconium
bring
##veland
soc
right
##ni
grave
fitting
##aded
cru
##reg
spock
carac
habsburg
contrary
labelled
##ylvanian
demonstrate
シ
panhandle
innovative
vitamins
noticeable
##warts
colombo
pyth
history
pile
destined
##isive
##otypes
jur
sword
viking
confirmed
coaches
head
usaaf
proper
cooked
##als
dol
superhero
endow
##kill
weaponry
##ze
姚
cancellara
prosper
complaints
##reck
##asian
cav
condensed
##hark
と
inside
neighbors
heik
styled
crossing
hull
rainforest
rhine
culminating
buddy
eleph
nicar
##sc
lifts
graphite
biochem
catches
meuse
faith
impass
fishermen
suicide
者
gem
ontario
netherlands
negotiated
roch
caf
adapted
westerly
works
reviewer
terminals
##uity
wrestlers
heard
21
sparrow
##kov
triangle
reper
azalea
bird
phar
・
communist
lawrence
produces
##ep
veronica
##rolled
needing
##zzi
conway
monica
revolver
presenter
crews
factors
塊
eta
functional
lum
##nage
comique
##inary
explores
liberty
casp
bou
armstrong
catalan
rude
flora
incred
stops
##elina
reigning
domination
im
##writers
sophistic
laund
teenager
redemption
bid
omar
titanium
member
recons
##bor
deput
control
plateau
caligari
##can
sheamus
##fill
stable
##irc
##otto
eye
confer
coined
ƈ
ill
sinai
212
burrow
##estic
aq
amino
solve
comfortable
dere
7th
arcs
torr
##ree
mosley
reasons
lis
franks
imposing
##ptive
manipulated
play
detention
co2
kop
nonetheless
vocalizations
installations
knocks
##vleet
kuwa
莉
retreat
##enbach
lansing
women
variables
ト
fulfill
skept
robotic
electron
##ope
trou
prob
shootings
##uli
##otism
182
ц
purs
##у
sorts
prolong
##ร
sink
navy
perspect
ambass
skirt
byr
parent
reviewing
##ld
authors
ride
annoying
deficiency
ij
##omorphic
shame
bishop
barrel
##ainen
vessel
##ulation
##urnal
ivan
##arves
##educt
viewpoint
wo
reopen
drifted
refusing
ptole
yusuf
leaflets
dealings
clan
california
unorthodox
ƍ
gott
champion
newcom
surge
##alya
gull
navies
ag
##rach
armoured
armament
##オ
lass
crests
would
221
1756
bs
corinth
scarcely
judging
##iy
arcade
muslim
blended
##aird
recru
##aus
sed
items
mexican
scholars
##enty
##backs
##edes
termin
##icles
plenty
##lle
telescope
scient
homes
constantly
##hov
recovery
fans
sporadically
boundary
##н
quadruple
mendelssohn
execut
scored
helicopter
gel
weser
feminine
phylogenetic
##tained
tard
picard
isolated
formal
vacuum
##estone
grad
感
##32
refusal
dil
gran
##iffs
swept
sending
stand
##ishops
##ana
superson
reveals
rays
prohib
madagascar
##umps
colombian
baptism
##emma
##agan
select
oxygen
spring
##ickets
ov
happening
seph
associate
cents
pencil
openings
uefa
zor
mike
moors
monoc
pentagon
palestinian
norm
ran
drawings
holog
265
tuition
activated
illegitimate
funnels
dogg
descendant
inel
unpredict
contracted
genres
groundwater
##estation
##ع
snowy
wack
orchestral
garn
splend
##icient
hotsp
scotland
render
anita
gauge
templar
disturb
innings
importantly
##ected
encountering
withdrew
oswe
##bert
zng
##ennan
overlap
clums
abol
fort
##omet
sacr
156
corporations
pelvic
580
##hampton
dealing
md
won
illustrate
saves
leaning
flaw
warnings
af
locomot
##opers
##а
badly
filmed
musket
season
candle
ahl
nintend
yout
##ulator
childhood
volt
factories
jol
ok
settled
dickson
newark
sera
china
##ompan
explosives
1830s
contemporary
marriage
defendant
sina
decreases
##bull
elida
pepp
simulation
##oli
##erness
nico
sees
##ately
sem
respectively
fractured
cantata
marco
nutrients
tatiana
##sea
##tain
mouths
locked
alcoholism
reass
conclud
##stones
wind
experimentation
nasser
1962
nord
skating
northerly
##itution
histories
nune
blank
experiences
resent
sass
griev
##inson
##inka
avenger
diary
copan
bolsheviks
hub
reissued
rc
rhys
man
departments
hope
capabilities
##erve
babb
fuck
॥
sell
celestial
imagination
churchill
acet
surrounding
##ild
expr
pulmon
##ozuna
##oped
##yl
extends
monophy
contributions
subspecies
##arous
sier
dull
##app
##zh
jab
yog
entire
##iani
costly
litter
##ito
norwich
krusty
naked
ammun
company
skull
rem
relax
differ
dd
bottomley
manned
rounds
ツ
##ribe
plaster
estimated
photographers
easter
##vision
lines
atmosphere
##ork
##ensely
rainilai
spence
chestnut
tiny
##ms
surrounded
pens
##chers
voyages
##ョ
hooks
武
infamous
##ヒ
ranariddh
断
у
comedic
honeyeater
firstly
landings
arrog
marquette
ele
1921
forcing
moons
denoting
squeeze
witty
##ity
81
gutt
10
quest
instability
outpost
##zing
league
kiss
parks
wł
##eker
##legiate
indies
÷
setbacks
vision
marked
16th
##aves
twain
kalam
syll
si
release
crusade
insults
depression
1895
spirited
treatise
5000
thur
magu
##ers
fighters
cim
amusement
helped
nour
caul
dissem
stationed
context
southwestern
teammate
##ments
126
roberto
intens
surroundings
vest
phag
storyboard
admitted
functioning
05
symbolism
##ayev
namibia
arrang
eastward
flea
threw
##kow
inviting
dubai
##emic
circulating
monopol
geographically
abort
##mingham
##dan
transportation
##iti
useless
ष
detective
pav
pola
cutting
foli
eastwards
reproductive
sarah
superimposed
informs
##inement
龍
217
salvage
corvette
##elberg
lhasa
centur
aggreg
tinker
##omed
clusters
hill
##gets
jib
##co
disgust
bored
##keeper
selecting
disorder
inscriptions
phan
六
paine
##ama
tant
jonas
##port
bray
lipid
wilmington
brief
parano
beautifully
fluid
homestead
wb
hedgehog
substantial
finch
shackleton
aircraft
stony
persians
moreau
dc
sig
shears
##retti
##rol
tilt
forum
zinc
##uges
uniforms
##uins
cp
stray
delight
triggers
calcium
##iler
##ode
nept
wound
hare
loss
munster
##モ
quentin
##テ
fears
##itational
anarch
traced
authored
lan
cabbage
propelled
abn
ansel
dynamic
##ious
front
nasa
detonation
archit
faithful
attribution
class
wiggum
tum
##hir
nik
28
inacc
efficiency
##ccini
decree
nile
compatibility
##hears
cooper
##oub
luc
backstroke
delta
georget
##urr
##ist
footh
edda
invertebrates
##oise
disappro
clothed
handsome
##stand
visions
serge
331
duties
affiliation
background
sony
##ographed
##kets
synch
vist
heel
##act
04
ka
heritage
##ław
cours
##beat
output
palau
dual
properties
doses
sgt
235
sunshine
mos
unsuccessful
newton
obstruction
doz
##ager
expressway
molecular
liquid
hards
indianapolis
ܠ
41
hippocamp
rivals
dams
660
birth
asp
scav
mane
##ference
##oscop
tensions
patience
fung
bismarck
bony
dances
mif
talking
^
eart
canadian
##æ
fellow
leipzig
gag
183
##ancement
##enas
1870
abolition
nang
writ
lamps
byron
lancash
##bill
cobol
croft
##steen
fortune
hurried
##gm
session
winner
##ær
expressing
##put
cyclones
broader
leech
fixtures
rene
radiohead
dramat
fris
loner
detected
##ovych
delivered
terry
trails
karth
tandem
soaring
##lo
interst
outing
##flies
waves
canoe
celt
notified
licensing
israeli
focuses
distinguished
lodgings
calm
##zyn
yolk
##lyph
established
verse
veto
##aprio
feels
sutherland
sizable
##ater
##ዕ
byway
enhancing
##ilight
waffen
acting
##gress
展
1745
symbols
sold
unable
loading
transp
1828
barge
justin
formby
theta
##ainted
joseph
nurses
realising
climates
##aza
##atten
##atter
bolivia
emanuel
1904
advises
merits
somebody
lantern
χ
##inces
homolog
islanders
49
introduced
##aps
adulthood
encompasses
kne
cutler
chaplin
favre
##rard
gathered
awake
frontal
sie
##wer
##ita
spy
268
ionic
opera
##med
emory
gop
preaching
rates
moe
sticking
chel
congo
rivalries
executives
zerg
##orously
infants
hanson
contests
బ
foe
capitol
crafted
thanhouser
yale
##ollen
##dp
##augas
发
ovation
spector
ethn
loyalists
battlecruisers
ins
##buck
peasant
uncredited
iconic
##ollah
boston
affair
1879
mercer
overlooked
##tke
salt
lightweight
modelled
chant
##arre
intox
##afi
qur
酷
conc
prevents
firefly
nobuo
apocaly
##ᅳ
frontier
cloth
##echnic
appar
##cely
partnered
##le
##rated
cudi
biographies
##acking
gorbachev
prompted
micha
solo
##rif
genetics
imag
##ince
fillmore
##chlor
jig
persist
thompson
grot
dealer
seydlitz
electrified
##ulous
aj
比
last
##ivorous
##rage
prospects
en
050
temperate
##tershire
oberleutnant
fisheries
agriculture
end
cain
deserves
##ilians
զ
far
##zone
paid
looted
faint
vertical
ecstatic
deterior
recruiting
mag
frankenstein
galile
marxism
uem
diving
96
##icide
verb
synd
muirchertach
##etts
opportunities
##ican
build
stri
##birds
cele
renovation
discriminatory
hole
convert
dawn
chose
り
sagan
1834
rods
lin
innocence
##cap
kat
aberdeen
indians
##γ
hassett
##anish
tuscany
interchanges
ml
luch
##etion
remember
1920
sizes
ヒ
expatri
reproduced
sidney
shana
tentatively
spelling
intellig
critics
constantin
accumulated
##ianus
watts
wendy
rat
celebrity
191
堂
excav
leip
##itte
sided
##uil
achieved
aclu
'
ruiz
##imb
contrib
र
guadalcanal
annih
ː
ultravi
heroes
inundated
demonstrating
breathe
linking
speculates
ray
abbas
roche
model
disc
##ong
overd
paved
battered
konigs
community
angelo
outfield
##forward
##isher
internationally
breeds
##in
marino
hiking
reflective
patrons
humiliation
polk
cowboys
chemistry
##atorial
lip
##cile
mantled
loos
cockpit
##function
concord
raids
grants
##ikos
##trak
offended
interceptions
obsol
³
##erver
bernardino
脱
recaptured
estimates
##ب
trace
mortality
diverted
##ande
replay
isolation
respir
510
numerical
820
wealthiest
diocese
credibility
##yll
distracted
packed
joe
combine
clever
birch
supervis
amongst
burial
##sons
cycle
ᄆ
##hardt
##agi
##avo
##rik
albat
mural
##mentation
referenced
ban
ast
atari
disturbed
aristocratic
##etery
inaugurated
frankish
kitche
busiest
vicious
dair
scal
ford
redevelopment
hydrochlor
nac
peters
defend
denominations
transmission
bypassing
assum
quicker
00
stored
lyrical
70
thread
flotilla
##oppy
himal
nicolas
reaches
##afe
originally
pieces
drifting
drone
cottages
65
ich
colon
al
##key
##agus
gray
diesel
425
relev
##rak
exit
spreading
progression
##ous
synonym
flags
##ensively
lak
panned
##rog
##orio
benefit
periods
cows
lenses
mcdow
harald
nesting
farrell
amar
ნ
aunt
insert
swords
##plane
joy
combat
weed
shannon
amanita
kendrick
dismissed
##erged
superstar
salisbury
coca
bowie
##enue
##ー
melissa
biology
##leum
##ན
##icut
merchand
combinations
aggregate
##inals
##isable
crashed
different
remind
imagined
kilog
ɕ
kok
kong
margu
peach
1853
resort
vacant
afforded
##igned
4
feminist
flash
##field
##isan
##tical
##ipes
##ental
inh
keeping
##adier
personality
notwith
regroup
iceberg
##iving
##aville
金
german
turbulent
bottle
##keepers
cod
##fy
mercury
appointment
existing
scandals
pitching
than
kantakouzen
scandin
females
##oult
timet
breakers
davenport
dag
##onne
north
cit
griff
defeated
mca
##ad
midday
coaching
lungs
specially
fixture
incis
prominent
keyboard
obscured
hiv
##uni
dominance
##enko
pointed
parked
hungarian
damn
##ケ
##comes
floated
lod
comics
formations
192
abbots
2000
retention
glorious
manpower
##б
solved
explor
न
rouge
arkham
##apel
sophom
laurie
1790
##cats
inconsistent
chate
cruel
becky
economics
stress
226
disguised
heir
knights
wals
wot
id
northamptonshire
upwards
veter
pyl
##ཡ
bypass
affl
endings
ion
sest
erod
illusion
ι
mcgu
ign
尾
eighteen
component
focused
##entious
headlines
orbiting
cambridges
araf
strongly
##utory
harley
hertz
astrol
##aiman
defects
##denberry
##itic
sigurd
scenar
suff
tay
stere
builds
two
protector
qing
lillehammer
landfall
manager
##isitions
injected
wit
##osaurids
将
advised
waff
##udo
bulgar
proto
##sey
fence
##ologically
ignor
hydra
speeds
kilometres
as
flies
allusions
translating
mites
mig
runners
hammerstein
¡
motorized
apost
chastain
##զ
##resp
lambert
77
ghosts
portrayed
viz
governors
youth
lineup
iraq
disorders
紫
recognize
voc
baham
bonding
##hum
cooke
undert
pans
hardcore
##icular
landmarks
artists
125
fingers
##pressed
result
proceeded
quarterly
credible
these
infinity
people
radcliffe
buena
##ilated
awiil
condor
frome
laker
transaction
eff
##ф
finalized
maver
reported
gateway
liang
guereza
##am
chan
salford
rhyme
tiber
percussion
##x
ib
area
pharm
##ov
壽
东
waited
davidson
310
contained
##lis
lawsuit
##ado
campuses
cinquemani
depicted
crocodile
quincy
##hire
##gun
fell
62
wonder
bills
graphic
##aid
ہ
revolved
reynolds
offseason
sepinwall
f1
##orters
##istan
recorded
holiday
malawi
pursuing
##rio
rats
messenger
p2
sources
ginger
rift
mas
superintendent
greens
plotted
myers
overt
##ʊ
sturd
restarted
suffering
enroll
known
##bern
##ald
##ati
tai
disrepair
glaciers
southeastward
##ollow
##inium
262
sarajevo
##illing
wond
bridg
defens
enterpr
oppose
##eless
perman
##ap
chamberlain
ի
an
arguing
redund
ha
punch
gomułka
shakespearean
access
ruling
##lysis
##etcher
ail
gri
wins
ɯ
must
specim
chang
juniors
wille
happy
qualify
seap
dall
##gerald
unarmed
##mo
##iland
bash
##omes
节
occupancy
##kon
и
friendships
##est
addict
globes
mand
library
optimism
tree
##bel
commencement
dang
viaduct
666
leaders
njor
##cine
police
pse
##igated
oklahoma
dj
naples
scul
jessica
##llium
lateral
##cement
##eters
amund
assigns
readily
libr
wir
uncontrolled
dwarfs
bast
##ests
marr
substance
1894
sheds
##ross
channel
fare
vetoed
neumann
570
##andum
а
##omers
##ray
paint
##eding
provides
##umbled
saratoga
enig
##ilib
highlighted
irons
f
##ro
bras
jeop
early
captain
calculus
sweden
chapter
abolitionist
字
additionally
##berry
##lake
resource
outer
burma
kesha
##ʿ
coordin
frazier
attention
’
referencing
vend
##hin
##urous
##や
asian
pollin
lodging
goodman
pu
francisco
minimum
explicit
peps
restriction
speeches
##unction
slick
##undy
obscure
sou
revolutionary
kruger
dudley
##aram
wing
ч
cob
ro
interference
buk
##wic
stevenage
dick
claw
##ワ
batters
tipped
us
regularly
croc
conclude
range
stronghold
nora
jim
西
genome
triassic
adjustments
eragon
macle
wat
yards
depth
crimes
creed
269
##zt
milit
trapped
kurt
grossed
##60
palest
engraver
wildlife
showc
lure
kath
##oved
gu
defunct
echoed
skel
generates
provisional
##upac
##aux
prototype
screw
tuscan
bayon
⁄
behavioral
##ellers
legion
少
##yons
kills
microscopy
##ilation
pity
shared
hanover
supernova
gardening
##usc
installment
scen
feeder
rainbow
exposed
facil
##iban
climbs
##oyd
dur
neat
##ump
guess
comparative
badn
mayo
405
patterned
rides
undamaged
##icks
##な
dictated
customary
plantations
##rection
scholar
lore
281
##ش
polling
द
allowing
fm
stub
##ensen
train
1787
cgi
wrestled
##mes
youthful
laf
settler
halt
floral
threaten
仮
ambient
cold
transfers
bick
wr
wore
heter
mackay
劳
##ussia
##dream
benedict
##cat
addressed
allows
executions
holocaust
##タ
libby
collaborated
einsteinium
judgment
bernard
sebast
##ecker
questionable
##aith
favourable
procure
##ais
##esti
չ
##rodite
aster
frigate
pry
##aryl
seiz
yor
aids
targets
orph
1937
##usters
obvious
##esta
neighbor
williams
decades
ceo
atlantis
##fully
individ
airstri
##gians
chamber
beque
invol
screened
道
lithium
peaceful
##ystem
subspec
##ippi
insufficient
horr
marge
inexperienced
c5
loving
##echt
##oufl
wisconsin
watchmen
vesp
##isław
innermost
wording
ey
##bach
marceline
antib
originate
##bus
aus
worrying
##uters
##kowski
mbar
17
entertainment
belarus
recreate
hectares
completing
source
offers
disasters
318
##uate
splendid
adequ
kumar
##ino
##oscope
79
zones
##hens
bump
assign
tamil
general
##ches
##elin
keepers
mph
reprim
charizard
papa
responding
poverty
##ails
inspired
lowered
##up
felt
##oughs
1840
hess
suffered
##rika
wik
ranarid
psoriasis
explo
towel
##nut
ultra
resid
imprisoned
meters
attempt
stroud
##osphere
jesuit
feuds
crush
unlikely
wellington
##ders
hints
arises
##uram
permanent
emphasis
spikes
##eling
delegate
cister
##illus
recipients
repel
##atop
bowls
##oud
interact
trams
gillian
addresses
pumps
adher
searched
ernie
kut
garde
huang
##io
hollywood
advocates
gust
angered
techniques
andric
##urier
torchwood
committed
narr
configuration
wid
enriched
sind
hunters
熊
boul
murd
variously
loomis
##other
around
confess
xhinovci
##ogues
consideration
shuffle
reichs
macleod
blades
fantastic
##itively
urdu
##nis
nf
protectorate
explain
cane
potter
carbon
however
##inger
heights
municipality
柔
##ე
joining
##leep
determine
prussian
presidential
retired
emu
weaker
constituencies
palae
hooper
beet
gorb
doomed
shipyard
journal
spencer
问
monday
ab
erad
##electric
out
coon
县
##rans
rael
gimm
employers
imported
##ス
willamette
rein
remorse
wand
transgender
柱
##oa
##othy
新
elevated
##ying
##մ
aggr
##ol
hindered
##writing
##anto
rims
happiness
redeveloped
nansen
##inese
barbec
strategically
ax
anger
##isco
crow
tufts
primaries
eis
inaugur
distract
unknown
miocene
occasional
iw
realises
populous
jeremiah
posters
##geois
yankovic
nikol
##ometer
1927
yok
martha
305
penned
finally
##by
beforehand
sunderland
det
ramon
tempt
kis
serbia
ict
##heasterly
hannibal
robey
reyes
pas
ೕ
bound
2009
mpg
1845
ganes
##ship
spot
yoga
→
fatale
accompaniment
##thman
culp
##atoo
yue
1869
baton
religions
mang
ships
personally
saturday
vibrant
etty
##17
resonance
earp
heirs
physical
symphonic
unfortunately
counterpart
rour
##fin
pedro
outside
newer
speech
overwhel
##endous
aggressively
mukherjee
container
phi
中
bleeding
vib
promoting
##uct
wilco
##ulli
afr
thanhous
aren
##ash
sturdee
kiedis
##wy
##ka
cressida
##τ
##ر
##graded
sorcer
pads
##thood
niagara
explains
##opon
parts
##istle
actors
zhu
##tar
declining
intrig
##station
华
##zen
##ds
satirical
enterprise
uninh
##ica
tellur
⅔
rijeka
##kal
isle
##ς
unveiled
baths
rican
solic
hid
teddy
attic
continues
multipl
belgium
junctions
馬
citizens
##ason
seemingly
lur
##abul
immensely
homage
performers
currently
##fman
rich
crowned
trent
receptor
easily
motiv
brut
eso
##rain
seniors
dimorph
backlash
titus
42
##owed
rochester
bests
register
##mind
captained
evident
李
unfamiliar
retrie
jedi
goddess
##odon
##idity
[...]
