{
  "version": "1.0",
  "truncation": {
    "direction": "Right",
    "max_length": 128,
    "strategy": "LongestFirst",
    "stride": 0
  },
  "padding": null,
  "added_tokens": [
    {
      "id": 0,
      "content": "[PAD]",
      "single_word": false,
      "lstrip": false,
      "rstrip": false,
      "normalized": false,
      "special": true
    },
    {
      "id": 1,
      "content": "[UNK]",
      "single_word": false,
      "lstrip": false,
      "rstrip": false,
      "normalized": false,
      "special": true
    },
    {
      "id": 2,
      "content": "[CLS]",
      "single_word": false,
      "lstrip": false,
      "rstrip": false,
      "normalized": false,
      "special": true
    },
    {
      "id": 3,
      "content": "[SEP]",
      "single_word": false,
      "lstrip": false,
      "rstrip": false,
      "normalized": false,
      "special": true
    },
    {
      "id": 4,
      "content": "[MASK]",
      "single_word": false,
      "lstrip": false,
      "rstrip": false,
      "normalized": false,
      "special": true
    }
  ],
  "normalizer": {
    "type": "BertNormalizer",
    "clean_text": true,
    "handle_chinese_chars": true,
    "strip_accents": null,
    "lowercase": false
  },
  "pre_tokenizer": {
    "type": "BertPreTokenizer"
  },
  "post_processor": {
    "type": "TemplateProcessing",
    "single": [
      {
        "SpecialToken": {
          "id": "[CLS]",
          "type_id": 0
        }
      },
      {
        "Sequence": {
          "id": "A",
          "type_id": 0
        }
      },
      {
        "SpecialToken": {
          "id": "[SEP]",
          "type_id": 0
        }
      }
    ],
    "pair": [
      {
        "SpecialToken": {
          "id": "[CLS]",
          "type_id": 0
        }
      },
      {
        "Sequence": {
          "id": "A",
          "type_id": 0
        }
      },
      {
        "SpecialToken": {
          "id": "[SEP]",
          "type_id": 0
        }
      },
      {
        "Sequence": {
          "id": "B",
          "type_id": 1
        }
      },
      {
        "SpecialToken": {
          "id": "[SEP]",
          "type_id": 1
        }
      }
    ],
    "special_tokens": {
      "[CLS]": {
        "id": "[CLS]",
        "ids": [
          2
        ],
        "tokens": [
          "[CLS]"
        ]
      },
      "[SEP]": {
        "id": "[SEP]",
        "ids": [
          3
        ],
        "tokens": [
          "[SEP]"
        ]
      }
    }
  },
  "decoder": {
    "type": "WordPiece",
    "prefix": "##",
    "cleanup": true
  },
  "model": {
    "type": "WordPiece",
    "unk_token": "[UNK]",
    "continuing_subword_prefix": "##",
    "max_input_chars_per_word": 100,
    "vocab": {
      "[PAD]": 0,
      "[UNK]": 1,
      "[CLS]": 2,
      "[SEP]": 3,
      "[MASK]": 4,
      "!": 5,
      "\"": 6,
      "#": 7,
      "$": 8,
      "%": 9,
      "&": 10,
      "'": 11,
      "(": 12,
      ")": 13,
      "*": 14,
      "+": 15,
      ",": 16,
      "-": 17,
      ".": 18,
      "/": 19,
      "0": 20,
      "1": 21,
      "2": 22,
      "3": 23,
      "4": 24,
      "5": 25,
      "6": 26,
      "7": 27,
      "8": 28,
      "9": 29,
      ":": 30,
      ";": 31,
      "<": 32,
      "=": 33,
      ">": 34,
      "?": 35,
      "@": 36,
      "[": 37,
      "\\": 38,
      "]": 39,
      "^": 40,
      "_": 41,
      "`": 42,
      "a": 43,
      "b": 44,
      "c": 45,
      "d": 46,
      "e": 47,
      "f": 48,
      "g": 49,
      "h": 50,
      "i": 51,
      "j": 52,
      "k": 53,
      "l": 54,
      "m": 55,
      "n": 56,
      "o": 57,
      "p": 58,
      "q": 59,
      "r": 60,
      "s": 61,
      "t": 62,
      "u": 63,
      "v": 64,
      "w": 65,
      "x": 66,
      "y": 67,
      "z": 68,
      "{": 69,
      "|": 70,
      "}": 71,
      "~": 72,
      "¡": 73,
      "¢": 74,
      "£": 75,
      "¥": 76,
      "§": 77,
      "«": 78,
      "®": 79,
      "°": 80,
      "±": 81,
      "²": 82,
      "³": 83,
      "µ": 84,
      "¶": 85,
      "·": 86,
      "¹": 87,
      "º": 88,
      "»": 89,
      "¼": 90,
      "½": 91,
      "¾": 92,
      "¿": 93,
      "×": 94,
      "ß": 95,
      "æ": 96,
      "ð": 97,
      "÷": 98,
      "ø": 99,
      "þ": 100,
      "đ": 101,
      "ħ": 102,
      "ı": 103,
      "ł": 104,
      "ŋ": 105,
      "œ": 106,
      "ƈ": 107,
      "ƍ": 108,
      "ƒ": 109,
      "ƥ": 110,
      "ƭ": 111,
      "ǀ": 112,
      "ǁ": 113,
      "ǃ": 114,
      "ɐ": 115,
      "ɑ": 116,
      "ɒ": 117,
      "ɔ": 118,
      "ɕ": 119,
      "ə": 120,
      "ɛ": 121,
      "ɟ": 122,
      "ɠ": 123,
      "ɡ": 124,
      "ɣ": 125,
      "ɤ": 126,
      "ɨ": 127,
      "ɪ": 128,
      "ɫ": 129,
      "ɬ": 130,
      "ɯ": 131,
      "ɲ": 132,
      "ɺ": 133,
      "ɾ": 134,
      "ʀ": 135,
      "ʁ": 136,
      "ʂ": 137,
      "ʃ": 138,
      "ʄ": 139,
      "ʇ": 140,
      "ʈ": 141,
      "ʊ": 142,
      "ʋ": 143,
      "ʌ": 144,
      "ʒ": 145,
      "ʔ": 146,
      "ʖ": 147,
      "ʗ": 148,
      "ʠ": 149,
      "ʰ": 150,
      "ʲ": 151,
      "ʷ": 152,
      "ʻ": 153,
      "ʾ": 154,
      "ʿ": 155,
      "ˈ": 156,
      "ˌ": 157,
      "ː": 158,
      "ˠ": 159,
      "α": 160,
      "β": 161,
      "γ": 162,
      "δ": 163,
      "ε": 164,
      "ζ": 165,
      "η": 166,
      "θ": 167,
      "ι": 168,
      "κ": 169,
      "λ": 170,
      "μ": 171,
      "ν": 172,
      "ξ": 173,
      "ο": 174,
      "π": 175,
      "ρ": 176,
      "ς": 177,
      "σ": 178,
      "τ": 179,
      "υ": 180,
      "φ": 181,
      "χ": 182,
      "ψ": 183,
      "ω": 184,
      "ϕ": 185,
      "а": 186,
      "б": 187,
      "в": 188,
      "г": 189,
      "д": 190,
      "е": 191,
      "ж": 192,
      "з": 193,
      "и": 194,
      "к": 195,
      "л": 196,
      "м": 197,
      "н": 198,
      "о": 199,
      "п": 200,
      "р": 201,
      "с": 202,
      "т": 203,
      "у": 204,
      "ф": 205,
      "х": 206,
      "ц": 207,
      "ч": 208,
      "ш": 209,
      "щ": 210,
      "ъ": 211,
      "ы": 212,
      "ь": 213,
      "э": 214,
      "я": 215,
      "і": 216,
      "ј": 217,
      "њ": 218,
      "ћ": 219,
      "ү": 220,
      "ө": 221,
      "ա": 222,
      "բ": 223,
      "գ": 224,
      "ե": 225,
      "զ": 226,
      "թ": 227,
      "ի": 228,
      "խ": 229,
      "կ": 230,
      "հ": 231,
      "մ": 232,
      "յ": 233,
      "ն": 234,
      "շ": 235,
      "ո": 236,
      "չ": 237,
      "պ": 238,
      "ս": 239,
      "վ": 240,
      "տ": 241,
      "ր": 242,
      "ց": 243,
      "ւ": 244,
      "ք": 245,
      "א": 246,
      "ב": 247,
      "ג": 248,
      "ד": 249,
      "ה": 250,
      "ו": 251,
      "ח": 252,
      "י": 253,
      "כ": 254,
      "ל": 255,
      "ם": 256,
      "מ": 257,
      "נ": 258,
      "ס": 259,
      "ע": 260,
      "פ": 261,
      "צ": 262,
      "ק": 263,
      "ר": 264,
      "ש": 265,
      "ת": 266,
      "ء": 267,
      "ا": 268,
      "ب": 269,
      "ة": 270,
      "ت": 271,
      "ج": 272,
      "ح": 273,
      "خ": 274,
      "د": 275,
      "ر": 276,
      "ز": 277,
      "س": 278,
      "ش": 279,
      "ص": 280,
      "ع": 281,
      "غ": 282,
      "ق": 283,
      "ك": 284,
      "ل": 285,
      "م": 286,
      "ن": 287,
      "ه": 288,
      "و": 289,
      "ي": 290,
      "ہ": 291,
      "ی": 292,
      "ܐ": 293,
      "ܒ": 294,
      "ܙ": 295,
      "ܝ": 296,
      "ܠ": 297,
      "ܥ": 298,
      "ः": 299,
      "अ": 300,
      "इ": 301,
      "ऋ": 302,
      "क": 303,
      "ख": 304,
      "ग": 305,
      "च": 306,
      "ज": 307,
      "ट": 308,
      "ड": 309,
      "त": 310,
      "थ": 311,
      "द": 312,
      "ध": 313,
      "न": 314,
      "प": 315,
      "ब": 316,
      "भ": 317,
      "म": 318,
      "य": 319,
      "र": 320,
      "ल": 321,
      "व": 322,
      "श": 323,
      "ष": 324,
      "स": 325,
      "ह": 326,
      "ऽ": 327,
      "ा": 328,
      "ि": 329,
      "ी": 330,
      "ो": 331,
      "ॐ": 332,
      "।": 333,
      "॥": 334,
      "१": 335,
      "३": 336,
      "ক": 337,
      "ত": 338,
      "ল": 339,
      "ষ": 340,
      "া": 341,
      "ী": 342,
      "ে": 343,
      "ਅ": 344,
      "ਲ": 345,
      "ਹ": 346,
      "ਾ": 347,
      "ன": 348,
      "ం": 349,
      "ఖ": 350,
      "డ": 351,
      "ద": 352,
      "న": 353,
      "బ": 354,
      "ర": 355,
      "ల": 356,
      "ు": 357,
      "ಡ": 358,
      "ಬ": 359,
      "ಾ": 360,
      "ೕ": 361,
      "ก": 362,
      "ข": 363,
      "ง": 364,
      "ช": 365,
      "ด": 366,
      "ต": 367,
      "ท": 368,
      "น": 369,
      "บ": 370,
      "พ": 371,
      "ภ": 372,
      "ม": 373,
      "ย": 374,
      "ร": 375,
      "ล": 376,
      "ว": 377,
      "ส": 378,
      "ห": 379,
      "อ": 380,
      "ะ": 381,
      "า": 382,
      "เ": 383,
      "་": 384,
      "ག": 385,
      "ན": 386,
      "བ": 387,
      "མ": 388,
      "ཡ": 389,
      "ར": 390,
      "ས": 391,
      "ა": 392,
      "ე": 393,
      "ვ": 394,
      "თ": 395,
      "ლ": 396,
      "მ": 397,
      "ნ": 398,
      "უ": 399,
      "ქ": 400,
      "ჺ": 401,
      "ᄀ": 402,
      "ᄂ": 403,
      "ᄅ": 404,
      "ᄆ": 405,
      "ᄇ": 406,
      "ᄉ": 407,
      "ᄋ": 408,
      "ᄌ": 409,
      "ᄎ": 410,
      "ᄏ": 411,
      "ᄐ": 412,
      "ᄒ": 413,
      "ᅡ": 414,
      "ᅢ": 415,
      "ᅣ": 416,
      "ᅥ": 417,
      "ᅩ": 418,
      "ᅭ": 419,
      "ᅮ": 420,
      "ᅯ": 421,
      "ᅳ": 422,
      "ᅵ": 423,
      "ᆨ": 424,
      "ᆫ": 425,
      "ᆯ": 426,
      "ᆰ": 427,
      "ᆷ": 428,
      "ᆼ": 429,
      "ር": 430,
      "ስ": 431,
      "ቆ": 432,
      "ቈ": 433,
      "ብ": 434,
      "ቲ": 435,
      "ታ": 436,
      "ን": 437,
      "አ": 438,
      "ዕ": 439,
      "ያ": 440,
      "ᵻ": 441,
      "ᵿ": 442,
      "‐": 443,
      "‑": 444,
      "‒": 445,
      "–": 446,
      "—": 447,
      "―": 448,
      "‖": 449,
      "‘": 450,
      "’": 451,
      "“": 452,
      "”": 453,
      "„": 454,
      "†": 455,
      "‡": 456,
      "•": 457,
      "…": 458,
      "‰": 459,
      "′": 460,
      "″": 461,
      "⁄": 462,
      "⁺": 463,
      "₂": 464,
      "₣": 465,
      "₤": 466,
      "₨": 467,
      "₩": 468,
      "€": 469,
      "₱": 470,
      "₹": 471,
      "ℓ": 472,
      "№": 473,
      "™": 474,
      "⅓": 475,
      "⅔": 476,
      "⅛": 477,
      "⅜": 478,
      "←": 479,
      "↑": 480,
      "→": 481,
      "↓": 482,
      "⇒": 483,
      "∆": 484,
      "∈": 485,
      "∑": 486,
      "−": 487,
      "√": 488,
      "∞": 489,
      "∴": 490,
      "≈": 491,
      "≡": 492,
      "≤": 493,
      "≥": 494,
      "☉": 495,
      "♄": 496,
      "♦": 497,
      "♭": 498,
      "♯": 499,
      "、": 500,
      "〈": 501,
      "〉": 502,
      "「": 503,
      "」": 504,
      "い": 505,
      "う": 506,
      "お": 507,
      "か": 508,
      "き": 509,
      "く": 510,
      "け": 511,
      "さ": 512,
      "し": 513,
      "せ": 514,
      "た": 515,
      "ち": 516,
      "つ": 517,
      "て": 518,
      "と": 519,
      "な": 520,
      "に": 521,
      "の": 522,
      "は": 523,
      "ひ": 524,
      "へ": 525,
      "ま": 526,
      "み": 527,
      "も": 528,
      "や": 529,
      "ゆ": 530,
      "ょ": 531,
      "よ": 532,
      "ら": 533,
      "り": 534,
      "を": 535,
      "ん": 536,
      "ァ": 537,
      "ア": 538,
      "ィ": 539,
      "イ": 540,
      "ウ": 541,
      "ェ": 542,
      "エ": 543,
      "ォ": 544,
      "オ": 545,
      "カ": 546,
      "キ": 547,
      "ク": 548,
      "ケ": 549,
      "コ": 550,
      "サ": 551,
      "シ": 552,
      "ス": 553,
      "セ": 554,
      "ソ": 555,
      "タ": 556,
      "チ": 557,
      "ッ": 558,
      "ツ": 559,
      "テ": 560,
      "ト": 561,
      "ナ": 562,
      "ニ": 563,
      "ネ": 564,
      "ノ": 565,
      "ハ": 566,
      "ヒ": 567,
      "フ": 568,
      "ヘ": 569,
      "ホ": 570,
      "マ": 571,
      "ミ": 572,
      "ム": 573,
      "メ": 574,
      "モ": 575,
      "ャ": 576,
      "ヤ": 577,
      "ュ": 578,
      "ユ": 579,
      "ョ": 580,
      "ラ": 581,
      "リ": 582,
      "ル": 583,
      "レ": 584,
      "ロ": 585,
      "ワ": 586,
      "ン": 587,
      "・": 588,
      "ー": 589,
      "一": 590,
      "三": 591,
      "上": 592,
      "下": 593,
      "不": 594,
      "且": 595,
      "世": 596,
      "东": 597,
      "両": 598,
      "个": 599,
      "中": 600,
      "丸": 601,
      "为": 602,
      "主": 603,
      "之": 604,
      "乙": 605,
      "九": 606,
      "乱": 607,
      "予": 608,
      "争": 609,
      "事": 610,
      "五": 611,
      "亚": 612,
      "亜": 613,
      "京": 614,
      "人": 615,
      "仪": 616,
      "仮": 617,
      "件": 618,
      "伊": 619,
      "会": 620,
      "伝": 621,
      "作": 622,
      "侗": 623,
      "侠": 624,
      "侬": 625,
      "信": 626,
      "俳": 627,
      "候": 628,
      "備": 629,
      "僕": 630,
      "光": 631,
      "六": 632,
      "共": 633,
      "关": 634,
      "其": 635,
      "内": 636,
      "写": 637,
      "军": 638,
      "出": 639,
      "刘": 640,
      "利": 641,
      "到": 642,
      "剛": 643,
      "剣": 644,
      "剧": 645,
      "劃": 646,
      "劉": 647,
      "动": 648,
      "劳": 649,
      "勇": 650,
      "勝": 651,
      "区": 652,
      "區": 653,
      "千": 654,
      "半": 655,
      "华": 656,
      "協": 657,
      "南": 658,
      "卦": 659,
      "厚": 660,
      "原": 661,
      "厩": 662,
      "县": 663,
      "双": 664,
      "发": 665,
      "叔": 666,
      "取": 667,
      "受": 668,
      "召": 669,
      "可": 670,
      "台": 671,
      "叶": 672,
      "号": 673,
      "名": 674,
      "周": 675,
      "命": 676,
      "和": 677,
      "咲": 678,
      "品": 679,
      "响": 680,
      "唄": 681,
      "喋": 682,
      "喚": 683,
      "喝": 684,
      "四": 685,
      "回": 686,
      "国": 687,
      "國": 688,
      "在": 689,
      "地": 690,
      "坂": 691,
      "堂": 692,
      "堤": 693,
      "場": 694,
      "塊": 695,
      "填": 696,
      "增": 697,
      "壁": 698,
      "壬": 699,
      "声": 700,
      "壳": 701,
      "壽": 702,
      "変": 703,
      "外": 704,
      "大": 705,
      "天": 706,
      "奇": 707,
      "奈": 708,
      "奎": 709,
      "女": 710,
      "好": 711,
      "妙": 712,
      "姚": 713,
      "姫": 714,
      "子": 715,
      "字": 716,
      "学": 717,
      "孫": 718,
      "宋": 719,
      "宗": 720,
      "定": 721,
      "宝": 722,
      "宿": 723,
      "寶": 724,
      "对": 725,
      "寿": 726,
      "将": 727,
      "小": 728,
      "少": 729,
      "尾": 730,
      "展": 731,
      "市": 732,
      "帕": 733,
      "師": 734,
      "幕": 735,
      "幻": 736,
      "庄": 737,
      "康": 738,
      "廻": 739,
      "式": 740,
      "弓": 741,
      "弘": 742,
      "形": 743,
      "彦": 744,
      "彩": 745,
      "役": 746,
      "徳": 747,
      "忠": 748,
      "性": 749,
      "情": 750,
      "想": 751,
      "愛": 752,
      "感": 753,
      "懷": 754,
      "戎": 755,
      "我": 756,
      "战": 757,
      "戦": 758,
      "戰": 759,
      "房": 760,
      "所": 761,
      "打": 762,
      "扶": 763,
      "承": 764,
      "指": 765,
      "換": 766,
      "攝": 767,
      "放": 768,
      "政": 769,
      "教": 770,
      "散": 771,
      "断": 772,
      "新": 773,
      "方": 774,
      "旅": 775,
      "日": 776,
      "昌": 777,
      "明": 778,
      "星": 779,
      "時": 780,
      "晒": 781,
      "智": 782,
      "曲": 783,
      "更": 784,
      "書": 785,
      "會": 786,
      "月": 787,
      "朝": 788,
      "末": 789,
      "本": 790,
      "朱": 791,
      "杂": 792,
      "李": 793,
      "東": 794,
      "柔": 795,
      "柚": 796,
      "柱": 797,
      "桜": 798,
      "楽": 799,
      "様": 800,
      "橘": 801,
      "次": 802,
      "正": 803,
      "武": 804,
      "歳": 805,
      "残": 806,
      "殿": 807,
      "每": 808,
      "比": 809,
      "民": 810,
      "气": 811,
      "水": 812,
      "江": 813,
      "河": 814,
      "治": 815,
      "泉": 816,
      "法": 817,
      "津": 818,
      "派": 819,
      "海": 820,
      "涼": 821,
      "清": 822,
      "湖": 823,
      "源": 824,
      "灣": 825,
      "火": 826,
      "烟": 827,
      "無": 828,
      "然": 829,
      "照": 830,
      "煮": 831,
      "熊": 832,
      "熱": 833,
      "父": 834,
      "物": 835,
      "狐": 836,
      "狼": 837,
      "獣": 838,
      "王": 839,
      "生": 840,
      "用": 841,
      "田": 842,
      "由": 843,
      "男": 844,
      "町": 845,
      "界": 846,
      "番": 847,
      "登": 848,
      "白": 849,
      "的": 850,
      "皇": 851,
      "盟": 852,
      "直": 853,
      "真": 854,
      "眼": 855,
      "矢": 856,
      "知": 857,
      "砂": 858,
      "礁": 859,
      "社": 860,
      "祈": 861,
      "神": 862,
      "禁": 863,
      "福": 864,
      "禰": 865,
      "程": 866,
      "積": 867,
      "空": 868,
      "立": 869,
      "童": 870,
      "端": 871,
      "第": 872,
      "節": 873,
      "籌": 874,
      "精": 875,
      "紅": 876,
      "素": 877,
      "紫": 878,
      "細": 879,
      "紹": 880,
      "絵": 881,
      "經": 882,
      "編": 883,
      "细": 884,
      "绍": 885,
      "维": 886,
      "羽": 887,
      "翼": 888,
      "老": 889,
      "者": 890,
      "耕": 891,
      "耳": 892,
      "耿": 893,
      "聖": 894,
      "聞": 895,
      "肩": 896,
      "胠": 897,
      "脱": 898,
      "自": 899,
      "良": 900,
      "艺": 901,
      "节": 902,
      "芒": 903,
      "花": 904,
      "芽": 905,
      "茶": 906,
      "草": 907,
      "莉": 908,
      "蓮": 909,
      "薛": 910,
      "藤": 911,
      "藩": 912,
      "蛇": 913,
      "蝉": 914,
      "血": 915,
      "術": 916,
      "街": 917,
      "表": 918,
      "裏": 919,
      "襄": 920,
      "西": 921,
      "観": 922,
      "解": 923,
      "計": 924,
      "詠": 925,
      "話": 926,
      "誓": 927,
      "語": 928,
      "説": 929,
      "読": 930,
      "調": 931,
      "議": 932,
      "课": 933,
      "谷": 934,
      "賞": 935,
      "賦": 936,
      "質": 937,
      "贵": 938,
      "贺": 939,
      "赤": 940,
      "跡": 941,
      "路": 942,
      "身": 943,
      "転": 944,
      "輔": 945,
      "輪": 946,
      "述": 947,
      "通": 948,
      "運": 949,
      "道": 950,
      "部": 951,
      "酷": 952,
      "野": 953,
      "金": 954,
      "鉄": 955,
      "銀": 956,
      "長": 957,
      "长": 958,
      "門": 959,
      "閏": 960,
      "間": 961,
      "関": 962,
      "闘": 963,
      "门": 964,
      "问": 965,
      "降": 966,
      "限": 967,
      "雄": 968,
      "集": 969,
      "雙": 970,
      "霆": 971,
      "靈": 972,
      "青": 973,
      "非": 974,
      "面": 975,
      "韓": 976,
      "韦": 977,
      "題": 978,
      "風": 979,
      "香": 980,
      "馬": 981,
      "马": 982,
      "骸": 983,
      "高": 984,
      "鬼": 985,
      "魂": 986,
      "魔": 987,
      "鵡": 988,
      "麻": 989,
      "黄": 990,
      "黒": 991,
      "鼎": 992,
      "龍": 993,
      "ﬁ": 994,
      "ﮮ": 995,
      "ﻋ": 996,
      "！": 997,
      "，": 998,
      "６": 999,
      "：": 1000,
      "～": 1001,
      "𒀯": 1002,
      "𒀳": 1003,
      "𝕡": 1004,
      "##l": 1005,
      "##e": 1006,
      "##g": 1007,
      "##a": 1008,
      "##i": 1009,
      "##s": 1010,
      "##d": 1011,
      "##n": 1012,
      "##r": 1013,
      "##t": 1014,
      "##k": 1015,
      "##c": 1016,
      "##h": 1017,
      "##o": 1018,
      "##u": 1019,
      "##v": 1020,
      "##m": 1021,
      "##w": 1022,
      "##f": 1023,
      "##b": 1024,
      "##y": 1025,
      "##p": 1026,
      "##q": 1027,
      "##л": 1028,
      "##а": 1029,
      "##д": 1030,
      "##ł": 1031,
      "##j": 1032,
      "##0": 1033,
      "##8": 1034,
      "##4": 1035,
      "##1": 1036,
      "##3": 1037,
      "##9": 1038,
      "##2": 1039,
      "##5": 1040,
      "##x": 1041,
      "##ม": 1042,
      "##อ": 1043,
      "##น": 1044,
      "##ท": 1045,
      "##ง": 1046,
      "##z": 1047,
      "##ェ": 1048,
      "##イ": 1049,
      "##エ": 1050,
      "##ア": 1051,
      "##ग": 1052,
      "##न": 1053,
      "##ー": 1054,
      "##ウ": 1055,
      "##ル": 1056,
      "##ス": 1057,
      "##ハ": 1058,
      "##ヒ": 1059,
      "##ロ": 1060,
      "##ν": 1061,
      "##ω": 1062,
      "##σ": 1063,
      "##ι": 1064,
      "##ς": 1065,
      "##6": 1066,
      "##7": 1067,
      "##ɪ": 1068,
      "##θ": 1069,
      "##ɒ": 1070,
      "##æ": 1071,
      "##ə": 1072,
      "##ε": 1073,
      "##ο": 1074,
      "##ᅥ": 1075,
      "##ᆫ": 1076,
      "##ᄀ": 1077,
      "##ᅮ": 1078,
      "##ᆨ": 1079,
      "##ि": 1080,
      "##त": 1081,
      "##ा": 1082,
      "##ः": 1083,
      "##о": 1084,
      "##ਲ": 1085,
      "##ਾ": 1086,
      "##ਹ": 1087,
      "##ɛ": 1088,
      "##ʁ": 1089,
      "##с": 1090,
      "##к": 1091,
      "##в": 1092,
      "##у": 1093,
      "##ø": 1094,
      "##ト": 1095,
      "##タ": 1096,
      "##λ": 1097,
      "##ρ": 1098,
      "##ན": 1099,
      "##མ": 1100,
      "##κ": 1101,
      "##δ": 1102,
      "##α": 1103,
      "##τ": 1104,
      "##υ": 1105,
      "##ل": 1106,
      "##ق": 1107,
      "##ن": 1108,
      "##ي": 1109,
      "##ر": 1110,
      "##ة": 1111,
      "##ɔ": 1112,
      "##ッ": 1113,
      "##ク": 1114,
      "##マ": 1115,
      "##ン": 1116,
      "##đ": 1117,
      "##ち": 1118,
      "##ˈ": 1119,
      "##द": 1120,
      "##ո": 1121,
      "##ն": 1122,
      "##ɐ": 1123,
      "##ʲ": 1124,
      "##ː": 1125,
      "##ı": 1126,
      "##ɨ": 1127,
      "##π": 1128,
      "##շ": 1129,
      "##μ": 1130,
      "##ð": 1131,
      "##ʻ": 1132,
      "##ա": 1133,
      "##ր": 1134,
      "##գ": 1135,
      "##ս": 1136,
      "##յ": 1137,
      "##ƒ": 1138,
      "##י": 1139,
      "##נ": 1140,
      "##א": 1141,
      "##ק": 1142,
      "##ו": 1143,
      "##ס": 1144,
      "##и": 1145,
      "##н": 1146,
      "##р": 1147,
      "##т": 1148,
      "##ш": 1149,
      "##ћ": 1150,
      "##е": 1151,
      "##ァ": 1152,
      "##レ": 1153,
      "##ォ": 1154,
      "##フ": 1155,
      "##г": 1156,
      "##м": 1157,
      "##β": 1158,
      "##я": 1159,
      "##र": 1160,
      "##ʊ": 1161,
      "##प": 1162,
      "##ე": 1163,
      "##ლ": 1164,
      "##უ": 1165,
      "##ა": 1166,
      "##म": 1167,
      "##ह": 1168,
      "##カ": 1169,
      "##ツ": 1170,
      "##ʿ": 1171,
      "##ß": 1172,
      "##ь": 1173,
      "##þ": 1174,
      "##œ": 1175,
      "##ɡ": 1176,
      "##و": 1177,
      "##ф": 1178,
      "##リ": 1179,
      "##บ": 1180,
      "##η": 1181,
      "##ᅡ": 1182,
      "##ᄅ": 1183,
      "##ᅵ": 1184,
      "##ᄉ": 1185,
      "##χ": 1186,
      "##γ": 1187,
      "##ऽ": 1188,
      "##х": 1189,
      "##ュ": 1190,
      "##ɾ": 1191,
      "##ˠ": 1192,
      "##ɑ": 1193,
      "##φ": 1194,
      "##ב": 1195,
      "##ᵻ": 1196,
      "##ˌ": 1197,
      "##ј": 1198,
      "##ц": 1199,
      "##ܒ": 1200,
      "##ܐ": 1201,
      "##ケ": 1202,
      "##モ": 1203,
      "##ʒ": 1204,
      "##ノ": 1205,
      "##ミ": 1206,
      "##の": 1207,
      "##キ": 1208,
      "##テ": 1209,
      "##ィ": 1210,
      "##ナ": 1211,
      "##պ": 1212,
      "##ւ": 1213,
      "##թ": 1214,
      "##サ": 1215,
      "##ɕ": 1216,
      "##ย": 1217,
      "##า": 1218,
      "##ว": 1219,
      "##ζ": 1220,
      "##ム": 1221,
      "##ܠ": 1222,
      "##ܝ": 1223,
      "##ᆰ": 1224,
      "##ᄋ": 1225,
      "##ᅳ": 1226,
      "##ᄂ": 1227,
      "##ᅩ": 1228,
      "##ᆯ": 1229,
      "##ो": 1230,
      "##ध": 1231,
      "##स": 1232,
      "##ʷ": 1233,
      "##ʂ": 1234,
      "##ا": 1235,
      "##ʰ": 1236,
      "##か": 1237,
      "##た": 1238,
      "##よ": 1239,
      "##り": 1240,
      "##ъ": 1241,
      "##ب": 1242,
      "##د": 1243,
      "##م": 1244,
      "##१": 1245,
      "##س": 1246,
      "##ع": 1247,
      "##ニ": 1248,
      "##く": 1249,
      "##み": 1250,
      "##া": 1251,
      "##ল": 1252,
      "##ী": 1253,
      "##ক": 1254,
      "##セ": 1255,
      "##б": 1256,
      "##き": 1257,
      "##ラ": 1258,
      "##თ": 1259,
      "##ስ": 1260,
      "##ታ": 1261,
      "##ን": 1262,
      "##ቲ": 1263,
      "##ు": 1264,
      "##ల": 1265,
      "##ర": 1266,
      "##シ": 1267,
      "##ユ": 1268,
      "##מ": 1269,
      "##ם": 1270,
      "##ャ": 1271,
      "##ዕ": 1272,
      "##ቆ": 1273,
      "##ብ": 1274,
      "##ɲ": 1275,
      "##ʃ": 1276,
      "##չ": 1277,
      "##ի": 1278,
      "##خ": 1279,
      "##เ": 1280,
      "##ร": 1281,
      "##ข": 1282,
      "##い": 1283,
      "##メ": 1284,
      "##ү": 1285,
      "##э": 1286,
      "##क": 1287,
      "##オ": 1288,
      "##は": 1289,
      "##な": 1290,
      "##し": 1291,
      "##ょ": 1292,
      "##ɯ": 1293,
      "##ɺ": 1294,
      "##غ": 1295,
      "##զ": 1296,
      "##ե": 1297,
      "##տ": 1298,
      "##ɬ": 1299,
      "##ᄇ": 1300,
      "##ж": 1301,
      "##ᅣ": 1302,
      "##ᆼ": 1303,
      "##ᆷ": 1304,
      "##ﬁ": 1305,
      "##व": 1306,
      "##ч": 1307,
      "##य": 1308,
      "##ी": 1309,
      "##ʾ": 1310,
      "##ะ": 1311,
      "##ホ": 1312,
      "##ʀ": 1313,
      "##６": 1314,
      "##ल": 1315,
      "##さ": 1316,
      "##ŋ": 1317,
      "##ひ": 1318,
      "##ء": 1319,
      "##ش": 1320,
      "##ہ": 1321,
      "##ی": 1322,
      "##ه": 1323,
      "##ด": 1324,
      "##ส": 1325,
      "##ต": 1326,
      "##ภ": 1327,
      "##ɤ": 1328,
      "##ز": 1329,
      "##ヤ": 1330,
      "##п": 1331,
      "##ɟ": 1332,
      "##け": 1333,
      "##ვ": 1334,
      "##ნ": 1335,
      "##վ": 1336,
      "##հ": 1337,
      "##𒀳": 1338,
      "##ᄏ": 1339,
      "##і": 1340,
      "##ح": 1341,
      "##ে": 1342,
      "##ত": 1343,
      "##ج": 1344,
      "##ɫ": 1345,
      "##च": 1346,
      "##ש": 1347,
      "##ה": 1348,
      "##ᄌ": 1349,
      "##ᄒ": 1350,
      "##お": 1351,
      "##ん": 1352,
      "##ᵿ": 1353,
      "##や": 1354,
      "##ゆ": 1355,
      "##ョ": 1356,
      "##う": 1357,
      "##コ": 1358,
      "##з": 1359,
      "##ר": 1360,
      "##ת": 1361,
      "##њ": 1362,
      "##བ": 1363,
      "##ག": 1364,
      "##º": 1365,
      "##ע": 1366,
      "##խ": 1367,
      "##մ": 1368,
      "##ष": 1369,
      "##थ": 1370,
      "##ಡ": 1371,
      "##ೕ": 1372,
      "##ಬ": 1373,
      "##ಾ": 1374,
      "##կ": 1375,
      "##բ": 1376,
      "##ց": 1377,
      "##ヘ": 1378,
      "##щ": 1379,
      "##ы": 1380,
      "##צ": 1381,
      "##て": 1382,
      "##ד": 1383,
      "##ネ": 1384,
      "##ソ": 1385,
      "##ᄐ": 1386,
      "##ᅢ": 1387,
      "##ᅯ": 1388,
      "##ﮮ": 1389,
      "##ت": 1390,
      "##ट": 1391,
      "##ʔ": 1392,
      "##と": 1393,
      "##ཡ": 1394,
      "##ड": 1395,
      "##ब": 1396,
      "##ር": 1397,
      "##አ": 1398,
      "##ล": 1399,
      "##ք": 1400,
      "##ʋ": 1401,
      "##も": 1402,
      "##ワ": 1403,
      "##ك": 1404,
      "##ం": 1405,
      "##డ": 1406,
      "##బ": 1407,
      "##इ": 1408,
      "##ө": 1409,
      "##ص": 1410,
      "##ら": 1411,
      "##ח": 1412,
      "##ל": 1413,
      "##ɣ": 1414,
      "##に": 1415,
      "##せ": 1416,
      "##ג": 1417,
      "##ᄎ": 1418,
      "##న": 1419,
      "##ξ": 1420,
      "##ʌ": 1421,
      "##ま": 1422,
      "##ᅭ": 1423,
      "##he": 1424,
      "the": 1425,
      "##er": 1426,
      "##in": 1427,
      "##ed": 1428,
      "##on": 1429,
      "##nd": 1430,
      "##or": 1431,
      "##at": 1432,
      "##es": 1433,
      "##en": 1434,
      "##ar": 1435,
      "in": 1436,
      "of": 1437,
      "##an": 1438,
      "##al": 1439,
      "##ing": 1440,
      "##it": 1441,
      "##as": 1442,
      "and": 1443,
      "##is": 1444,
      "to": 1445,
      "##ic": 1446,
      "##ou": 1447,
      "##re": 1448,
      "##ion": 1449,
      "##om": 1450,
      "##il": 1451,
      "##el": 1452,
      "th": 1453,
      "##ent": 1454,
      "##ec": 1455,
      "##st": 1456,
      "##am": 1457,
      "##et": 1458,
      "##ro": 1459,
      "on": 1460,
      "##ad": 1461,
      "was": 1462,
      "##ac": 1463,
      "##ur": 1464,
      "st": 1465,
      "##le": 1466,
      "for": 1467,
      "##ly": 1468,
      "##ol": 1469,
      "##ir": 1470,
      "##id": 1471,
      "as": 1472,
      "##ter": 1473,
      "##iv": 1474,
      "##ot": 1475,
      "##ig": 1476,
      "re": 1477,
      "##ut": 1478,
      "##im": 1479,
      "##ith": 1480,
      "##ow": 1481,
      "##ay": 1482,
      "be": 1483,
      "al": 1484,
      "with": 1485,
      "that": 1486,
      "wh": 1487,
      "it": 1488,
      "##ation": 1489,
      "con": 1490,
      "at": 1491,
      "by": 1492,
      "an": 1493,
      "##ers": 1494,
      "fr": 1495,
      "##em": 1496,
      "is": 1497,
      "he": 1498,
      "##us": 1499,
      "##ch": 1500,
      "##ce": 1501,
      "##ver": 1502,
      "##th": 1503,
      "##ul": 1504,
      "##and": 1505,
      "##ain": 1506,
      "##os": 1507,
      "ch": 1508,
      "##her": 1509,
      "his": 1510,
      "##est": 1511,
      "19": 1512,
      "##ag": 1513,
      "##av": 1514,
      "##um": 1515,
      "com": 1516,
      "from": 1517,
      "se": 1518,
      "su": 1519,
      "pro": 1520,
      "##ct": 1521,
      "##od": 1522,
      "##ess": 1523,
      "de": 1524,
      "##ap": 1525,
      "##ect": 1526,
      "##ist": 1527,
      "##ri": 1528,
      "##un": 1529,
      "##00": 1530,
      "sh": 1531,
      "ne": 1532,
      "##op": 1533,
      "##ill": 1534,
      "##ere": 1535,
      "##igh": 1536,
      "##ber": 1537,
      "##ld": 1538,
      "##ies": 1539,
      "##oc": 1540,
      "##all": 1541,
      "##art": 1542,
      "##ich": 1543,
      "##ard": 1544,
      "##ak": 1545,
      "ar": 1546,
      "##if": 1547,
      "or": 1548,
      "ex": 1549,
      "were": 1550,
      "##ort": 1551,
      "##ate": 1552,
      "pl": 1553,
      "un": 1554,
      "##ab": 1555,
      "pr": 1556,
      "##pp": 1557,
      "le": 1558,
      "sp": 1559,
      "##ant": 1560,
      "##ud": 1561,
      "##ong": 1562,
      "##gh": 1563,
      "##ated": 1564,
      "tr": 1565,
      "##se": 1566,
      "en": 1567,
      "##ity": 1568,
      "##ive": 1569,
      "##ie": 1570,
      "had": 1571,
      "##ame": 1572,
      "##ore": 1573,
      "##ack": 1574,
      "which": 1575,
      "##our": 1576,
      "##ip": 1577,
      "##ast": 1578,
      "##ge": 1579,
      "are": 1580,
      "##ear": 1581,
      "##ough": 1582,
      "not": 1583,
      "##ov": 1584,
      "af": 1585,
      "##ment": 1586,
      "##ian": 1587,
      "##ell": 1588,
      "##ally": 1589,
      "##ost": 1590,
      "##ound": 1591,
      "##qu": 1592,
      "##out": 1593,
      "cl": 1594,
      "##ight": 1595,
      "rec": 1596,
      "whe": 1597,
      "br": 1598,
      "##ust": 1599,
      "##ary": 1600,
      "##ord": 1601,
      "##ia": 1602,
      "##pt": 1603,
      "##oun": 1604,
      "##ave": 1605,
      "##ine": 1606,
      "##cc": 1607,
      "her": 1608,
      "ad": 1609,
      "sc": 1610,
      "comp": 1611,
      "fir": 1612,
      "but": 1613,
      "inc": 1614,
      "wor": 1615,
      "##ould": 1616,
      "this": 1617,
      "##ther": 1618,
      "tw": 1619,
      "ab": 1620,
      "cont": 1621,
      "after": 1622,
      "int": 1623,
      "##ous": 1624,
      "##ish": 1625,
      "##ial": 1626,
      "first": 1627,
      "gr": 1628,
      "200": 1629,
      "its": 1630,
      "##so": 1631,
      "##ions": 1632,
      "their": 1633,
      "20": 1634,
      "all": 1635,
      "new": 1636,
      "res": 1637,
      "am": 1638,
      "##ure": 1639,
      "one": 1640,
      "##per": 1641,
      "ro": 1642,
      "##ue": 1643,
      "##ass": 1644,
      "man": 1645,
      "##ok": 1646,
      "also": 1647,
      "mar": 1648,
      "per": 1649,
      "she": 1650,
      "##ome": 1651,
      "us": 1652,
      "##ign": 1653,
      "##ub": 1654,
      "tim": 1655,
      "##oll": 1656,
      "##ical": 1657,
      "rel": 1658,
      "##ater": 1659,
      "they": 1660,
      "##ond": 1661,
      "##ide": 1662,
      "##hed": 1663,
      "##age": 1664,
      "two": 1665,
      "##ire": 1666,
      "fe": 1667,
      "##orm": 1668,
      "##og": 1669,
      "##ru": 1670,
      "ser": 1671,
      "who": 1672,
      "##ry": 1673,
      "have": 1674,
      "ag": 1675,
      "comm": 1676,
      "part": 1677,
      "bec": 1678,
      "##ans": 1679,
      "##du": 1680,
      "##ff": 1681,
      "##rit": 1682,
      "##ence": 1683,
      "##ile": 1684,
      "dis": 1685,
      "des": 1686,
      "##ra": 1687,
      "app": 1688,
      "we": 1689,
      "rep": 1690,
      "##end": 1691,
      "##ree": 1692,
      "go": 1693,
      "##ition": 1694,
      "##iz": 1695,
      "been": 1696,
      "has": 1697,
      "off": 1698,
      "##ely": 1699,
      "##ance": 1700,
      "##own": 1701,
      "##uring": 1702,
      "##act": 1703,
      "play": 1704,
      "18": 1705,
      "over": 1706,
      "year": 1707,
      "other": 1708,
      "up": 1709,
      "##lud": 1710,
      "out": 1711,
      "im": 1712,
      "201": 1713,
      "co": 1714,
      "##ult": 1715,
      "##ice": 1716,
      "##ach": 1717,
      "ev": 1718,
      "##ember": 1719,
      "##ace": 1720,
      "att": 1721,
      "##wn": 1722,
      "when": 1723,
      "##land": 1724,
      "car": 1725,
      "fin": 1726,
      "dec": 1727,
      "inter": 1728,
      "##ations": 1729,
      "##ke": 1730,
      "##ade": 1731,
      "pre": 1732,
      "##ory": 1733,
      "can": 1734,
      "time": 1735,
      "bo": 1736,
      "during": 1737,
      "##ail": 1738,
      "fl": 1739,
      "##ib": 1740,
      "##ount": 1741,
      "includ": 1742,
      "##urn": 1743,
      "would": 1744,
      "##ced": 1745,
      "ind": 1746,
      "##ens": 1747,
      "into": 1748,
      "##man": 1749,
      "##one": 1750,
      "sec": 1751,
      "te": 1752,
      "me": 1753,
      "##ks": 1754,
      "##ward": 1755,
      "##ict": 1756,
      "##ite": 1757,
      "him": 1758,
      "##we": 1759,
      "##ang": 1760,
      "##int": 1761,
      "bl": 1762,
      "fil": 1763,
      "##pl": 1764,
      "act": 1765,
      "##ates": 1766,
      "##ick": 1767,
      "##ased": 1768,
      "##ied": 1769,
      "cent": 1770,
      "##ited": 1771,
      "##ose": 1772,
      "more": 1773,
      "bet": 1774,
      "jo": 1775,
      "##able": 1776,
      "ear": 1777,
      "war": 1778,
      "##nder": 1779,
      "form": 1780,
      "char": 1781,
      "par": 1782,
      "##amp": 1783,
      "##ents": 1784,
      "##way": 1785,
      "acc": 1786,
      "film": 1787,
      "el": 1788,
      "##ors": 1789,
      "##ase": 1790,
      "##old": 1791,
      "##les": 1792,
      "cons": 1793,
      "##ces": 1794,
      "##ft": 1795,
      "while": 1796,
      "mus": 1797,
      "##aw": 1798,
      "##ild": 1799,
      "##te": 1800,
      "most": 1801,
      "##ings": 1802,
      "##pr": 1803,
      "thr": 1804,
      "##ason": 1805,
      "##att": 1806,
      "there": 1807,
      "kn": 1808,
      "rem": 1809,
      "##form": 1810,
      "game": 1811,
      "##ind": 1812,
      "nor": 1813,
      "bu": 1814,
      "po": 1815,
      "song": 1816,
      "no": 1817,
      "##vel": 1818,
      "qu": 1819,
      "##aus": 1820,
      "gen": 1821,
      "##fer": 1822,
      "so": 1823,
      "##iss": 1824,
      "ass": 1825,
      "pe": 1826,
      "##ious": 1827,
      "##reat": 1828,
      "##ake": 1829,
      "how": 1830,
      "reg": 1831,
      "em": 1832,
      "later": 1833,
      "about": 1834,
      "produ": 1835,
      "##gan": 1836,
      "##ved": 1837,
      "##ican": 1838,
      "again": 1839,
      "##eld": 1840,
      "##rop": 1841,
      "work": 1842,
      "under": 1843,
      "##ood": 1844,
      "ret": 1845,
      "##ve": 1846,
      "only": 1847,
      "air": 1848,
      "may": 1849,
      "some": 1850,
      "three": 1851,
      "##rib": 1852,
      "than": 1853,
      "them": 1854,
      "##ix": 1855,
      "day": 1856,
      "high": 1857,
      "##ock": 1858,
      "##gr": 1859,
      "##ween": 1860,
      "##ubl": 1861,
      "mon": 1862,
      "bro": 1863,
      "between": 1864,
      "sy": 1865,
      "##oth": 1866,
      "through": 1867,
      "##ollow": 1868,
      "col": 1869,
      "##als": 1870,
      "##ered": 1871,
      "num": 1872,
      "##ction": 1873,
      "199": 1874,
      "##fore": 1875,
      "##outh": 1876,
      "follow": 1877,
      "##ath": 1878,
      "##ons": 1879,
      "min": 1880,
      "##hip": 1881,
      "record": 1882,
      "second": 1883,
      "end": 1884,
      "rele": 1885,
      "ma": 1886,
      "eng": 1887,
      "##ational": 1888,
      "li": 1889,
      "alb": 1890,
      "##ters": 1891,
      "dr": 1892,
      "pres": 1893,
      "##hn": 1894,
      "##orn": 1895,
      "sub": 1896,
      "ac": 1897,
      "##ug": 1898,
      "def": 1899,
      "##iew": 1900,
      "sa": 1901,
      "##ph": 1902,
      "pos": 1903,
      "four": 1904,
      "ph": 1905,
      "before": 1906,
      "where": 1907,
      "##ating": 1908,
      "cap": 1909,
      "lar": 1910,
      "season": 1911,
      "mov": 1912,
      "north": 1913,
      "amer": 1914,
      "sch": 1915,
      "do": 1916,
      "##ral": 1917,
      "made": 1918,
      "##ular": 1919,
      "ep": 1920,
      "##ey": 1921,
      "##ics": 1922,
      "world": 1923,
      "album": 1924,
      "##ived": 1925,
      "writ": 1926,
      "##son": 1927,
      "sur": 1928,
      "team": 1929,
      "##ames": 1930,
      "##ision": 1931,
      "000": 1932,
      "sing": 1933,
      "sm": 1934,
      "will": 1935,
      "##ep": 1936,
      "str": 1937,
      "##ained": 1938,
      "gu": 1939,
      "arm": 1940,
      "such": 1941,
      "##hes": 1942,
      "spec": 1943,
      "cr": 1944,
      "##ished": 1945,
      "##ton": 1946,
      "rev": 1947,
      "call": 1948,
      "publ": 1949,
      "pol": 1950,
      "loc": 1951,
      "met": 1952,
      "##ever": 1953,
      "sever": 1954,
      "supp": 1955,
      "##ning": 1956,
      "south": 1957,
      "##itt": 1958,
      "add": 1959,
      "years": 1960,
      "##let": 1961,
      "10": 1962,
      "##ected": 1963,
      "gener": 1964,
      "mill": 1965,
      "##ily": 1966,
      "##io": 1967,
      "##ros": 1968,
      "inv": 1969,
      "show": 1970,
      "both": 1971,
      "imp": 1972,
      "used": 1973,
      "##ode": 1974,
      "being": 1975,
      "count": 1976,
      "art": 1977,
      "however": 1978,
      "then": 1979,
      "##ank": 1980,
      "##tern": 1981,
      "number": 1982,
      "##other": 1983,
      "##ific": 1984,
      "##ery": 1985,
      "##ual": 1986,
      "bel": 1987,
      "set": 1988,
      "##led": 1989,
      "batt": 1990,
      "these": 1991,
      "##ool": 1992,
      "stud": 1993,
      "inst": 1994,
      "long": 1995,
      "well": 1996,
      "##ury": 1997,
      "ed": 1998,
      "sim": 1999,
      "##ection": 2000,
      "back": 2001,
      "##ten": 2002,
      "17": 2003,
      "##oup": 2004,
      "music": 2005,
      "against": 2006,
      "epis": 2007,
      "series": 2008,
      "many": 2009,
      "##ert": 2010,
      "main": 2011,
      "##ince": 2012,
      "##ause": 2013,
      "##az": 2014,
      "##air": 2015,
      "##ale": 2016,
      "city": 2017,
      "found": 2018,
      "op": 2019,
      "lead": 2020,
      "##ather": 2021,
      "##ement": 2022,
      "including": 2023,
      "pop": 2024,
      "##urr": 2025,
      "charac": 2026,
      "dire": 2027,
      "rece": 2028,
      "became": 2029,
      "sl": 2030,
      "brit": 2031,
      "##ier": 2032,
      "ter": 2033,
      "united": 2034,
      "##ron": 2035,
      "trans": 2036,
      "##fl": 2037,
      "##res": 2038,
      "several": 2039,
      "perform": 2040,
      "div": 2041,
      "##velop": 2042,
      "##oy": 2043,
      "##ise": 2044,
      "##ower": 2045,
      "##au": 2046,
      "mil": 2047,
      "mat": 2048,
      "state": 2049,
      "12": 2050,
      "##ife": 2051,
      "##ised": 2052,
      "ob": 2053,
      "##anc": 2054,
      "appear": 2055,
      "##vern": 2056,
      "##ork": 2057,
      "##igin": 2058,
      "ship": 2059,
      "cre": 2060,
      "contin": 2061,
      "##ures": 2062,
      "dist": 2063,
      "did": 2064,
      "##ines": 2065,
      "##its": 2066,
      "develop": 2067,
      "origin": 2068,
      "15": 2069,
      "nov": 2070,
      "alth": 2071,
      "win": 2072,
      "exp": 2073,
      "ann": 2074,
      "ext": 2075,
      "although": 2076,
      "prov": 2077,
      "dep": 2078,
      "198": 2079,
      "could": 2080,
      "##ities": 2081,
      "##ley": 2082,
      "states": 2083,
      "conc": 2084,
      "ger": 2085,
      "bar": 2086,
      "dif": 2087,
      "##iet": 2088,
      "##til": 2089,
      "##ually": 2090,
      "govern": 2091,
      "oper": 2092,
      "const": 2093,
      "##ross": 2094,
      "##ield": 2095,
      "run": 2096,
      "##elf": 2097,
      "##ird": 2098,
      "return": 2099,
      "##uc": 2100,
      "##are": 2101,
      "following": 2102,
      "194": 2103,
      "john": 2104,
      "est": 2105,
      "said": 2106,
      "any": 2107,
      "##ful": 2108,
      "##ouse": 2109,
      "early": 2110,
      "crit": 2111,
      "group": 2112,
      "##iver": 2113,
      "american": 2114,
      "##ative": 2115,
      "land": 2116,
      "##der": 2117,
      "direct": 2118,
      "11": 2119,
      "near": 2120,
      "##ann": 2121,
      "aust": 2122,
      "episode": 2123,
      "pass": 2124,
      "king": 2125,
      "mod": 2126,
      "school": 2127,
      "##emb": 2128,
      "sign": 2129,
      "196": 2130,
      "known": 2131,
      "16": 2132,
      "jun": 2133,
      "##sp": 2134,
      "##eng": 2135,
      "##row": 2136,
      "##olog": 2137,
      "fam": 2138,
      "gre": 2139,
      "##ident": 2140,
      "##ople": 2141,
      "down": 2142,
      "##ought": 2143,
      "feat": 2144,
      "##ued": 2145,
      "##uch": 2146,
      "design": 2147,
      "##iam": 2148,
      "began": 2149,
      "##ah": 2150,
      "hist": 2151,
      "because": 2152,
      "red": 2153,
      "##ism": 2154,
      "serv": 2155,
      "west": 2156,
      "med": 2157,
      "pers": 2158,
      "lo": 2159,
      "##ange": 2160,
      "##ject": 2161,
      "##ivers": 2162,
      "##ern": 2163,
      "##ided": 2164,
      "own": 2165,
      "until": 2166,
      "har": 2167,
      "desc": 2168,
      "offic": 2169,
      "disc": 2170,
      "##ized": 2171,
      "called": 2172,
      "##ek": 2173,
      "national": 2174,
      "along": 2175,
      "point": 2176,
      "197": 2177,
      "##ll": 2178,
      "##ured": 2179,
      "##aking": 2180,
      "port": 2181,
      "ste": 2182,
      "open": 2183,
      "eff": 2184,
      "##ined": 2185,
      "released": 2186,
      "like": 2187,
      "##0s": 2188,
      "##ty": 2189,
      "people": 2190,
      "resp": 2191,
      "##enn": 2192,
      "million": 2193,
      "##stem": 2194,
      "##gin": 2195,
      "##els": 2196,
      "compan": 2197,
      "##ccess": 2198,
      "prev": 2199,
      "##ists": 2200,
      "##ele": 2201,
      "##ium": 2202,
      "##osed": 2203,
      "##ets": 2204,
      "##xt": 2205,
      "ever": 2206,
      "av": 2207,
      "six": 2208,
      "maj": 2209,
      "since": 2210,
      "##ially": 2211,
      "system": 2212,
      "british": 2213,
      "##ull": 2214,
      "around": 2215,
      "if": 2216,
      "star": 2217,
      "head": 2218,
      "my": 2219,
      "##ric": 2220,
      "ju": 2221,
      "##red": 2222,
      "aut": 2223,
      "13": 2224,
      "var": 2225,
      "cour": 2226,
      "adv": 2227,
      "class": 2228,
      "bre": 2229,
      "same": 2230,
      "best": 2231,
      "just": 2232,
      "##ession": 2233,
      "id": 2234,
      "aug": 2235,
      "##oot": 2236,
      "hel": 2237,
      "cor": 2238,
      "km": 2239,
      "la": 2240,
      "another": 2241,
      "##ments": 2242,
      "##ution": 2243,
      "five": 2244,
      "major": 2245,
      "east": 2246,
      "##ains": 2247,
      "award": 2248,
      "sw": 2249,
      "##ont": 2250,
      "german": 2251,
      "##gg": 2252,
      "##cept": 2253,
      "attack": 2254,
      "coll": 2255,
      "each": 2256,
      "road": 2257,
      "took": 2258,
      "##ark": 2259,
      "august": 2260,
      "describ": 2261,
      "##aced": 2262,
      "start": 2263,
      "success": 2264,
      "##up": 2265,
      "ty": 2266,
      "old": 2267,
      "##ently": 2268,
      "great": 2269,
      "support": 2270,
      "##ible": 2271,
      "##aining": 2272,
      "oct": 2273,
      "##ene": 2274,
      "sept": 2275,
      "build": 2276,
      "arr": 2277,
      "14": 2278,
      "report": 2279,
      "use": 2280,
      "##ts": 2281,
      "austral": 2282,
      "book": 2283,
      "september": 2284,
      "##ys": 2285,
      "result": 2286,
      "##hern": 2287,
      "##amed": 2288,
      "##ane": 2289,
      "##ired": 2290,
      "final": 2291,
      "received": 2292,
      "gl": 2293,
      "you": 2294,
      "##aving": 2295,
      "##cl": 2296,
      "occ": 2297,
      "character": 2298,
      "##ended": 2299,
      "tri": 2300,
      "area": 2301,
      "complet": 2302,
      "public": 2303,
      "dem": 2304,
      "##ruct": 2305,
      "##und": 2306,
      "band": 2307,
      "det": 2308,
      "##raft": 2309,
      "consid": 2310,
      "line": 2311,
      "ge": 2312,
      "what": 2313,
      "##ik": 2314,
      "##app": 2315,
      "small": 2316,
      "##ob": 2317,
      "prom": 2318,
      "short": 2319,
      "193": 2320,
      "##ober": 2321,
      "##ues": 2322,
      "##ately": 2323,
      "due": 2324,
      "march": 2325,
      "turn": 2326,
      "hal": 2327,
      "##ives": 2328,
      "chr": 2329,
      "october": 2330,
      "ra": 2331,
      "##get": 2332,
      "life": 2333,
      "house": 2334,
      "sk": 2335,
      "mid": 2336,
      "##ble": 2337,
      "195": 2338,
      "last": 2339,
      "stre": 2340,
      "del": 2341,
      "##ger": 2342,
      "way": 2343,
      "camp": 2344,
      "##uss": 2345,
      "rest": 2346,
      "century": 2347,
      "government": 2348,
      "june": 2349,
      "##ash": 2350,
      "single": 2351,
      "##ison": 2352,
      "##ission": 2353,
      "squ": 2354,
      "##ner": 2355,
      "##ored": 2356,
      "##ted": 2357,
      "mag": 2358,
      "##ility": 2359,
      "contro": 2360,
      "third": 2361,
      "univers": 2362,
      "191": 2363,
      "##ants": 2364,
      "partic": 2365,
      "rout": 2366,
      "command": 2367,
      "##enc": 2368,
      "##ilt": 2369,
      "event": 2370,
      "large": 2371,
      "##ink": 2372,
      "##ove": 2373,
      "##oss": 2374,
      "games": 2375,
      "top": 2376,
      "cal": 2377,
      "ke": 2378,
      "ent": 2379,
      "mark": 2380,
      "##ians": 2381,
      "home": 2382,
      "dam": 2383,
      "##urch": 2384,
      "##ins": 2385,
      "much": 2386,
      "differ": 2387,
      "apr": 2388,
      "general": 2389,
      "jan": 2390,
      "island": 2391,
      "left": 2392,
      "##hing": 2393,
      "child": 2394,
      "gun": 2395,
      "vers": 2396,
      "##aim": 2397,
      "april": 2398,
      "july": 2399,
      "##iving": 2400,
      "capt": 2401,
      "ele": 2402,
      "company": 2403,
      "conv": 2404,
      "death": 2405,
      "prot": 2406,
      "##rap": 2407,
      "month": 2408,
      "##omet": 2409,
      "##ute": 2410,
      "allow": 2411,
      "fur": 2412,
      "tit": 2413,
      "review": 2414,
      "men": 2415,
      "##ively": 2416,
      "accord": 2417,
      "##ina": 2418,
      "town": 2419,
      "even": 2420,
      "york": 2421,
      "##sc": 2422,
      "##inc": 2423,
      "power": 2424,
      "##idge": 2425,
      "soc": 2426,
      "##ting": 2427,
      "##ms": 2428,
      "enter": 2429,
      "black": 2430,
      "##uary": 2431,
      "place": 2432,
      "family": 2433,
      "##ales": 2434,
      "track": 2435,
      "storm": 2436,
      "##bo": 2437,
      "river": 2438,
      "eu": 2439,
      "spe": 2440,
      "story": 2441,
      "kill": 2442,
      "##ica": 2443,
      "##ural": 2444,
      "25": 2445,
      "november": 2446,
      "##ified": 2447,
      "##aged": 2448,
      "conf": 2449,
      "incre": 2450,
      "leg": 2451,
      "based": 2452,
      "##hest": 2453,
      "vict": 2454,
      "addition": 2455,
      "##lish": 2456,
      "now": 2457,
      "water": 2458,
      "vis": 2459,
      "##bert": 2460,
      "progr": 2461,
      "192": 2462,
      "##erg": 2463,
      "according": 2464,
      "appro": 2465,
      "played": 2466,
      "december": 2467,
      "post": 2468,
      "##ared": 2469,
      "30": 2470,
      "law": 2471,
      "hand": 2472,
      "requ": 2473,
      "vide": 2474,
      "##hen": 2475,
      "##ically": 2476,
      "hum": 2477,
      "within": 2478,
      "##rote": 2479,
      "person": 2480,
      "included": 2481,
      "##ient": 2482,
      "pat": 2483,
      "##ention": 2484,
      "wind": 2485,
      "expl": 2486,
      "park": 2487,
      "right": 2488,
      "cast": 2489,
      "name": 2490,
      "##avy": 2491,
      "##ages": 2492,
      "club": 2493,
      "army": 2494,
      "wrote": 2495,
      "##over": 2496,
      "##empt": 2497,
      "##ime": 2498,
      "times": 2499,
      "week": 2500,
      "##ling": 2501,
      "january": 2502,
      "intern": 2503,
      "##side": 2504,
      "far": 2505,
      "##ats": 2506,
      "those": 2507,
      "##ract": 2508,
      "prop": 2509,
      "##ott": 2510,
      "opp": 2511,
      "rad": 2512,
      "ant": 2513,
      "belie": 2514,
      "##ven": 2515,
      "##ience": 2516,
      "help": 2517,
      "led": 2518,
      "##ides": 2519,
      "bill": 2520,
      "##ody": 2521,
      "##med": 2522,
      "deb": 2523,
      "init": 2524,
      "won": 2525,
      "##apan": 2526,
      "##ague": 2527,
      "ii": 2528,
      "##min": 2529,
      "previous": 2530,
      "##ench": 2531,
      "wom": 2532,
      "##ball": 2533,
      "described": 2534,
      "##ilar": 2535,
      "##iven": 2536,
      "organ": 2537,
      "val": 2538,
      "japan": 2539,
      "built": 2540,
      "still": 2541,
      "stand": 2542,
      "bus": 2543,
      "##ached": 2544,
      "battle": 2545,
      "##por": 2546,
      "white": 2547,
      "ang": 2548,
      "##by": 2549,
      "##ital": 2550,
      "##aff": 2551,
      "next": 2552,
      "##aken": 2553,
      "force": 2554,
      "##omin": 2555,
      "foot": 2556,
      "memb": 2557,
      "##ister": 2558,
      "##ior": 2559,
      "similar": 2560,
      "care": 2561,
      "##ival": 2562,
      "cy": 2563,
      "##ony": 2564,
      "repl": 2565,
      "make": 2566,
      "further": 2567,
      "light": 2568,
      "##erv": 2569,
      "video": 2570,
      "poss": 2571,
      "##ched": 2572,
      "division": 2573,
      "sout": 2574,
      "##akes": 2575,
      "among": 2576,
      "##bru": 2577,
      "champ": 2578,
      "exper": 2579,
      "late": 2580,
      "nort": 2581,
      "named": 2582,
      "##br": 2583,
      "commun": 2584,
      "##itions": 2585,
      "##iod": 2586,
      "iss": 2587,
      "original": 2588,
      "elect": 2589,
      "route": 2590,
      "held": 2591,
      "##sh": 2592,
      "##wards": 2593,
      "rock": 2594,
      "view": 2595,
      "attempt": 2596,
      "trop": 2597,
      "bas": 2598,
      "sold": 2599,
      "former": 2600,
      "real": 2601,
      "effect": 2602,
      "milit": 2603,
      "nat": 2604,
      "list": 2605,
      "ref": 2606,
      "members": 2607,
      "##ne": 2608,
      "christ": 2609,
      "febru": 2610,
      "february": 2611,
      "president": 2612,
      "##mer": 2613,
      "equ": 2614,
      "##na": 2615,
      "days": 2616,
      "##ested": 2617,
      "very": 2618,
      "period": 2619,
      "tour": 2620,
      "##ograp": 2621,
      "100": 2622,
      "dest": 2623,
      "inf": 2624,
      "fre": 2625,
      "good": 2626,
      "side": 2627,
      "match": 2628,
      "cle": 2629,
      "auth": 2630,
      "though": 2631,
      "tem": 2632,
      "typ": 2633,
      "sound": 2634,
      "2010": 2635,
      "every": 2636,
      "##ulation": 2637,
      "##ying": 2638,
      "##ented": 2639,
      "##ney": 2640,
      "##ret": 2641,
      "europ": 2642,
      "roy": 2643,
      "youn": 2644,
      "release": 2645,
      "##ps": 2646,
      "sol": 2647,
      "che": 2648,
      "##ars": 2649,
      "desp": 2650,
      "##ense": 2651,
      "role": 2652,
      "tele": 2653,
      "say": 2654,
      "few": 2655,
      "##uted": 2656,
      "fle": 2657,
      "infl": 2658,
      "##ech": 2659,
      "##hy": 2660,
      "polit": 2661,
      "control": 2662,
      "eas": 2663,
      "21": 2664,
      "##ren": 2665,
      "plan": 2666,
      "claim": 2667,
      "university": 2668,
      "pa": 2669,
      "tot": 2670,
      "species": 2671,
      "cross": 2672,
      "order": 2673,
      "##augh": 2674,
      "league": 2675,
      "having": 2676,
      "##ck": 2677,
      "##port": 2678,
      "different": 2679,
      "take": 2680,
      "super": 2681,
      "local": 2682,
      "##ences": 2683,
      "continued": 2684,
      "half": 2685,
      "mount": 2686,
      "beh": 2687,
      "french": 2688,
      "press": 2689,
      "coun": 2690,
      "production": 2691,
      "begin": 2692,
      "24": 2693,
      "caus": 2694,
      "##ness": 2695,
      "never": 2696,
      "##ipp": 2697,
      "##ances": 2698,
      "player": 2699,
      "service": 2700,
      "##oci": 2701,
      "estab": 2702,
      "europe": 2703,
      "common": 2704,
      "##ler": 2705,
      "low": 2706,
      "##bs": 2707,
      "level": 2708,
      "sent": 2709,
      "2011": 2710,
      "fact": 2711,
      "often": 2712,
      "##ese": 2713,
      "##ves": 2714,
      "came": 2715,
      "without": 2716,
      "wat": 2717,
      "je": 2718,
      "associ": 2719,
      "fire": 2720,
      "geor": 2721,
      "##ots": 2722,
      "##iend": 2723,
      "##par": 2724,
      "histor": 2725,
      "cover": 2726,
      "##ator": 2727,
      "pri": 2728,
      "william": 2729,
      "test": 2730,
      "##ford": 2731,
      "##estern": 2732,
      "22": 2733,
      "2009": 2734,
      "vol": 2735,
      "friend": 2736,
      "written": 2737,
      "##line": 2738,
      "pet": 2739,
      "mor": 2740,
      "despite": 2741,
      "less": 2742,
      "sum": 2743,
      "mich": 2744,
      "mi": 2745,
      "forces": 2746,
      "##ards": 2747,
      "##craft": 2748,
      "sty": 2749,
      "chart": 2750,
      "lond": 2751,
      "don": 2752,
      "##af": 2753,
      "london": 2754,
      "2008": 2755,
      "stat": 2756,
      "considered": 2757,
      "church": 2758,
      "arch": 2759,
      "##erc": 2760,
      "moved": 2761,
      "fun": 2762,
      "court": 2763,
      "##ops": 2764,
      "comb": 2765,
      "prof": 2766,
      "ten": 2767,
      "##ham": 2768,
      "##ruction": 2769,
      "country": 2770,
      "songs": 2771,
      "field": 2772,
      "##ices": 2773,
      "night": 2774,
      "tre": 2775,
      "strong": 2776,
      "rom": 2777,
      "building": 2778,
      "##ried": 2779,
      "england": 2780,
      "given": 2781,
      "mo": 2782,
      "highway": 2783,
      "party": 2784,
      "jack": 2785,
      "royal": 2786,
      "position": 2787,
      "trad": 2788,
      "lim": 2789,
      "##essed": 2790,
      "want": 2791,
      "##rodu": 2792,
      "##ady": 2793,
      "repres": 2794,
      "hig": 2795,
      "vi": 2796,
      "##irc": 2797,
      "##aster": 2798,
      "##ax": 2799,
      "county": 2800,
      "military": 2801,
      "tropical": 2802,
      "english": 2803,
      "cop": 2804,
      "##me": 2805,
      "##ittle": 2806,
      "become": 2807,
      "champions": 2808,
      "##atter": 2809,
      "##hel": 2810,
      "23": 2811,
      "aircraft": 2812,
      "total": 2813,
      "hour": 2814,
      "vir": 2815,
      "rail": 2816,
      "author": 2817,
      "eight": 2818,
      "##omb": 2819,
      "##vision": 2820,
      "##ones": 2821,
      "announ": 2822,
      "history": 2823,
      "father": 2824,
      "gold": 2825,
      "invol": 2826,
      "2012": 2827,
      "earl": 2828,
      "##ising": 2829,
      "anim": 2830,
      "##que": 2831,
      "##alk": 2832,
      "broad": 2833,
      "lab": 2834,
      "##con": 2835,
      "sugg": 2836,
      "produced": 2837,
      "##iety": 2838,
      "version": 2839,
      "influ": 2840,
      "need": 2841,
      "let": 2842,
      "##lex": 2843,
      "##eder": 2844,
      "##ize": 2845,
      "reported": 2846,
      "little": 2847,
      "##atic": 2848,
      "aff": 2849,
      "chang": 2850,
      "##ology": 2851,
      "##self": 2852,
      "2007": 2853,
      "program": 2854,
      "lost": 2855,
      "son": 2856,
      "##ald": 2857,
      "##urs": 2858,
      "dav": 2859,
      "find": 2860,
      "##ief": 2861,
      "dou": 2862,
      "defe": 2863,
      "miss": 2864,
      "hy": 2865,
      "using": 2866,
      "phil": 2867,
      "returned": 2868,
      "##ged": 2869,
      "##ailed": 2870,
      "hom": 2871,
      "arg": 2872,
      "young": 2873,
      "ord": 2874,
      "development": 2875,
      "went": 2876,
      "colle": 2877,
      "street": 2878,
      "##ript": 2879,
      "26": 2880,
      "mass": 2881,
      "should": 2882,
      "##ead": 2883,
      "190": 2884,
      "50": 2885,
      "##oint": 2886,
      "project": 2887,
      "##elt": 2888,
      "tro": 2889,
      "published": 2890,
      "get": 2891,
      "somet": 2892,
      "canad": 2893,
      "##ai": 2894,
      "sal": 2895,
      "ground": 2896,
      "ap": 2897,
      "larg": 2898,
      "##ency": 2899,
      "trav": 2900,
      "recorded": 2901,
      "ball": 2902,
      "coast": 2903,
      "particular": 2904,
      "western": 2905,
      "##echn": 2906,
      "front": 2907,
      "gave": 2908,
      "prim": 2909,
      "critic": 2910,
      "circ": 2911,
      "conn": 2912,
      "ve": 2913,
      "##ae": 2914,
      "stated": 2915,
      "##sequ": 2916,
      "40": 2917,
      "sel": 2918,
      "##ably": 2919,
      "once": 2920,
      "bur": 2921,
      "southern": 2922,
      "station": 2923,
      "##ches": 2924,
      "import": 2925,
      "region": 2926,
      "upon": 2927,
      "free": 2928,
      "##ories": 2929,
      "depart": 2930,
      "hit": 2931,
      "##xim": 2932,
      "months": 2933,
      "hall": 2934,
      "include": 2935,
      "##cess": 2936,
      "see": 2937,
      "ships": 2938,
      "television": 2939,
      "28": 2940,
      "##used": 2941,
      "du": 2942,
      "ins": 2943,
      "refer": 2944,
      "center": 2945,
      "popular": 2946,
      "age": 2947,
      "ly": 2948,
      "making": 2949,
      "##ned": 2950,
      "##iness": 2951,
      "throughout": 2952,
      "international": 2953,
      "compet": 2954,
      "central": 2955,
      "vill": 2956,
      "ide": 2957,
      "hun": 2958,
      "##ef": 2959,
      "vo": 2960,
      "##alth": 2961,
      "women": 2962,
      "australia": 2963,
      "##ges": 2964,
      "##play": 2965,
      "techn": 2966,
      "mad": 2967,
      "##ama": 2968,
      "ft": 2969,
      "##osp": 2970,
      "##ength": 2971,
      "suff": 2972,
      "produc": 2973,
      "career": 2974,
      "27": 2975,
      "rich": 2976,
      "instead": 2977,
      "children": 2978,
      "sen": 2979,
      "##ests": 2980,
      "special": 2981,
      "mot": 2982,
      "performance": 2983,
      "squad": 2984,
      "cond": 2985,
      "fav": 2986,
      "seven": 2987,
      "##lo": 2988,
      "enc": 2989,
      "fall": 2990,
      "non": 2991,
      "2006": 2992,
      "##aign": 2993,
      "obs": 2994,
      "full": 2995,
      "##day": 2996,
      "##co": 2997,
      "cam": 2998,
      "himself": 2999,
      "live": 3000,
      "##iment": 3001,
      "hot": 3002,
      "campaign": 3003,
      "##roy": 3004,
      "wall": 3005,
      "##itive": 3006,
      "eventually": 3007,
      "mal": 3008,
      "dev": 3009,
      "championship": 3010,
      "aud": 3011,
      "##iter": 3012,
      "official": 3013,
      "pal": 3014,
      "##ape": 3015,
      "##ring": 3016,
      "fif": 3017,
      "james": 3018,
      "tur": 3019,
      "##ither": 3020,
      "away": 3021,
      "areas": 3022,
      "##ases": 3023,
      "remained": 3024,
      "across": 3025,
      "aver": 3026,
      "net": 3027,
      "##most": 3028,
      "##rew": 3029,
      "introdu": 3030,
      "relations": 3031,
      "ir": 3032,
      "189": 3033,
      "various": 3034,
      "##field": 3035,
      "##ky": 3036,
      "modern": 3037,
      "##vers": 3038,
      "cost": 3039,
      "look": 3040,
      "##ploy": 3041,
      "bow": 3042,
      "##raw": 3043,
      "##itted": 3044,
      "hor": 3045,
      "base": 3046,
      "feet": 3047,
      "died": 3048,
      "players": 3049,
      "cut": 3050,
      "##ensive": 3051,
      "miles": 3052,
      "title": 3053,
      "##isted": 3054,
      "##ument": 3055,
      "reached": 3056,
      "sil": 3057,
      "##ael": 3058,
      "decl": 3059,
      "signific": 3060,
      "big": 3061,
      "fem": 3062,
      "ham": 3063,
      "love": 3064,
      "too": 3065,
      "2013": 3066,
      "characters": 3067,
      "announced": 3068,
      "hurr": 3069,
      "##ened": 3070,
      "hurrican": 3071,
      "fight": 3072,
      "curr": 3073,
      "sun": 3074,
      "northern": 3075,
      "put": 3076,
      "wr": 3077,
      "##ille": 3078,
      "sit": 3079,
      "fac": 3080,
      "##fic": 3081,
      "##rict": 3082,
      "grand": 3083,
      "ill": 3084,
      "member": 3085,
      "bridge": 3086,
      "sea": 3087,
      "##ization": 3088,
      "##ming": 3089,
      "hard": 3090,
      "thought": 3091,
      "brother": 3092,
      "born": 3093,
      "##utes": 3094,
      "pra": 3095,
      "present": 3096,
      "bri": 3097,
      "hop": 3098,
      "fort": 3099,
      "writing": 3100,
      "created": 3101,
      "##dom": 3102,
      "political": 3103,
      "able": 3104,
      "brown": 3105,
      "manag": 3106,
      "know": 3107,
      "pain": 3108,
      "##ked": 3109,
      "stri": 3110,
      "cult": 3111,
      "cat": 3112,
      "hill": 3113,
      "russ": 3114,
      "mc": 3115,
      "adm": 3116,
      "hold": 3117,
      "mer": 3118,
      "japanese": 3119,
      "cro": 3120,
      "toget": 3121,
      "##ett": 3122,
      "human": 3123,
      "together": 3124,
      "round": 3125,
      "range": 3126,
      "seen": 3127,
      "body": 3128,
      "race": 3129,
      "##ana": 3130,
      "developed": 3131,
      "##ple": 3132,
      "pi": 3133,
      "taken": 3134,
      "successful": 3135,
      "wood": 3136,
      "agre": 3137,
      "mean": 3138,
      "followed": 3139,
      "located": 3140,
      "cert": 3141,
      "##ering": 3142,
      "works": 3143,
      "promot": 3144,
      "##idence": 3145,
      "noted": 3146,
      "gar": 3147,
      "que": 3148,
      "office": 3149,
      "appeared": 3150,
      "style": 3151,
      "##enth": 3152,
      "engine": 3153,
      "29": 3154,
      "george": 3155,
      "##work": 3156,
      "meet": 3157,
      "hon": 3158,
      "sat": 3159,
      "##yl": 3160,
      "##ries": 3161,
      "performed": 3162,
      "den": 3163,
      "surv": 3164,
      "struct": 3165,
      "football": 3166,
      "commission": 3167,
      "america": 3168,
      "##elling": 3169,
      "destroy": 3170,
      "esc": 3171,
      "rank": 3172,
      "killed": 3173,
      "los": 3174,
      "heavy": 3175,
      "significant": 3176,
      "felt": 3177,
      "tor": 3178,
      "##ecut": 3179,
      "##ress": 3180,
      "##tain": 3181,
      "##ality": 3182,
      "##ids": 3183,
      "god": 3184,
      "##ration": 3185,
      "##orts": 3186,
      "##oney": 3187,
      "construction": 3188,
      "mother": 3189,
      "served": 3190,
      "becom": 3191,
      "##ani": 3192,
      "reb": 3193,
      "others": 3194,
      "does": 3195,
      "points": 3196,
      "mm": 3197,
      "##ara": 3198,
      "hurricane": 3199,
      "australian": 3200,
      "saw": 3201,
      "##cent": 3202,
      "establ": 3203,
      "mem": 3204,
      "##iction": 3205,
      "##iting": 3206,
      "indust": 3207,
      "added": 3208,
      "features": 3209,
      "##ature": 3210,
      "business": 3211,
      "##enced": 3212,
      "entire": 3213,
      "ho": 3214,
      "##ements": 3215,
      "##ects": 3216,
      "grow": 3217,
      "##ample": 3218,
      "originally": 3219,
      "2005": 3220,
      "process": 3221,
      "##reek": 3222,
      "thom": 3223,
      "mix": 3224,
      "activ": 3225,
      "read": 3226,
      "critics": 3227,
      "established": 3228,
      "sn": 3229,
      "##aves": 3230,
      "hen": 3231,
      "almost": 3232,
      "kingdom": 3233,
      "2014": 3234,
      "ital": 3235,
      "##epend": 3236,
      "ident": 3237,
      "word": 3238,
      "##ateg": 3239,
      "college": 3240,
      "independ": 3241,
      "site": 3242,
      "inform": 3243,
      "##irl": 3244,
      "population": 3245,
      "civ": 3246,
      "pred": 3247,
      "playing": 3248,
      "stage": 3249,
      "ur": 3250,
      "sex": 3251,
      "lack": 3252,
      "##ee": 3253,
      "decided": 3254,
      "soon": 3255,
      "expr": 3256,
      "close": 3257,
      "peak": 3258,
      "hol": 3259,
      "##odes": 3260,
      "impro": 3261,
      "##ators": 3262,
      "started": 3263,
      "##ma": 3264,
      "action": 3265,
      "di": 3266,
      "##ster": 3267,
      "jour": 3268,
      "behind": 3269,
      "caused": 3270,
      "pot": 3271,
      "formed": 3272,
      "magaz": 3273,
      "##oon": 3274,
      "towards": 3275,
      "##eal": 3276,
      "mult": 3277,
      "reach": 3278,
      "invest": 3279,
      "##iers": 3280,
      "sym": 3281,
      "fourth": 3282,
      "pen": 3283,
      "san": 3284,
      "##emy": 3285,
      "proble": 3286,
      "##ades": 3287,
      "director": 3288,
      "##eth": 3289,
      "##ending": 3290,
      "interv": 3291,
      "david": 3292,
      "rather": 3293,
      "jud": 3294,
      "separ": 3295,
      "wee": 3296,
      "social": 3297,
      "##ows": 3298,
      "fell": 3299,
      "##den": 3300,
      "subsequ": 3301,
      "##go": 3302,
      "##aps": 3303,
      "31": 3304,
      "mart": 3305,
      "##yn": 3306,
      "guns": 3307,
      "damage": 3308,
      "##bur": 3309,
      "##ceed": 3310,
      "resear": 3311,
      "##aces": 3312,
      "initially": 3313,
      "mater": 3314,
      "tom": 3315,
      "radio": 3316,
      "##acy": 3317,
      "insp": 3318,
      "commit": 3319,
      "voc": 3320,
      "sam": 3321,
      "michael": 3322,
      "scre": 3323,
      "##erm": 3324,
      "opened": 3325,
      "creat": 3326,
      "reve": 3327,
      "bomb": 3328,
      "##imin": 3329,
      "##istic": 3330,
      "fleet": 3331,
      "eastern": 3332,
      "ul": 3333,
      "robert": 3334,
      "completed": 3335,
      "case": 3336,
      "##less": 3337,
      "##anch": 3338,
      "##ogn": 3339,
      "treat": 3340,
      "##medi": 3341,
      "civil": 3342,
      "188": 3343,
      "featured": 3344,
      "loss": 3345,
      "##head": 3346,
      "##cil": 3347,
      "comment": 3348,
      "appoint": 3349,
      "##igned": 3350,
      "brig": 3351,
      "laun": 3352,
      "princ": 3353,
      "indian": 3354,
      "represent": 3355,
      "weeks": 3356,
      "##ped": 3357,
      "inj": 3358,
      "troops": 3359,
      "##wood": 3360,
      "##ata": 3361,
      "bay": 3362,
      "lou": 3363,
      "500": 3364,
      "rain": 3365,
      "##olution": 3366,
      "scene": 3367,
      "vot": 3368,
      "##aval": 3369,
      "surf": 3370,
      "edu": 3371,
      "clos": 3372,
      "dark": 3373,
      "sour": 3374,
      "neg": 3375,
      "earth": 3376,
      "important": 3377,
      "wid": 3378,
      "##ino": 3379,
      "sus": 3380,
      "pract": 3381,
      "girl": 3382,
      "tradition": 3383,
      "##itar": 3384,
      "average": 3385,
      "mac": 3386,
      "##ways": 3387,
      "inn": 3388,
      "crew": 3389,
      "econ": 3390,
      "##ams": 3391,
      "prem": 3392,
      "cru": 3393,
      "fund": 3394,
      "break": 3395,
      "econom": 3396,
      "colon": 3397,
      "##gar": 3398,
      "secret": 3399,
      "diffic": 3400,
      "green": 3401,
      "difficult": 3402,
      "##asing": 3403,
      "##omm": 3404,
      "generally": 3405,
      "avail": 3406,
      "##ox": 3407,
      "##asion": 3408,
      "er": 3409,
      "contract": 3410,
      "goal": 3411,
      "battal": 3412,
      "runs": 3413,
      "lang": 3414,
      "cho": 3415,
      "chief": 3416,
      "provided": 3417,
      "rap": 3418,
      "##arch": 3419,
      "##iding": 3420,
      "discover": 3421,
      "##ament": 3422,
      "rob": 3423,
      "##ius": 3424,
      "##ivid": 3425,
      "placed": 3426,
      "sett": 3427,
      "cur": 3428,
      "past": 3429,
      "##lin": 3430,
      "france": 3431,
      "interest": 3432,
      "republ": 3433,
      "working": 3434,
      "shot": 3435,
      "example": 3436,
      "unc": 3437,
      "proper": 3438,
      "training": 3439,
      "host": 3440,
      "fig": 3441,
      "##duct": 3442,
      "allowed": 3443,
      "educ": 3444,
      "hours": 3445,
      "relationship": 3446,
      "quar": 3447,
      "##board": 3448,
      "either": 3449,
      "norm": 3450,
      "##cast": 3451,
      "##chest": 3452,
      "exc": 3453,
      "##here": 3454,
      "foc": 3455,
      "staff": 3456,
      "midd": 3457,
      "pur": 3458,
      "room": 3459,
      "leading": 3460,
      "redu": 3461,
      "mur": 3462,
      "worked": 3463,
      "victory": 3464,
      "believed": 3465,
      "estim": 3466,
      "nar": 3467,
      "quick": 3468,
      "speed": 3469,
      "respect": 3470,
      "priv": 3471,
      "##iff": 3472,
      "mel": 3473,
      "scored": 3474,
      "feder": 3475,
      "##umb": 3476,
      "dut": 3477,
      "navy": 3478,
      "individ": 3479,
      "##ena": 3480,
      "angel": 3481,
      "magazine": 3482,
      "##pre": 3483,
      "material": 3484,
      "fut": 3485,
      "ru": 3486,
      "tar": 3487,
      "##ico": 3488,
      "least": 3489,
      "2004": 3490,
      "ach": 3491,
      "##men": 3492,
      "studio": 3493,
      "cup": 3494,
      "wanted": 3495,
      "bi": 3496,
      "pit": 3497,
      "key": 3498,
      "dro": 3499,
      "must": 3500,
      "rul": 3501,
      "stru": 3502,
      "council": 3503,
      "grad": 3504,
      "turned": 3505,
      "wife": 3506,
      "##ship": 3507,
      "##ential": 3508,
      "squadron": 3509,
      "recogn": 3510,
      "scen": 3511,
      "187": 3512,
      "wil": 3513,
      "##to": 3514,
      "winds": 3515,
      "ver": 3516,
      "immedi": 3517,
      "conduct": 3518,
      "##ption": 3519,
      "flight": 3520,
      "##li": 3521,
      "2015": 3522,
      "##west": 3523,
      "bir": 3524,
      "piec": 3525,
      "stop": 3526,
      "finished": 3527,
      "accept": 3528,
      "designed": 3529,
      "pay": 3530,
      "##uel": 3531,
      "##hic": 3532,
      "keep": 3533,
      "involved": 3534,
      "henry": 3535,
      "operation": 3536,
      "##fall": 3537,
      "earlier": 3538,
      "paul": 3539,
      "come": 3540,
      "deal": 3541,
      "board": 3542,
      "lower": 3543,
      "cycl": 3544,
      "available": 3545,
      "##be": 3546,
      "union": 3547,
      "186": 3548,
      "news": 3549,
      "regard": 3550,
      "awards": 3551,
      "##aut": 3552,
      "##spec": 3553,
      "ey": 3554,
      "contrib": 3555,
      "##ha": 3556,
      "##anks": 3557,
      "tow": 3558,
      "brought": 3559,
      "transport": 3560,
      "##erous": 3561,
      "better": 3562,
      "mcc": 3563,
      "mph": 3564,
      "##oring": 3565,
      "##tim": 3566,
      "stone": 3567,
      "##ki": 3568,
      "##aper": 3569,
      "events": 3570,
      "records": 3571,
      "recording": 3572,
      "nine": 3573,
      "##ving": 3574,
      "regular": 3575,
      "##ville": 3576,
      "##uck": 3577,
      "##cher": 3578,
      "##off": 3579,
      "plat": 3580,
      "minutes": 3581,
      "##aur": 3582,
      "2003": 3583,
      "relig": 3584,
      "saying": 3585,
      "nomin": 3586,
      "exist": 3587,
      "##ells": 3588,
      "joined": 3589,
      "##imes": 3590,
      "opening": 3591,
      "washing": 3592,
      "increased": 3593,
      "pil": 3594,
      "roman": 3595,
      "particip": 3596,
      "##iforn": 3597,
      "novel": 3598,
      "lik": 3599,
      "californ": 3600,
      "particularly": 3601,
      "##oph": 3602,
      "flood": 3603,
      "virgin": 3604,
      "der": 3605,
      "##omp": 3606,
      "employ": 3607,
      "##eter": 3608,
      "lear": 3609,
      "elements": 3610,
      "replaced": 3611,
      "##of": 3612,
      "feel": 3613,
      "achie": 3614,
      "largest": 3615,
      "threat": 3616,
      "scott": 3617,
      "phys": 3618,
      "move": 3619,
      "atl": 3620,
      "society": 3621,
      "viol": 3622,
      "germany": 3623,
      "##antic": 3624,
      "summer": 3625,
      "##osition": 3626,
      "prior": 3627,
      "grant": 3628,
      "charles": 3629,
      "##pression": 3630,
      "fa": 3631,
      "##mp": 3632,
      "##for": 3633,
      "##ishing": 3634,
      "washington": 3635,
      "ox": 3636,
      "ended": 3637,
      "doc": 3638,
      "##ays": 3639,
      "highest": 3640,
      "##ecutive": 3641,
      "length": 3642,
      "##ination": 3643,
      "langu": 3644,
      "35": 3645,
      "uk": 3646,
      "films": 3647,
      "quest": 3648,
      "##ological": 3649,
      "infant": 3650,
      "money": 3651,
      "hous": 3652,
      "##ris": 3653,
      "##uit": 3654,
      "bal": 3655,
      "taking": 3656,
      "respons": 3657,
      "research": 3658,
      "ps": 3659,
      "##hib": 3660,
      "step": 3661,
      "account": 3662,
      "european": 3663,
      "##ka": 3664,
      "##iation": 3665,
      "thus": 3666,
      "district": 3667,
      "##aring": 3668,
      "##anish": 3669,
      "remov": 3670,
      "reviews": 3671,
      "forced": 3672,
      "food": 3673,
      "commerc": 3674,
      "flor": 3675,
      "captain": 3676,
      "##itution": 3677,
      "##gn": 3678,
      "##key": 3679,
      "heart": 3680,
      "sequ": 3681,
      "cas": 3682,
      "mary": 3683,
      "parl": 3684,
      "cred": 3685,
      "##anned": 3686,
      "##ude": 3687,
      "police": 3688,
      "thomas": 3689,
      "percent": 3690,
      "anti": 3691,
      "committe": 3692,
      "california": 3693,
      "association": 3694,
      "##sel": 3695,
      "##oke": 3696,
      "##heast": 3697,
      "##agon": 3698,
      "##berg": 3699,
      "possible": 3700,
      "##nal": 3701,
      "reason": 3702,
      "passed": 3703,
      "units": 3704,
      "space": 3705,
      "fly": 3706,
      "signed": 3707,
      "additional": 3708,
      "beginning": 3709,
      "indic": 3710,
      "smith": 3711,
      "community": 3712,
      "##aled": 3713,
      "change": 3714,
      "going": 3715,
      "##ocr": 3716,
      "above": 3717,
      "positive": 3718,
      "roll": 3719,
      "##elled": 3720,
      "lines": 3721,
      "disp": 3722,
      "outside": 3723,
      "meas": 3724,
      "##lement": 3725,
      "castle": 3726,
      "##itz": 3727,
      "give": 3728,
      "##itor": 3729,
      "dig": 3730,
      "##rison": 3731,
      "debut": 3732,
      "##rated": 3733,
      "##back": 3734,
      "##arily": 3735,
      "told": 3736,
      "directed": 3737,
      "travel": 3738,
      "middle": 3739,
      "##aded": 3740,
      "bank": 3741,
      "##ems": 3742,
      "abs": 3743,
      "lake": 3744,
      "##ze": 3745,
      "##pped": 3746,
      "enough": 3747,
      "praised": 3748,
      "domin": 3749,
      "parts": 3750,
      "centre": 3751,
      "future": 3752,
      "##ida": 3753,
      "battalion": 3754,
      "bad": 3755,
      "section": 3756,
      "##oul": 3757,
      "musical": 3758,
      "##ula": 3759,
      "concert": 3760,
      "except": 3761,
      "2000": 3762,
      "##gress": 3763,
      "##ago": 3764,
      "appearance": 3765,
      "45": 3766,
      "type": 3767,
      "assist": 3768,
      "surface": 3769,
      "lat": 3770,
      "lord": 3771,
      "##ership": 3772,
      "dead": 3773,
      "overall": 3774,
      "product": 3775,
      "object": 3776,
      "rights": 3777,
      "##pper": 3778,
      "boy": 3779,
      "happ": 3780,
      "mic": 3781,
      "deep": 3782,
      "spent": 3783,
      "theat": 3784,
      "transfer": 3785,
      "richard": 3786,
      "natural": 3787,
      "##ayed": 3788,
      "2001": 3789,
      "media": 3790,
      "certain": 3791,
      "interview": 3792,
      "##ios": 3793,
      "##bers": 3794,
      "##ilities": 3795,
      "admin": 3796,
      "required": 3797,
      "##ique": 3798,
      "minor": 3799,
      "limited": 3800,
      "failed": 3801,
      "kil": 3802,
      "health": 3803,
      "infantry": 3804,
      "screen": 3805,
      "##my": 3806,
      "victor": 3807,
      "pan": 3808,
      "##tr": 3809,
      "prob": 3810,
      "trib": 3811,
      "frank": 3812,
      "##ification": 3813,
      "study": 3814,
      "christian": 3815,
      "##bor": 3816,
      "##reg": 3817,
      "pressure": 3818,
      "parliam": 3819,
      "60": 3820,
      "commander": 3821,
      "##aughter": 3822,
      "liter": 3823,
      "##ference": 3824,
      "emp": 3825,
      "acad": 3826,
      "##ush": 3827,
      "##aker": 3828,
      "evidence": 3829,
      "election": 3830,
      "committee": 3831,
      "ha": 3832,
      "mach": 3833,
      "asked": 3834,
      "guitar": 3835,
      "ordered": 3836,
      "poor": 3837,
      "complete": 3838,
      "jackson": 3839,
      "female": 3840,
      "##nes": 3841,
      "##onna": 3842,
      "bat": 3843,
      "fest": 3844,
      "prison": 3845,
      "2002": 3846,
      "phot": 3847,
      "department": 3848,
      "##mar": 3849,
      "whose": 3850,
      "itself": 3851,
      "square": 3852,
      "canada": 3853,
      "students": 3854,
      "rh": 3855,
      "beat": 3856,
      "##erson": 3857,
      "issue": 3858,
      "##ecess": 3859,
      "ber": 3860,
      "bud": 3861,
      "market": 3862,
      "parliament": 3863,
      "32": 3864,
      "corn": 3865,
      "pac": 3866,
      "##ream": 3867,
      "previously": 3868,
      "claimed": 3869,
      "india": 3870,
      "our": 3871,
      "score": 3872,
      "##enue": 3873,
      "franc": 3874,
      "scient": 3875,
      "ren": 3876,
      "think": 3877,
      "##ume": 3878,
      "lu": 3879,
      "##kn": 3880,
      "stars": 3881,
      "queen": 3882,
      "pun": 3883,
      "##anded": 3884,
      "subject": 3885,
      "appl": 3886,
      "blue": 3887,
      "britain": 3888,
      "bird": 3889,
      "sand": 3890,
      "bey": 3891,
      "es": 3892,
      "chap": 3893,
      "clear": 3894,
      "amount": 3895,
      "broadcast": 3896,
      "usually": 3897,
      "minister": 3898,
      "multip": 3899,
      "wild": 3900,
      "##ises": 3901,
      "anal": 3902,
      "specific": 3903,
      "##essional": 3904,
      "idea": 3905,
      "construct": 3906,
      "mex": 3907,
      "fifth": 3908,
      "remain": 3909,
      "frequ": 3910,
      "##round": 3911,
      "entered": 3912,
      "muse": 3913,
      "##tt": 3914,
      "##ully": 3915,
      "##ston": 3916,
      "larger": 3917,
      "approxim": 3918,
      "##ready": 3919,
      "occup": 3920,
      "estimated": 3921,
      "ran": 3922,
      "##enty": 3923,
      "might": 3924,
      "##wh": 3925,
      "##ability": 3926,
      "consider": 3927,
      "ny": 3928,
      "##edy": 3929,
      "##ibility": 3930,
      "guard": 3931,
      "##airs": 3932,
      "##onst": 3933,
      "winning": 3934,
      "introduced": 3935,
      "##uter": 3936,
      "##wor": 3937,
      "already": 3938,
      "##usion": 3939,
      "alex": 3940,
      "contr": 3941,
      "living": 3942,
      "env": 3943,
      "amb": 3944,
      "movement": 3945,
      "##erved": 3946,
      "##asc": 3947,
      "slow": 3948,
      "term": 3949,
      "quickly": 3950,
      "lay": 3951,
      "##ga": 3952,
      "##ections": 3953,
      "breed": 3954,
      "peter": 3955,
      "voice": 3956,
      "investig": 3957,
      "commercial": 3958,
      "espec": 3959,
      "remaining": 3960,
      "network": 3961,
      "museum": 3962,
      "especially": 3963,
      "fore": 3964,
      "concern": 3965,
      "journal": 3966,
      "##uation": 3967,
      "heav": 3968,
      "carried": 3969,
      "##isl": 3970,
      "ol": 3971,
      "date": 3972,
      "pow": 3973,
      "##apt": 3974,
      "railway": 3975,
      "lyr": 3976,
      "##gen": 3977,
      "whom": 3978,
      "script": 3979,
      "longer": 3980,
      "discuss": 3981,
      "##icket": 3982,
      "provide": 3983,
      "village": 3984,
      "aw": 3985,
      "got": 3986,
      "##esh": 3987,
      "##stand": 3988,
      "decision": 3989,
      "##ergy": 3990,
      "favor": 3991,
      "gro": 3992,
      "##oles": 3993,
      "teams": 3994,
      "groups": 3995,
      "lie": 3996,
      "##ander": 3997,
      "leaving": 3998,
      "ultim": 3999,
      "display": 4000,
      "quarter": 4001,
      "walk": 4002,
      "##ex": 4003,
      "territ": 4004,
      "immediately": 4005,
      "wal": 4006,
      "##change": 4007,
      "saf": 4008,
      "burn": 4009,
      "your": 4010,
      "##ground": 4011,
      "draw": 4012,
      "##ump": 4013,
      "shar": 4014,
      "185": 4015,
      "flag": 4016,
      "surround": 4017,
      "becoming": 4018,
      "upper": 4019,
      "##ties": 4020,
      "##ites": 4021,
      "emerg": 4022,
      "jew": 4023,
      "appointed": 4024,
      "susp": 4025,
      "ben": 4026,
      "purch": 4027,
      "shows": 4028,
      "running": 4029,
      "shortly": 4030,
      "scenes": 4031,
      "latter": 4032,
      "access": 4033,
      "nearly": 4034,
      "clim": 4035,
      "temper": 4036,
      "friends": 4037,
      "300": 4038,
      "##ulf": 4039,
      "capital": 4040,
      "structure": 4041,
      "##ension": 4042,
      "text": 4043,
      "governor": 4044,
      "hosp": 4045,
      "##tained": 4046,
      "sev": 4047,
      "impr": 4048,
      "face": 4049,
      "leader": 4050,
      "brigade": 4051,
      "approximately": 4052,
      "cand": 4053,
      "course": 4054,
      "##bc": 4055,
      "react": 4056,
      "acqu": 4057,
      "officers": 4058,
      "brief": 4059,
      "fer": 4060,
      "##atory": 4061,
      "anc": 4062,
      "shoot": 4063,
      "services": 4064,
      "nature": 4065,
      "something": 4066,
      "virginia": 4067,
      "mission": 4068,
      "##oor": 4069,
      "compared": 4070,
      "experience": 4071,
      "sometimes": 4072,
      "administ": 4073,
      "##ba": 4074,
      "diss": 4075,
      "producer": 4076,
      "##aries": 4077,
      "##aint": 4078,
      "archit": 4079,
      "##bour": 4080,
      "##aph": 4081,
      "billboard": 4082,
      "80": 4083,
      "gi": 4084,
      "self": 4085,
      "##ores": 4086,
      "occurr": 4087,
      "bul": 4088,
      "kore": 4089,
      "##ope": 4090,
      "woman": 4091,
      "current": 4092,
      "75": 4093,
      "arrived": 4094,
      "##oid": 4095,
      "##igan": 4096,
      "personal": 4097,
      "##porary": 4098,
      "chic": 4099,
      "compl": 4100,
      "blood": 4101,
      "operations": 4102,
      "captured": 4103,
      "defeated": 4104,
      "louis": 4105,
      "##val": 4106,
      "##oms": 4107,
      "intens": 4108,
      "rac": 4109,
      "sem": 4110,
      "democr": 4111,
      "sov": 4112,
      "corps": 4113,
      "dom": 4114,
      "##atively": 4115,
      "unit": 4116,
      "ens": 4117,
      "complex": 4118,
      "islands": 4119,
      "tracks": 4120,
      "depression": 4121,
      "emb": 4122,
      "1999": 4123,
      "polic": 4124,
      "supported": 4125,
      "entertain": 4126,
      "canc": 4127,
      "federal": 4128,
      "tal": 4129,
      "wide": 4130,
      "uns": 4131,
      "helped": 4132,
      "##rd": 4133,
      "##inct": 4134,
      "writer": 4135,
      "meth": 4136,
      "33": 4137,
      "whether": 4138,
      "cann": 4139,
      "regiment": 4140,
      "winter": 4141,
      "##onse": 4142,
      "imm": 4143,
      "arrang": 4144,
      "destroyed": 4145,
      "male": 4146,
      "response": 4147,
      "increasing": 4148,
      "higher": 4149,
      "princip": 4150,
      "##ii": 4151,
      "artic": 4152,
      "effects": 4153,
      "copies": 4154,
      "soviet": 4155,
      "fail": 4156,
      "##ography": 4157,
      "changes": 4158,
      "problems": 4159,
      "##ror": 4160,
      "##idents": 4161,
      "##ective": 4162,
      "liber": 4163,
      "36": 4164,
      "##erve": 4165,
      "##iron": 4166,
      "episodes": 4167,
      "awarded": 4168,
      "agreed": 4169,
      "industry": 4170,
      "pict": 4171,
      "instr": 4172,
      "language": 4173,
      "##anced": 4174,
      "attract": 4175,
      "standard": 4176,
      "bord": 4177,
      "##ecting": 4178,
      "cm": 4179,
      "spanish": 4180,
      "color": 4181,
      "suggested": 4182,
      "intended": 4183,
      "jim": 4184,
      "chall": 4185,
      "buildings": 4186,
      "##ken": 4187,
      "create": 4188,
      "empire": 4189,
      "altern": 4190,
      "##umn": 4191,
      "##ift": 4192,
      "horse": 4193,
      "forward": 4194,
      "plant": 4195,
      "singles": 4196,
      "model": 4197,
      "pu": 4198,
      "mont": 4199,
      "officer": 4200,
      "influence": 4201,
      "dance": 4202,
      "naval": 4203,
      "ut": 4204,
      "financ": 4205,
      "tax": 4206,
      "weap": 4207,
      "syn": 4208,
      "doct": 4209,
      "valley": 4210,
      "education": 4211,
      "likely": 4212,
      "70": 4213,
      "cele": 4214,
      "planned": 4215,
      "##ining": 4216,
      "battles": 4217,
      "mom": 4218,
      "##ulated": 4219,
      "spir": 4220,
      "spring": 4221,
      "finally": 4222,
      "proposed": 4223,
      "lib": 4224,
      "rid": 4225,
      "ray": 4226,
      "moving": 4227,
      "##hem": 4228,
      "today": 4229,
      "damaged": 4230,
      "counter": 4231,
      "##burg": 4232,
      "##selves": 4233,
      "kar": 4234,
      "van": 4235,
      "##icted": 4236,
      "rang": 4237,
      "##thing": 4238,
      "themselves": 4239,
      "##itting": 4240,
      "soldiers": 4241,
      "manager": 4242,
      "cause": 4243,
      "plans": 4244,
      "albums": 4245,
      "conclud": 4246,
      "private": 4247,
      "ca": 4248,
      "##orial": 4249,
      "mostly": 4250,
      "yet": 4251,
      "##can": 4252,
      "impact": 4253,
      "edition": 4254,
      "books": 4255,
      "fant": 4256,
      "oce": 4257,
      "##lands": 4258,
      "probably": 4259,
      "done": 4260,
      "daughter": 4261,
      "contem": 4262,
      "##rupt": 4263,
      "tex": 4264,
      "##teen": 4265,
      "artist": 4266,
      "congress": 4267,
      "hero": 4268,
      "johnson": 4269,
      "environ": 4270,
      "oly": 4271,
      "numerous": 4272,
      "information": 4273,
      "subsequently": 4274,
      "nation": 4275,
      "tun": 4276,
      "associated": 4277,
      "double": 4278,
      "dog": 4279,
      "olymp": 4280,
      "edward": 4281,
      "ranked": 4282,
      "cyclone": 4283,
      "ice": 4284,
      "size": 4285,
      "##ector": 4286,
      "energy": 4287,
      "legisl": 4288,
      "iron": 4289,
      "scot": 4290,
      "simp": 4291,
      "##ication": 4292,
      "withd": 4293,
      "concept": 4294,
      "takes": 4295,
      "##ban": 4296,
      "subst": 4297,
      "pacific": 4298,
      "minute": 4299,
      "feature": 4300,
      "establish": 4301,
      "mixed": 4302,
      "##ny": 4303,
      "##iser": 4304,
      "##ands": 4305,
      "science": 4306,
      "critical": 4307,
      "lyrics": 4308,
      "kr": 4309,
      "##uing": 4310,
      "##era": 4311,
      "block": 4312,
      "initial": 4313,
      "professional": 4314,
      "##che": 4315,
      "##abor": 4316,
      "includes": 4317,
      "assemb": 4318,
      "termin": 4319,
      "majority": 4320,
      "focus": 4321,
      "##well": 4322,
      "twenty": 4323,
      "prec": 4324,
      "psy": 4325,
      "creek": 4326,
      "bring": 4327,
      "extended": 4328,
      "combat": 4329,
      "changed": 4330,
      "martin": 4331,
      "categ": 4332,
      "wing": 4333,
      "##ta": 4334,
      "##bury": 4335,
      "##alled": 4336,
      "remains": 4337,
      "location": 4338,
      "##rica": 4339,
      "kh": 4340,
      "leave": 4341,
      "fighting": 4342,
      "admir": 4343,
      "gard": 4344,
      "mess": 4345,
      "ple": 4346,
      "related": 4347,
      "issued": 4348,
      "covered": 4349,
      "ce": 4350,
      "draft": 4351,
      "##andon": 4352,
      "qual": 4353,
      "chicago": 4354,
      "##tic": 4355,
      "##joy": 4356,
      "##rol": 4357,
      "status": 4358,
      "37": 4359,
      "mu": 4360,
      "birth": 4361,
      "bond": 4362,
      "gal": 4363,
      "gall": 4364,
      "jose": 4365,
      "penn": 4366,
      "##ental": 4367,
      "refl": 4368,
      "composed": 4369,
      "goals": 4370,
      "offered": 4371,
      "defeat": 4372,
      "conditions": 4373,
      "fiction": 4374,
      "##riage": 4375,
      "00": 4376,
      "lin": 4377,
      "carry": 4378,
      "festival": 4379,
      "makes": 4380,
      "needed": 4381,
      "primary": 4382,
      "fans": 4383,
      "##ari": 4384,
      "exam": 4385,
      "ocean": 4386,
      "bed": 4387,
      "rat": 4388,
      "florida": 4389,
      "tas": 4390,
      "suffered": 4391,
      "method": 4392,
      "##ria": 4393,
      "slight": 4394,
      "raised": 4395,
      "launched": 4396,
      "##hl": 4397,
      "##jected": 4398,
      "##uth": 4399,
      "mountain": 4400,
      "revealed": 4401,
      "here": 4402,
      "box": 4403,
      "##inese": 4404,
      "atlantic": 4405,
      "crow": 4406,
      "##ette": 4407,
      "##ching": 4408,
      "cust": 4409,
      "yard": 4410,
      "##gy": 4411,
      "traff": 4412,
      "compos": 4413,
      "conserv": 4414,
      "distrib": 4415,
      "smaller": 4416,
      "experi": 4417,
      "entertainment": 4418,
      "##asy": 4419,
      "##icans": 4420,
      "consist": 4421,
      "countries": 4422,
      "terms": 4423,
      "os": 4424,
      "##uries": 4425,
      "ath": 4426,
      "1998": 4427,
      "appears": 4428,
      "independent": 4429,
      "celebr": 4430,
      "ast": 4431,
      "ven": 4432,
      "##uments": 4433,
      "active": 4434,
      "cit": 4435,
      "##oud": 4436,
      "##ili": 4437,
      "enjoy": 4438,
      "movie": 4439,
      "attacks": 4440,
      "audience": 4441,
      "##ado": 4442,
      "always": 4443,
      "trade": 4444,
      "184": 4445,
      "actor": 4446,
      "oil": 4447,
      "confir": 4448,
      "ring": 4449,
      "##bed": 4450,
      "chinese": 4451,
      "singer": 4452,
      "hu": 4453,
      "morn": 4454,
      "##olic": 4455,
      "##ung": 4456,
      "incor": 4457,
      "visit": 4458,
      "architect": 4459,
      "log": 4460,
      "und": 4461,
      "##adium": 4462,
      "really": 4463,
      "instit": 4464,
      "sir": 4465,
      "##hood": 4466,
      "##ify": 4467,
      "numbers": 4468,
      "bor": 4469,
      "##isions": 4470,
      "od": 4471,
      "wit": 4472,
      "##ania": 4473,
      "stra": 4474,
      "##olk": 4475,
      "metal": 4476,
      "portr": 4477,
      "magn": 4478,
      "letter": 4479,
      "meeting": 4480,
      "fair": 4481,
      "##ault": 4482,
      "married": 4483,
      "maxim": 4484,
      "sales": 4485,
      "##rect": 4486,
      "traditional": 4487,
      "cer": 4488,
      "##icated": 4489,
      "china": 4490,
      "ability": 4491,
      "observ": 4492,
      "respectively": 4493,
      "removed": 4494,
      "##down": 4495,
      "##lear": 4496,
      "africa": 4497,
      "dail": 4498,
      "mr": 4499,
      "##fact": 4500,
      "##amb": 4501,
      "canadian": 4502,
      "starting": 4503,
      "fill": 4504,
      "master": 4505,
      "##com": 4506,
      "##ole": 4507,
      "1997": 4508,
      "##aught": 4509,
      "34": 4510,
      "fox": 4511,
      "##lor": 4512,
      "##ya": 4513,
      "##eck": 4514,
      "intell": 4515,
      "era": 4516,
      "poll": 4517,
      "conference": 4518,
      "silver": 4519,
      "hospital": 4520,
      "wa": 4521,
      "schools": 4522,
      "glob": 4523,
      "thir": 4524,
      "##umed": 4525,
      "morning": 4526,
      "yards": 4527,
      "##vey": 4528,
      "annual": 4529,
      "selected": 4530,
      "foreign": 4531,
      "##nel": 4532,
      "##etic": 4533,
      "##aches": 4534,
      "##ously": 4535,
      "##izing": 4536,
      "constant": 4537,
      "lived": 4538,
      "via": 4539,
      "expected": 4540,
      "listed": 4541,
      "individual": 4542,
      "daily": 4543,
      "##abit": 4544,
      "determ": 4545,
      "largely": 4546,
      "russian": 4547,
      "##mon": 4548,
      "inside": 4549,
      "19th": 4550,
      "shown": 4551,
      "closed": 4552,
      "approach": 4553,
      "suggest": 4554,
      "bound": 4555,
      "dv": 4556,
      "mun": 4557,
      "rate": 4558,
      "kind": 4559,
      "whole": 4560,
      "38": 4561,
      "bene": 4562,
      "cart": 4563,
      "##oo": 4564,
      "plot": 4565,
      "sched": 4566,
      "greater": 4567,
      "pack": 4568,
      "183": 4569,
      "produce": 4570,
      "##ronic": 4571,
      "greatest": 4572,
      "angeles": 4573,
      "dar": 4574,
      "newsp": 4575,
      "marsh": 4576,
      "variety": 4577,
      "##ograph": 4578,
      "##aj": 4579,
      "##kin": 4580,
      "confl": 4581,
      "assigned": 4582,
      "##light": 4583,
      "##ening": 4584,
      "wrest": 4585,
      "sar": 4586,
      "##itude": 4587,
      "##aging": 4588,
      "below": 4589,
      "##read": 4590,
      "1994": 4591,
      "constitution": 4592,
      "increase": 4593,
      "##chester": 4594,
      "environment": 4595,
      "1st": 4596,
      "bab": 4597,
      "ign": 4598,
      "##house": 4599,
      "##leg": 4600,
      "##ortun": 4601,
      "unable": 4602,
      "drive": 4603,
      "writers": 4604,
      "kenn": 4605,
      "##iest": 4606,
      "stadium": 4607,
      "coach": 4608,
      "presented": 4609,
      "attempted": 4610,
      "religious": 4611,
      "mech": 4612,
      "##yan": 4613,
      "italian": 4614,
      "nick": 4615,
      "sav": 4616,
      "touch": 4617,
      "##use": 4618,
      "adult": 4619,
      "contains": 4620,
      "defense": 4621,
      "schol": 4622,
      "inspired": 4623,
      "card": 4624,
      "nuc": 4625,
      "##gl": 4626,
      "##vin": 4627,
      "reform": 4628,
      "revolution": 4629,
      "refused": 4630,
      "mas": 4631,
      "##aped": 4632,
      "recover": 4633,
      "direction": 4634,
      "prevent": 4635,
      "##ompan": 4636,
      "##urity": 4637,
      "progress": 4638,
      "41": 4639,
      "die": 4640,
      "fast": 4641,
      "asp": 4642,
      "ali": 4643,
      "spot": 4644,
      "drum": 4645,
      "texas": 4646,
      "400": 4647,
      "hund": 4648,
      "1992": 4649,
      "dun": 4650,
      "mention": 4651,
      "##ste": 4652,
      "meant": 4653,
      "levels": 4654,
      "ros": 4655,
      "conver": 4656,
      "chann": 4657,
      "enemy": 4658,
      "adop": 4659,
      "disapp": 4660,
      "##ails": 4661,
      "flow": 4662,
      "northwest": 4663,
      "collection": 4664,
      "occasion": 4665,
      "question": 4666,
      "constructed": 4667,
      "90": 4668,
      "stories": 4669,
      "ash": 4670,
      "##ighter": 4671,
      "##ears": 4672,
      "attacked": 4673,
      "link": 4674,
      "##ounds": 4675,
      "##tered": 4676,
      "cham": 4677,
      "neigh": 4678,
      "contact": 4679,
      "imper": 4680,
      "formation": 4681,
      "elected": 4682,
      "theme": 4683,
      "highly": 4684,
      "##bridge": 4685,
      "source": 4686,
      "occurred": 4687,
      "dru": 4688,
      "mos": 4689,
      "sle": 4690,
      "extre": 4691,
      "economic": 4692,
      "hundred": 4693,
      "55": 4694,
      "hus": 4695,
      "##gs": 4696,
      "##atives": 4697,
      "brad": 4698,
      "electric": 4699,
      "separate": 4700,
      "ultimately": 4701,
      "cath": 4702,
      "names": 4703,
      "##ples": 4704,
      "accompan": 4705,
      "1995": 4706,
      "waters": 4707,
      "tower": 4708,
      "batter": 4709,
      "pair": 4710,
      "tourn": 4711,
      "resulted": 4712,
      "ris": 4713,
      "sister": 4714,
      "##uated": 4715,
      "##uals": 4716,
      "earned": 4717,
      "express": 4718,
      "##rey": 4719,
      "##ocks": 4720,
      "serious": 4721,
      "farm": 4722,
      "practice": 4723,
      "reduced": 4724,
      "cab": 4725,
      "haw": 4726,
      "stan": 4727,
      "train": 4728,
      "carol": 4729,
      "rapid": 4730,
      "discovered": 4731,
      "peace": 4732,
      "competition": 4733,
      "vocal": 4734,
      "mechan": 4735,
      "giving": 4736,
      "##hold": 4737,
      "##quar": 4738,
      "weaken": 4739,
      "iii": 4740,
      "coup": 4741,
      "lov": 4742,
      "thick": 4743,
      "begins": 4744,
      "##itation": 4745,
      "deg": 4746,
      "spl": 4747,
      "inters": 4748,
      "nearby": 4749,
      "effort": 4750,
      "controvers": 4751,
      "##rie": 4752,
      "exhib": 4753,
      "transl": 4754,
      "kent": 4755,
      "row": 4756,
      "tv": 4757,
      "##ging": 4758,
      "##ona": 4759,
      "directly": 4760,
      "promin": 4761,
      "theatre": 4762,
      "jer": 4763,
      "luc": 4764,
      "prince": 4765,
      "distance": 4766,
      "vehic": 4767,
      "encoun": 4768,
      "declared": 4769,
      "multiple": 4770,
      "native": 4771,
      "##uk": 4772,
      "2016": 4773,
      "1996": 4774,
      "athlet": 4775,
      "dvd": 4776,
      "abandon": 4777,
      "dism": 4778,
      "kept": 4779,
      "apart": 4780,
      "commented": 4781,
      "kilomet": 4782,
      "swe": 4783,
      "seg": 4784,
      "##ogue": 4785,
      "repe": 4786,
      "attention": 4787,
      "defend": 4788,
      "metres": 4789,
      "houses": 4790,
      "greek": 4791,
      "##band": 4792,
      "##ols": 4793,
      "purp": 4794,
      "francis": 4795,
      "nin": 4796,
      "##illery": 4797,
      "sports": 4798,
      "##ibly": 4799,
      "##ims": 4800,
      "perm": 4801,
      "referred": 4802,
      "wales": 4803,
      "executive": 4804,
      "sixth": 4805,
      "overs": 4806,
      "companies": 4807,
      "candid": 4808,
      "matt": 4809,
      "##ij": 4810,
      "##zz": 4811,
      "attended": 4812,
      "ending": 4813,
      "positions": 4814,
      "incorpor": 4815,
      "hors": 4816,
      "tons": 4817,
      "##enant": 4818,
      "legal": 4819,
      "organization": 4820,
      "##wide": 4821,
      "notes": 4822,
      "marriage": 4823,
      "weather": 4824,
      "acting": 4825,
      "emper": 4826,
      "strugg": 4827,
      "dyn": 4828,
      "##yr": 4829,
      "suppl": 4830,
      "divided": 4831,
      "mind": 4832,
      "rough": 4833,
      "zeal": 4834,
      "##win": 4835,
      "forest": 4836,
      "##hers": 4837,
      "print": 4838,
      "bob": 4839,
      "means": 4840,
      "artillery": 4841,
      "words": 4842,
      "things": 4843,
      "prime": 4844,
      "eth": 4845,
      "sides": 4846,
      "##rier": 4847,
      "##rian": 4848,
      "respond": 4849,
      "##ceeded": 4850,
      "pilot": 4851,
      "49": 4852,
      "purs": 4853,
      "madonna": 4854,
      "financial": 4855,
      "mis": 4856,
      "viet": 4857,
      "##ca": 4858,
      "##uff": 4859,
      "managed": 4860,
      "appar": 4861,
      "coal": 4862,
      "exped": 4863,
      "issues": 4864,
      "1993": 4865,
      "chris": 4866,
      "meaning": 4867,
      "diam": 4868,
      "iv": 4869,
      "##uct": 4870,
      "##ishop": 4871,
      "forms": 4872,
      "convention": 4873,
      "psych": 4874,
      "necess": 4875,
      "scotland": 4876,
      "conflict": 4877,
      "mexico": 4878,
      "cry": 4879,
      "jones": 4880,
      "true": 4881,
      "advance": 4882,
      "##ners": 4883,
      "stating": 4884,
      "colour": 4885,
      "strateg": 4886,
      "continue": 4887,
      "pick": 4888,
      "##utions": 4889,
      "180": 4890,
      "dropped": 4891,
      "share": 4892,
      "corpor": 4893,
      "##ipped": 4894,
      "transferred": 4895,
      "admiral": 4896,
      "39": 4897,
      "bon": 4898,
      "##iated": 4899,
      "179": 4900,
      "trial": 4901,
      "64": 4902,
      "mir": 4903,
      "##inem": 4904,
      "perf": 4905,
      "quality": 4906,
      "chem": 4907,
      "##like": 4908,
      "lot": 4909,
      "##gu": 4910,
      "##odies": 4911,
      "inches": 4912,
      "passeng": 4913,
      "property": 4914,
      "responsible": 4915,
      "et": 4916,
      "##don": 4917,
      "##thur": 4918,
      "animals": 4919,
      "potential": 4920,
      "cold": 4921,
      "rein": 4922,
      "recomm": 4923,
      "resulting": 4924,
      "primarily": 4925,
      "contrast": 4926,
      "ram": 4927,
      "saint": 4928,
      "##cing": 4929,
      "boat": 4930,
      "bowl": 4931,
      "lif": 4932,
      "##road": 4933,
      "stock": 4934,
      "artists": 4935,
      "##de": 4936,
      "inch": 4937,
      "shel": 4938,
      "continues": 4939,
      "conducted": 4940,
      "zealand": 4941,
      "opt": 4942,
      "##ingu": 4943,
      "##iance": 4944,
      "founded": 4945,
      "tried": 4946,
      "elev": 4947,
      "honor": 4948,
      "contemporary": 4949,
      "traffic": 4950,
      "##bre": 4951,
      "##ulations": 4952,
      "20th": 4953,
      "presence": 4954,
      "marked": 4955,
      "viewers": 4956,
      "peaked": 4957,
      "accepted": 4958,
      "ban": 4959,
      "hers": 4960,
      "talk": 4961,
      "##mas": 4962,
      "##ional": 4963,
      "##une": 4964,
      "##oper": 4965,
      "medical": 4966,
      "innings": 4967,
      "dani": 4968,
      "fat": 4969,
      "gas": 4970,
      "les": 4971,
      "mile": 4972,
      "tend": 4973,
      "spect": 4974,
      "swed": 4975,
      "homer": 4976,
      "seconds": 4977,
      "featuring": 4978,
      "efforts": 4979,
      "##rial": 4980,
      "attend": 4981,
      "parents": 4982,
      "airport": 4983,
      "edge": 4984,
      "48": 4985,
      "##essions": 4986,
      "propos": 4987,
      "torped": 4988,
      "piece": 4989,
      "##track": 4990,
      "rating": 4991,
      "##oe": 4992,
      "##yer": 4993,
      "seem": 4994,
      "##ellow": 4995,
      "relatively": 4996,
      "showed": 4997,
      "powerful": 4998,
      "northeast": 4999,
      "secretary": 5000,
      "flying": 5001,
      "slightly": 5002,
      "mob": 5003,
      "rose": 5004,
      "##writ": 5005,
      "##cend": 5006,
      "prep": 5007,
      "performances": 5008,
      "hands": 5009,
      "republic": 5010,
      "target": 5011,
      "digital": 5012,
      "cities": 5013,
      "theory": 5014,
      "46": 5015,
      "sac": 5016,
      "##ita": 5017,
      "##ils": 5018,
      "job": 5019,
      "torpedo": 5020,
      "afr": 5021,
      "favour": 5022,
      "oxford": 5023,
      "ess": 5024,
      "spirit": 5025,
      "fantasy": 5026,
      "vess": 5027,
      "distinct": 5028,
      "authority": 5029,
      "eye": 5030,
      "65": 5031,
      "branch": 5032,
      "advent": 5033,
      "concluded": 5034,
      "thous": 5035,
      "stephen": 5036,
      "onto": 5037,
      "comes": 5038,
      "search": 5039,
      "##anna": 5040,
      "memorial": 5041,
      "figure": 5042,
      "machine": 5043,
      "emperor": 5044,
      "fis": 5045,
      "##ada": 5046,
      "stay": 5047,
      "suc": 5048,
      "subm": 5049,
      "soundtrack": 5050,
      "policy": 5051,
      "residents": 5052,
      "strength": 5053,
      "completely": 5054,
      "laws": 5055,
      "combined": 5056,
      "document": 5057,
      "citiz": 5058,
      "lee": 5059,
      "actually": 5060,
      "returning": 5061,
      "owned": 5062,
      "opportun": 5063,
      "symb": 5064,
      "african": 5065,
      "##vement": 5066,
      "##pe": 5067,
      "beaut": 5068,
      "offer": 5069,
      "1991": 5070,
      "defence": 5071,
      "academy": 5072,
      "lieut": 5073,
      "42": 5074,
      "portion": 5075,
      "avenue": 5076,
      "demonst": 5077,
      "allowing": 5078,
      "becomes": 5079,
      "premi": 5080,
      "border": 5081,
      "doll": 5082,
      "tel": 5083,
      "paris": 5084,
      "alongside": 5085,
      "##apped": 5086,
      "bost": 5087,
      "cases": 5088,
      "##gian": 5089,
      "##thel": 5090,
      "##ero": 5091,
      "therefore": 5092,
      "minim": 5093,
      "steam": 5094,
      "michigan": 5095,
      "doub": 5096,
      "rule": 5097,
      "pieces": 5098,
      "imperial": 5099,
      "egg": 5100,
      "gained": 5101,
      "tree": 5102,
      "wound": 5103,
      "##lam": 5104,
      "##ersey": 5105,
      "allied": 5106,
      "appeal": 5107,
      "concent": 5108,
      "headquar": 5109,
      "senior": 5110,
      "culture": 5111,
      "44": 5112,
      "bott": 5113,
      "##ih": 5114,
      "##orter": 5115,
      "##rawn": 5116,
      "element": 5117,
      "brothers": 5118,
      "ll": 5119,
      "##king": 5120,
      "##za": 5121,
      "coming": 5122,
      "sust": 5123,
      "##unt": 5124,
      "calling": 5125,
      "studios": 5126,
      "systems": 5127,
      "planet": 5128,
      "battleship": 5129,
      "da": 5130,
      "mut": 5131,
      "oh": 5132,
      "##har": 5133,
      "##istry": 5134,
      "arab": 5135,
      "##overs": 5136,
      "filming": 5137,
      "vari": 5138,
      "tournament": 5139,
      "sought": 5140,
      "##ques": 5141,
      "clar": 5142,
      "student": 5143,
      "capture": 5144,
      "selling": 5145,
      "##enge": 5146,
      "##icient": 5147,
      "arts": 5148,
      "equip": 5149,
      "observed": 5150,
      "italy": 5151,
      "##while": 5152,
      "##rick": 5153,
      "##ires": 5154,
      "##aga": 5155,
      "##ills": 5156,
      "require": 5157,
      "function": 5158,
      "kg": 5159,
      "wear": 5160,
      "##ications": 5161,
      "carl": 5162,
      "results": 5163,
      "ire": 5164,
      "yellow": 5165,
      "##olf": 5166,
      "##ota": 5167,
      "##ushed": 5168,
      "recent": 5169,
      "broke": 5170,
      "vocals": 5171,
      "article": 5172,
      "bell": 5173,
      "inh": 5174,
      "181": 5175,
      "actions": 5176,
      "passes": 5177,
      "replac": 5178,
      "temple": 5179,
      "management": 5180,
      "reaching": 5181,
      "negot": 5182,
      "lieutenant": 5183,
      "ded": 5184,
      "gil": 5185,
      "ott": 5186,
      "##nam": 5187,
      "rear": 5188,
      "##uled": 5189,
      "uses": 5190,
      "canal": 5191,
      "attempts": 5192,
      "croat": 5193,
      "##stein": 5194,
      "47": 5195,
      "52": 5196,
      "##sen": 5197,
      "##rain": 5198,
      "##isation": 5199,
      "##acity": 5200,
      "scale": 5201,
      "weight": 5202,
      "freed": 5203,
      "sources": 5204,
      "murder": 5205,
      "maximum": 5206,
      "dur": 5207,
      "invasion": 5208,
      "titled": 5209,
      "subsequent": 5210,
      "administration": 5211,
      "43": 5212,
      "unkn": 5213,
      "##ube": 5214,
      "##rael": 5215,
      "security": 5216,
      "paid": 5217,
      "williams": 5218,
      "officials": 5219,
      "dry": 5220,
      "liver": 5221,
      "##town": 5222,
      "scr": 5223,
      "feed": 5224,
      "influenced": 5225,
      "sexual": 5226,
      "instrument": 5227,
      "mol": 5228,
      "rod": 5229,
      "##ding": 5230,
      "nothing": 5231,
      "soft": 5232,
      "armed": 5233,
      "labor": 5234,
      "senate": 5235,
      "hotel": 5236,
      "category": 5237,
      "cerem": 5238,
      "dw": 5239,
      "alone": 5240,
      "mainly": 5241,
      "matches": 5242,
      "opera": 5243,
      "struck": 5244,
      "##standing": 5245,
      "doctor": 5246,
      "dang": 5247,
      "sense": 5248,
      "##ifying": 5249,
      "orchest": 5250,
      "spain": 5251,
      "resist": 5252,
      "drama": 5253,
      "says": 5254,
      "confirmed": 5255,
      "gam": 5256,
      "##ker": 5257,
      "guest": 5258,
      "1941": 5259,
      "bit": 5260,
      "fish": 5261,
      "lane": 5262,
      "##pass": 5263,
      "store": 5264,
      "alt": 5265,
      "##vert": 5266,
      "chair": 5267,
      "resident": 5268,
      "collabor": 5269,
      "claims": 5270,
      "rainfall": 5271,
      "latin": 5272,
      "jersey": 5273,
      "behav": 5274,
      "encour": 5275,
      "data": 5276,
      "paper": 5277,
      "##ockey": 5278,
      "abb": 5279,
      "dise": 5280,
      "charge": 5281,
      "crown": 5282,
      "channel": 5283,
      "boston": 5284,
      "unknown": 5285,
      "fan": 5286,
      "pap": 5287,
      "##ips": 5288,
      "##ickets": 5289,
      "else": 5290,
      "illust": 5291,
      "scottish": 5292,
      "prominent": 5293,
      "##astic": 5294,
      "note": 5295,
      "consisted": 5296,
      "designated": 5297,
      "reports": 5298,
      "deliv": 5299,
      "meanwhile": 5300,
      "promoted": 5301,
      "choice": 5302,
      "beyond": 5303,
      "##cle": 5304,
      "albert": 5305,
      "write": 5306,
      "crowd": 5307,
      "ireland": 5308,
      "fear": 5309,
      "##iring": 5310,
      "webs": 5311,
      "arms": 5312,
      "convers": 5313,
      "activity": 5314,
      "##ns": 5315,
      "##cy": 5316,
      "##mond": 5317,
      "poet": 5318,
      "widely": 5319,
      "platform": 5320,
      "equipment": 5321,
      "##hire": 5322,
      "##iced": 5323,
      "manchester": 5324,
      "imag": 5325,
      "joint": 5326,
      "explained": 5327,
      "believe": 5328,
      "growth": 5329,
      "seventh": 5330,
      "##ini": 5331,
      "send": 5332,
      "adj": 5333,
      "evac": 5334,
      "americans": 5335,
      "1942": 5336,
      "jeff": 5337,
      "territory": 5338,
      "bass": 5339,
      "merc": 5340,
      "extra": 5341,
      "weapons": 5342,
      "bbc": 5343,
      "##hi": 5344,
      "hyd": 5345,
      "figures": 5346,
      "husband": 5347,
      "tells": 5348,
      "##ety": 5349,
      "comedy": 5350,
      "proved": 5351,
      "historic": 5352,
      "walls": 5353,
      "nominated": 5354,
      "joseph": 5355,
      "md": 5356,
      "path": 5357,
      "sant": 5358,
      "tall": 5359,
      "##ees": 5360,
      "##bon": 5361,
      "stations": 5362,
      "##ider": 5363,
      "broken": 5364,
      "surpr": 5365,
      "studies": 5366,
      "older": 5367,
      "argued": 5368,
      "libr": 5369,
      "##dy": 5370,
      "##anes": 5371,
      "seek": 5372,
      "twice": 5373,
      "eliz": 5374,
      "grew": 5375,
      "historical": 5376,
      "problem": 5377,
      "pul": 5378,
      "##mans": 5379,
      "##pool": 5380,
      "israel": 5381,
      "resc": 5382,
      "plays": 5383,
      "typically": 5384,
      "physical": 5385,
      "victoria": 5386,
      "heavily": 5387,
      "horses": 5388,
      "##icks": 5389,
      "##ura": 5390,
      "reserve": 5391,
      "matter": 5392,
      "visited": 5393,
      "ancient": 5394,
      "##gypt": 5395,
      "expedition": 5396,
      "cinem": 5397,
      "lives": 5398,
      "##rical": 5399,
      "avoid": 5400,
      "producers": 5401,
      "reign": 5402,
      "##osen": 5403,
      "comic": 5404,
      "serve": 5405,
      "assault": 5406,
      "workers": 5407,
      "motor": 5408,
      "headquarters": 5409,
      "ahead": 5410,
      "sens": 5411,
      "##ux": 5412,
      "##abeth": 5413,
      "seasons": 5414,
      "harrison": 5415,
      "debuted": 5416,
      "affected": 5417,
      "treatment": 5418,
      "moment": 5419,
      "intellig": 5420,
      "unlike": 5421,
      "trust": 5422,
      "182": 5423,
      "cool": 5424,
      "prepar": 5425,
      "1990": 5426,
      "advanced": 5427,
      "label": 5428,
      "duke": 5429,
      "catholic": 5430,
      "egypt": 5431,
      "ta": 5432,
      "##lie": 5433,
      "##ala": 5434,
      "height": 5435,
      "1960s": 5436,
      "animal": 5437,
      "escape": 5438,
      "cell": 5439,
      "din": 5440,
      "tank": 5441,
      "##ads": 5442,
      "severe": 5443,
      "editor": 5444,
      "maintained": 5445,
      "leaders": 5446,
      "1945": 5447,
      "bart": 5448,
      "pin": 5449,
      "##ew": 5450,
      "##iber": 5451,
      "##adel": 5452,
      "beach": 5453,
      "emot": 5454,
      "watch": 5455,
      "historian": 5456,
      "##born": 5457,
      "suit": 5458,
      "offensive": 5459,
      "elimin": 5460,
      "background": 5461,
      "pattern": 5462,
      "looking": 5463,
      "rot": 5464,
      "##la": 5465,
      "toward": 5466,
      "floor": 5467,
      "capacity": 5468,
      "##ancy": 5469,
      "1989": 5470,
      "lands": 5471,
      "passing": 5472,
      "##ket": 5473,
      "chosen": 5474,
      "unf": 5475,
      "content": 5476,
      "manu": 5477,
      "steel": 5478,
      "golden": 5479,
      "dutch": 5480,
      "birds": 5481,
      "tech": 5482,
      "##rate": 5483,
      "exec": 5484,
      "1980s": 5485,
      "1943": 5486,
      "roads": 5487,
      "column": 5488,
      "opposition": 5489,
      "51": 5490,
      "ni": 5491,
      "##uous": 5492,
      "##olved": 5493,
      "fired": 5494,
      "value": 5495,
      "identified": 5496,
      "tam": 5497,
      "##rative": 5498,
      "compr": 5499,
      "speech": 5500,
      "nuclear": 5501,
      "youth": 5502,
      "##ev": 5503,
      "anth": 5504,
      "trail": 5505,
      "opin": 5506,
      "expans": 5507,
      "medal": 5508,
      "represented": 5509,
      "95": 5510,
      "cub": 5511,
      "ow": 5512,
      "##ym": 5513,
      "pros": 5514,
      "##ordin": 5515,
      "register": 5516,
      "fellow": 5517,
      "herself": 5518,
      "2nd": 5519,
      "dream": 5520,
      "mort": 5521,
      "places": 5522,
      "sport": 5523,
      "image": 5524,
      "actors": 5525,
      "landing": 5526,
      "analys": 5527,
      "manufact": 5528,
      "hat": 5529,
      "jul": 5530,
      "nations": 5531,
      "ton": 5532,
      "##ano": 5533,
      "##isers": 5534,
      "interact": 5535,
      "worldwide": 5536,
      "wilson": 5537,
      "simply": 5538,
      "hair": 5539,
      "von": 5540,
      "##egr": 5541,
      "##iana": 5542,
      "##ancing": 5543,
      "strike": 5544,
      "narrow": 5545,
      "korean": 5546,
      "wave": 5547,
      "doing": 5548,
      "entr": 5549,
      "palace": 5550,
      "independence": 5551,
      "creating": 5552,
      "##ece": 5553,
      "spr": 5554,
      "scoring": 5555,
      "wars": 5556,
      "1970s": 5557,
      "expressed": 5558,
      "injury": 5559,
      "mul": 5560,
      "soul": 5561,
      "tay": 5562,
      "##icip": 5563,
      "##omers": 5564,
      "mounted": 5565,
      "condition": 5566,
      "eld": 5567,
      "##wall": 5568,
      "why": 5569,
      "trying": 5570,
      "contained": 5571,
      "criticized": 5572,
      "situation": 5573,
      "normal": 5574,
      "##osaur": 5575,
      "leaves": 5576,
      "cooper": 5577,
      "operated": 5578,
      "trees": 5579,
      "newspaper": 5580,
      "repeated": 5581,
      "hockey": 5582,
      "il": 5583,
      "mit": 5584,
      "##cel": 5585,
      "notable": 5586,
      "compar": 5587,
      "polish": 5588,
      "protection": 5589,
      "flooding": 5590,
      "couple": 5591,
      "elizabeth": 5592,
      "bol": 5593,
      "fuel": 5594,
      "##wise": 5595,
      "##ete": 5596,
      "columb": 5597,
      "laid": 5598,
      "agreement": 5599,
      "alexander": 5600,
      "surrounding": 5601,
      "lem": 5602,
      "##lines": 5603,
      "##gers": 5604,
      "##ighth": 5605,
      "agric": 5606,
      "barb": 5607,
      "opposed": 5608,
      "motion": 5609,
      "##ylv": 5610,
      "robin": 5611,
      "jon": 5612,
      "pian": 5613,
      "##more": 5614,
      "officially": 5615,
      "causing": 5616,
      "activities": 5617,
      "challeng": 5618,
      "fal": 5619,
      "lady": 5620,
      "##room": 5621,
      "##erse": 5622,
      "spin": 5623,
      "brid": 5624,
      "1988": 5625,
      "technology": 5626,
      "vote": 5627,
      "aim": 5628,
      "##water": 5629,
      "supre": 5630,
      "frequently": 5631,
      "gord": 5632,
      "##where": 5633,
      "##illy": 5634,
      "##urb": 5635,
      "newly": 5636,
      "finish": 5637,
      "1987": 5638,
      "1944": 5639,
      "southeast": 5640,
      "losing": 5641,
      "achieved": 5642,
      "sequence": 5643,
      "casual": 5644,
      "assembly": 5645,
      "kilometres": 5646,
      "bc": 5647,
      "sr": 5648,
      "##under": 5649,
      "##stone": 5650,
      "lew": 5651,
      "##gend": 5652,
      "parall": 5653,
      "##ledge": 5654,
      "1940": 5655,
      "versions": 5656,
      "baseball": 5657,
      "regarded": 5658,
      "97": 5659,
      "gross": 5660,
      "lind": 5661,
      "chose": 5662,
      "##izes": 5663,
      "##ocked": 5664,
      "cricket": 5665,
      "150": 5666,
      "georg": 5667,
      "bac": 5668,
      "kid": 5669,
      "kick": 5670,
      "rhy": 5671,
      "sher": 5672,
      "sail": 5673,
      "##ava": 5674,
      "setting": 5675,
      "myth": 5676,
      "possibly": 5677,
      "volume": 5678,
      "girls": 5679,
      "agricult": 5680,
      "54": 5681,
      "aid": 5682,
      "ble": 5683,
      "faced": 5684,
      "##ule": 5685,
      "defin": 5686,
      "supply": 5687,
      "##fully": 5688,
      "republican": 5689,
      "##worth": 5690,
      "straight": 5691,
      "ba": 5692,
      "arc": 5693,
      "spread": 5694,
      "aired": 5695,
      "southwest": 5696,
      "serving": 5697,
      "oppos": 5698,
      "carolina": 5699,
      "dub": 5700,
      "gill": 5701,
      "##iles": 5702,
      "##uls": 5703,
      "accident": 5704,
      "emph": 5705,
      "famil": 5706,
      "prompt": 5707,
      "perfect": 5708,
      "76": 5709,
      "mist": 5710,
      "tab": 5711,
      "##oman": 5712,
      "consequ": 5713,
      "join": 5714,
      "foundation": 5715,
      "christmas": 5716,
      "ec": 5717,
      "lap": 5718,
      "##isters": 5719,
      "##acher": 5720,
      "##ayer": 5721,
      "##emic": 5722,
      "##ends": 5723,
      "nob": 5724,
      "fully": 5725,
      "##onents": 5726,
      "##oty": 5727,
      "chor": 5728,
      "interchange": 5729,
      "snow": 5730,
      "institute": 5731,
      "website": 5732,
      "53": 5733,
      "aer": 5734,
      "gib": 5735,
      "zone": 5736,
      "##mark": 5737,
      "##aly": 5738,
      "##agan": 5739,
      "arthur": 5740,
      "legend": 5741,
      "try": 5742,
      "poly": 5743,
      "miller": 5744,
      "##engt": 5745,
      "calc": 5746,
      "billion": 5747,
      "contributed": 5748,
      "daniel": 5749,
      "sud": 5750,
      "shell": 5751,
      "##intend": 5752,
      "1990s": 5753,
      "restrict": 5754,
      "homes": 5755,
      "budget": 5756,
      "mig": 5757,
      "##isc": 5758,
      "##iled": 5759,
      "heard": 5760,
      "filmed": 5761,
      "##azz": 5762,
      "appearances": 5763,
      "distingu": 5764,
      "expanded": 5765,
      "advant": 5766,
      "sky": 5767,
      "request": 5768,
      "standing": 5769,
      "66": 5770,
      "cd": 5771,
      "nav": 5772,
      "fresh": 5773,
      "consecutive": 5774,
      "surre": 5775,
      "justice": 5776,
      "younger": 5777,
      "fame": 5778,
      "gather": 5779,
      "rise": 5780,
      "sell": 5781,
      "##rid": 5782,
      "chance": 5783,
      "ends": 5784,
      "famous": 5785,
      "1970": 5786,
      "crossing": 5787,
      "commissioned": 5788,
      "urban": 5789,
      "expansion": 5790,
      "habit": 5791,
      "lic": 5792,
      "roles": 5793,
      "andrew": 5794,
      "##amm": 5795,
      "unus": 5796,
      "attrib": 5797,
      "effective": 5798,
      "criticism": 5799,
      "split": 5800,
      "600": 5801,
      "ax": 5802,
      "##ias": 5803,
      "retired": 5804,
      "orders": 5805,
      "democratic": 5806,
      "800": 5807,
      "tail": 5808,
      "vice": 5809,
      "##uce": 5810,
      "##ote": 5811,
      "contain": 5812,
      "relief": 5813,
      "##resp": 5814,
      "planning": 5815,
      "61": 5816,
      "ga": 5817,
      "page": 5818,
      "weak": 5819,
      "receive": 5820,
      "holly": 5821,
      "cannot": 5822,
      "##ylvania": 5823,
      "emphas": 5824,
      "dan": 5825,
      "##oted": 5826,
      "franch": 5827,
      "##umber": 5828,
      "cloud": 5829,
      "moon": 5830,
      "cambridge": 5831,
      "abandoned": 5832,
      "dim": 5833,
      "hur": 5834,
      "##hew": 5835,
      "##oma": 5836,
      "##ola": 5837,
      "recently": 5838,
      "##pton": 5839,
      "web": 5840,
      "consists": 5841,
      "178": 5842,
      "explos": 5843,
      "growing": 5844,
      "granted": 5845,
      "citizens": 5846,
      "##awa": 5847,
      "depict": 5848,
      "killing": 5849,
      "experiment": 5850,
      "hits": 5851,
      "rival": 5852,
      "##sw": 5853,
      "##inity": 5854,
      "##rel": 5855,
      "##outs": 5856,
      "revol": 5857,
      "supporting": 5858,
      "penal": 5859,
      "colonel": 5860,
      "measure": 5861,
      "dismiss": 5862,
      "drop": 5863,
      "hip": 5864,
      "tell": 5865,
      "##omy": 5866,
      "##uses": 5867,
      "##anda": 5868,
      "prefer": 5869,
      "actress": 5870,
      "remix": 5871,
      "basis": 5872,
      "mike": 5873,
      "individuals": 5874,
      "safety": 5875,
      "taylor": 5876,
      "##yle": 5877,
      "braz": 5878,
      "adapt": 5879,
      "secondary": 5880,
      "summ": 5881,
      "brian": 5882,
      "powers": 5883,
      "57": 5884,
      "##oration": 5885,
      "orb": 5886,
      "computer": 5887,
      "heads": 5888,
      "regional": 5889,
      "honour": 5890,
      "extrem": 5891,
      "risk": 5892,
      "library": 5893,
      "bishop": 5894,
      "bodies": 5895,
      "drew": 5896,
      "gh": 5897,
      "gulf": 5898,
      "nest": 5899,
      "##stream": 5900,
      "exchange": 5901,
      "centuries": 5902,
      "177": 5903,
      "classic": 5904,
      "##ription": 5905,
      "ideas": 5906,
      "successfully": 5907,
      "negative": 5908,
      "participated": 5909,
      "tag": 5910,
      "##oses": 5911,
      "##estic": 5912,
      "seat": 5913,
      "roof": 5914,
      "agent": 5915,
      "bands": 5916,
      "reference": 5917,
      "cultural": 5918,
      "briefly": 5919,
      "battery": 5920,
      "fro": 5921,
      "gives": 5922,
      "##iate": 5923,
      "##ici": 5924,
      "max": 5925,
      "volcan": 5926,
      "failure": 5927,
      "determined": 5928,
      "56": 5929,
      "gate": 5930,
      "##och": 5931,
      "thing": 5932,
      "heat": 5933,
      "harry": 5934,
      "treaty": 5935,
      "literature": 5936,
      "shooting": 5937,
      "scheduled": 5938,
      "gain": 5939,
      "##lers": 5940,
      "##itan": 5941,
      "##ading": 5942,
      "##akers": 5943,
      "contest": 5944,
      "champion": 5945,
      "necessary": 5946,
      "3rd": 5947,
      "##laim": 5948,
      "##heim": 5949,
      "throw": 5950,
      "##utation": 5951,
      "sund": 5952,
      "singing": 5953,
      "describes": 5954,
      "mentioned": 5955,
      "chamber": 5956,
      "families": 5957,
      "##onent": 5958,
      "brand": 5959,
      "locations": 5960,
      "extensive": 5961,
      "finds": 5962,
      "rolling": 5963,
      "85": 5964,
      "bom": 5965,
      "fash": 5966,
      "horn": 5967,
      "males": 5968,
      "ori": 5969,
      "creation": 5970,
      "1969": 5971,
      "weekly": 5972,
      "virt": 5973,
      "weakened": 5974,
      "az": 5975,
      "core": 5976,
      "##ko": 5977,
      "##aling": 5978,
      "##ulate": 5979,
      "##umes": 5980,
      "quite": 5981,
      "instruct": 5982,
      "skin": 5983,
      "eyes": 5984,
      "penns": 5985,
      "benef": 5986,
      "jr": 5987,
      "##eper": 5988,
      "##han": 5989,
      "##hol": 5990,
      "##uate": 5991,
      "##bi": 5992,
      "perman": 5993,
      "follows": 5994,
      "sets": 5995,
      "leadership": 5996,
      "1972": 5997,
      "protect": 5998,
      "##hens": 5999,
      "commonly": 6000,
      "authorities": 6001,
      "females": 6002,
      "58": 6003,
      "dial": 6004,
      "hind": 6005,
      "lad": 6006,
      "rand": 6007,
      "ts": 6008,
      "##rad": 6009,
      "##ington": 6010,
      "prote": 6011,
      "teach": 6012,
      "performing": 6013,
      "railroad": 6014,
      "irish": 6015,
      "painting": 6016,
      "witness": 6017,
      "liverpool": 6018,
      "62": 6019,
      "caught": 6020,
      "##rane": 6021,
      "##orters": 6022,
      "online": 6023,
      "##agn": 6024,
      "excl": 6025,
      "sche": 6026,
      "allies": 6027,
      "upgr": 6028,
      "titles": 6029,
      "organized": 6030,
      "72": 6031,
      "banks": 6032,
      "save": 6033,
      "##ram": 6034,
      "##zy": 6035,
      "atm": 6036,
      "unique": 6037,
      "province": 6038,
      "turns": 6039,
      "solo": 6040,
      "facilities": 6041,
      "rub": 6042,
      "1939": 6043,
      "rebu": 6044,
      "garden": 6045,
      "bes": 6046,
      "caval": 6047,
      "jenn": 6048,
      "nap": 6049,
      "oak": 6050,
      "##set": 6051,
      "##jo": 6052,
      "##ocated": 6053,
      "incident": 6054,
      "perh": 6055,
      "disney": 6056,
      "decre": 6057,
      "1983": 6058,
      "trip": 6059,
      "mountains": 6060,
      "freedom": 6061,
      "gordon": 6062,
      "##tv": 6063,
      "##ira": 6064,
      "rejected": 6065,
      "##osh": 6066,
      "genus": 6067,
      "belong": 6068,
      "picture": 6069,
      "degree": 6070,
      "wounded": 6071,
      "fashion": 6072,
      "perhaps": 6073,
      "map": 6074,
      "ridge": 6075,
      "tact": 6076,
      "120": 6077,
      "visual": 6078,
      "purchased": 6079,
      "principal": 6080,
      "disease": 6081,
      "ron": 6082,
      "session": 6083,
      "##bn": 6084,
      "1967": 6085,
      "1971": 6086,
      "types": 6087,
      "hope": 6088,
      "rapidly": 6089,
      "91": 6090,
      "pier": 6091,
      "rare": 6092,
      "##greg": 6093,
      "##inum": 6094,
      "##ato": 6095,
      "##ivity": 6096,
      "patrol": 6097,
      "hyp": 6098,
      "sites": 6099,
      "entirely": 6100,
      "launch": 6101,
      "supreme": 6102,
      "gay": 6103,
      "##err": 6104,
      "##once": 6105,
      "##eless": 6106,
      "knight": 6107,
      "1985": 6108,
      "1966": 6109,
      "grey": 6110,
      "industrial": 6111,
      "temperature": 6112,
      "adopted": 6113,
      "kings": 6114,
      "mand": 6115,
      "sort": 6116,
      "##aven": 6117,
      "glass": 6118,
      "philos": 6119,
      "touchdown": 6120,
      "reinfor": 6121,
      "##ja": 6122,
      "##itled": 6123,
      "sha": 6124,
      "goes": 6125,
      "##issance": 6126,
      "transform": 6127,
      "##box": 6128,
      "suggests": 6129,
      "freeway": 6130,
      "alternative": 6131,
      "lewis": 6132,
      "eag": 6133,
      "hay": 6134,
      "##kins": 6135,
      "##arm": 6136,
      "##istics": 6137,
      "integr": 6138,
      "boys": 6139,
      "strengt": 6140,
      "1968": 6141,
      "corresp": 6142,
      "swit": 6143,
      "1918": 6144,
      "currently": 6145,
      "journey": 6146,
      "regarding": 6147,
      "existing": 6148,
      "intelligence": 6149,
      "atmosp": 6150,
      "correspond": 6151,
      "bern": 6152,
      "drawn": 6153,
      "##inn": 6154,
      "##elve": 6155,
      "##oln": 6156,
      "chronic": 6157,
      "##unk": 6158,
      "##unte": 6159,
      "twelve": 6160,
      "volunte": 6161,
      "connected": 6162,
      "##burgh": 6163,
      "acquired": 6164,
      "pennsylvania": 6165,
      "fought": 6166,
      "gri": 6167,
      "jac": 6168,
      "##een": 6169,
      "##zant": 6170,
      "shape": 6171,
      "adap": 6172,
      "firm": 6173,
      "generation": 6174,
      "##shire": 6175,
      "controlled": 6176,
      "improved": 6177,
      "scholars": 6178,
      "roughly": 6179,
      "##zen": 6180,
      "##het": 6181,
      "##onic": 6182,
      "byzant": 6183,
      "boats": 6184,
      "didn": 6185,
      "1964": 6186,
      "##adelph": 6187,
      "advantage": 6188,
      "table": 6189,
      "##eed": 6190,
      "##iro": 6191,
      "thin": 6192,
      "##iful": 6193,
      "repair": 6194,
      "knew": 6195,
      "engaged": 6196,
      "crime": 6197,
      "depth": 6198,
      "protected": 6199,
      "everything": 6200,
      "judge": 6201,
      "ohio": 6202,
      "ka": 6203,
      "##fort": 6204,
      "##ilton": 6205,
      "advert": 6206,
      "gray": 6207,
      "##oking": 6208,
      "guy": 6209,
      "calls": 6210,
      "arrival": 6211,
      "campus": 6212,
      "towns": 6213,
      "solid": 6214,
      "profess": 6215,
      "philadelph": 6216,
      "jewish": 6217,
      "task": 6218,
      "sustained": 6219,
      "opinion": 6220,
      "ok": 6221,
      "##rons": 6222,
      "##atures": 6223,
      "unl": 6224,
      "##attle": 6225,
      "landfall": 6226,
      "evening": 6227,
      "beyonce": 6228,
      "franchise": 6229,
      "brazil": 6230,
      "dip": 6231,
      "linc": 6232,
      "ward": 6233,
      "##lusion": 6234,
      "plants": 6235,
      "gameplay": 6236,
      "1986": 6237,
      "letters": 6238,
      "missing": 6239,
      "falls": 6240,
      "utc": 6241,
      "analysis": 6242,
      "lit": 6243,
      "om": 6244,
      "worth": 6245,
      "providing": 6246,
      "##arked": 6247,
      "belief": 6248,
      "equal": 6249,
      "charts": 6250,
      "philipp": 6251,
      "unsu": 6252,
      "experienced": 6253,
      "converted": 6254,
      "philadelphia": 6255,
      "vac": 6256,
      "recru": 6257,
      "defined": 6258,
      "watched": 6259,
      "jean": 6260,
      "historians": 6261,
      "russia": 6262,
      "intensity": 6263,
      "withdraw": 6264,
      "global": 6265,
      "63": 6266,
      "cad": 6267,
      "code": 6268,
      "fix": 6269,
      "hem": 6270,
      "nhl": 6271,
      "alle": 6272,
      "playoff": 6273,
      "themes": 6274,
      "steve": 6275,
      "surviv": 6276,
      "employed": 6277,
      "enjoyed": 6278,
      "purpose": 6279,
      "dedicated": 6280,
      "kir": 6281,
      "ped": 6282,
      "wed": 6283,
      "##rich": 6284,
      "##any": 6285,
      "stages": 6286,
      "##iform": 6287,
      "containing": 6288,
      "resemb": 6289,
      "dram": 6290,
      "typh": 6291,
      "occur": 6292,
      "penins": 6293,
      "focused": 6294,
      "learned": 6295,
      "vehicles": 6296,
      "opportunity": 6297,
      "casualties": 6298,
      "asia": 6299,
      "##eman": 6300,
      "trains": 6301,
      "graph": 6302,
      "resour": 6303,
      "acts": 6304,
      "consc": 6305,
      "regions": 6306,
      "junior": 6307,
      "household": 6308,
      "limit": 6309,
      "olympic": 6310,
      "succeeded": 6311,
      "59": 6312,
      "##ua": 6313,
      "##iments": 6314,
      "shr": 6315,
      "exerc": 6316,
      "wealth": 6317,
      "norway": 6318,
      "germans": 6319,
      "anything": 6320,
      "moder": 6321,
      "protest": 6322,
      "coastal": 6323,
      "folk": 6324,
      "fighter": 6325,
      "naz": 6326,
      "sie": 6327,
      "deploy": 6328,
      "reserv": 6329,
      "consum": 6330,
      "survey": 6331,
      "developing": 6332,
      "provides": 6333,
      "internal": 6334,
      "prisoners": 6335,
      "scientific": 6336,
      "walter": 6337,
      "increasingly": 6338,
      "georgia": 6339,
      "surrender": 6340,
      "mode": 6341,
      "##aver": 6342,
      "##iday": 6343,
      "##ender": 6344,
      "pret": 6345,
      "specim": 6346,
      "holding": 6347,
      "structures": 6348,
      "hart": 6349,
      "ken": 6350,
      "ot": 6351,
      "rated": 6352,
      "sed": 6353,
      "sad": 6354,
      "##kes": 6355,
      "##pi": 6356,
      "##asa": 6357,
      "shared": 6358,
      "descend": 6359,
      "poem": 6360,
      "##leton": 6361,
      "championships": 6362,
      "stopped": 6363,
      "resistance": 6364,
      "cavalry": 6365,
      "lincoln": 6366,
      "99": 6367,
      "eighth": 6368,
      "fine": 6369,
      "outer": 6370,
      "sab": 6371,
      "tenn": 6372,
      "##elly": 6373,
      "flat": 6374,
      "brook": 6375,
      "adding": 6376,
      "simple": 6377,
      "1984": 6378,
      "stret": 6379,
      "neverthel": 6380,
      "selection": 6381,
      "architecture": 6382,
      "nevertheless": 6383,
      "gang": 6384,
      "lb": 6385,
      "nintend": 6386,
      "##pa": 6387,
      "##eds": 6388,
      "##amin": 6389,
      "isol": 6390,
      "##aine": 6391,
      "reputation": 6392,
      "1960": 6393,
      "turning": 6394,
      "getting": 6395,
      "camera": 6396,
      "merch": 6397,
      "duty": 6398,
      "reaction": 6399,
      "liberal": 6400,
      "67": 6401,
      "ss": 6402,
      "whit": 6403,
      "conqu": 6404,
      "seems": 6405,
      "exact": 6406,
      "desert": 6407,
      "ways": 6408,
      "humans": 6409,
      "easily": 6410,
      "corner": 6411,
      "semi": 6412,
      "prepared": 6413,
      "parallel": 6414,
      "hug": 6415,
      "rum": 6416,
      "##gun": 6417,
      "##wart": 6418,
      "##ceived": 6419,
      "enem": 6420,
      "ell": 6421,
      "receiving": 6422,
      "approved": 6423,
      "hills": 6424,
      "faith": 6425,
      "breeding": 6426,
      "responded": 6427,
      "nintendo": 6428,
      "ari": 6429,
      "cens": 6430,
      "hired": 6431,
      "##iger": 6432,
      "##ignment": 6433,
      "blues": 6434,
      "engines": 6435,
      "publication": 6436,
      "allows": 6437,
      "equival": 6438,
      "finding": 6439,
      "rules": 6440,
      "religion": 6441,
      "francisco": 6442,
      "supplies": 6443,
      "98": 6444,
      "##iny": 6445,
      "trou": 6446,
      "enl": 6447,
      "estate": 6448,
      "headed": 6449,
      "earliest": 6450,
      "unsuccess": 6451,
      "jam": 6452,
      "inner": 6453,
      "shaped": 6454,
      "##illa": 6455,
      "##aka": 6456,
      "basic": 6457,
      "specifically": 6458,
      "corporation": 6459,
      "vic": 6460,
      "##atus": 6461,
      "anderson": 6462,
      "##etts": 6463,
      "##antly": 6464,
      "18th": 6465,
      "cars": 6466,
      "interior": 6467,
      "maintain": 6468,
      "1920": 6469,
      "bush": 6470,
      "##onym": 6471,
      "recognized": 6472,
      "existence": 6473,
      "rhodes": 6474,
      "occupied": 6475,
      "symbol": 6476,
      "eggs": 6477,
      "96": 6478,
      "mouth": 6479,
      "##ware": 6480,
      "##usc": 6481,
      "plac": 6482,
      "wheel": 6483,
      "joe": 6484,
      "1973": 6485,
      "demand": 6486,
      "##encies": 6487,
      "wickets": 6488,
      "##oster": 6489,
      "ago": 6490,
      "defensive": 6491,
      "collected": 6492,
      "1919": 6493,
      "1915": 6494,
      "hung": 6495,
      "technical": 6496,
      "credit": 6497,
      "synt": 6498,
      "cabin": 6499,
      "candidate": 6500,
      "cryst": 6501,
      "piano": 6502,
      "pound": 6503,
      "##icide": 6504,
      "##ompl": 6505,
      "##istan": 6506,
      "bright": 6507,
      "##achus": 6508,
      "decade": 6509,
      "1980": 6510,
      "deter": 6511,
      "confron": 6512,
      "declined": 6513,
      "violence": 6514,
      "bull": 6515,
      "lis": 6516,
      "ross": 6517,
      "##olis": 6518,
      "##ipe": 6519,
      "marine": 6520,
      "evil": 6521,
      "flu": 6522,
      "secure": 6523,
      "##ucky": 6524,
      "storyline": 6525,
      "archae": 6526,
      "buried": 6527,
      "losses": 6528,
      "closely": 6529,
      "renamed": 6530,
      "77": 6531,
      "##aud": 6532,
      "##taining": 6533,
      "phase": 6534,
      "1979": 6535,
      "details": 6536,
      "dougl": 6537,
      "colonial": 6538,
      "kim": 6539,
      "##inger": 6540,
      "thor": 6541,
      "proceed": 6542,
      "adam": 6543,
      "##mann": 6544,
      "subs": 6545,
      "1946": 6546,
      "160": 6547,
      "restaur": 6548,
      "massachus": 6549,
      "inspir": 6550,
      "economy": 6551,
      "bottom": 6552,
      "delivered": 6553,
      "hydro": 6554,
      "enemies": 6555,
      "massachusetts": 6556,
      "73": 6557,
      "fit": 6558,
      "na": 6559,
      "nic": 6560,
      "nam": 6561,
      "rome": 6562,
      "sections": 6563,
      "wides": 6564,
      "##hr": 6565,
      "frag": 6566,
      "shut": 6567,
      "price": 6568,
      "syd": 6569,
      "classes": 6570,
      "windows": 6571,
      "basket": 6572,
      "typical": 6573,
      "paint": 6574,
      "reading": 6575,
      "injured": 6576,
      "gradually": 6577,
      "sharp": 6578,
      "81": 6579,
      "cow": 6580,
      "pear": 6581,
      "vent": 6582,
      "##fri": 6583,
      "##okes": 6584,
      "guide": 6585,
      "showing": 6586,
      "simps": 6587,
      "clean": 6588,
      "statement": 6589,
      "labour": 6590,
      "knowledge": 6591,
      "admitted": 6592,
      "pitch": 6593,
      "intersection": 6594,
      "simpsons": 6595,
      "87": 6596,
      "jes": 6597,
      "ryan": 6598,
      "##eton": 6599,
      "shop": 6600,
      "neut": 6601,
      "deck": 6602,
      "warning": 6603,
      "retained": 6604,
      "capable": 6605,
      "1938": 6606,
      "viewed": 6607,
      "slowly": 6608,
      "drug": 6609,
      "rural": 6610,
      "##ients": 6611,
      "##icit": 6612,
      "thunder": 6613,
      "##station": 6614,
      "##ador": 6615,
      "##othes": 6616,
      "##istol": 6617,
      "##ieval": 6618,
      "musl": 6619,
      "medieval": 6620,
      "magic": 6621,
      "additionally": 6622,
      "projects": 6623,
      "hitler": 6624,
      "##garian": 6625,
      "assistant": 6626,
      "challenge": 6627,
      "thirty": 6628,
      "wrestling": 6629,
      "accompanied": 6630,
      "79": 6631,
      "##iences": 6632,
      "##oked": 6633,
      "retire": 6634,
      "highlight": 6635,
      "entitled": 6636,
      "presidential": 6637,
      "jur": 6638,
      "sons": 6639,
      "items": 6640,
      "##asty": 6641,
      "##eller": 6642,
      "acclaim": 6643,
      "##ropri": 6644,
      "colony": 6645,
      "1965": 6646,
      "##ipping": 6647,
      "tests": 6648,
      "reasons": 6649,
      "arranged": 6650,
      "columbia": 6651,
      "extremely": 6652,
      "74": 6653,
      "han": 6654,
      "##gest": 6655,
      "##ien": 6656,
      "##ras": 6657,
      "##ji": 6658,
      "bron": 6659,
      "scully": 6660,
      "gram": 6661,
      "grav": 6662,
      "teen": 6663,
      "crimin": 6664,
      "invited": 6665,
      "1975": 6666,
      "1950s": 6667,
      "causes": 6668,
      "significantly": 6669,
      "micro": 6670,
      "filled": 6671,
      "chest": 6672,
      "mint": 6673,
      "##orted": 6674,
      "lev": 6675,
      "leon": 6676,
      "mah": 6677,
      "supporters": 6678,
      "greg": 6679,
      "speaking": 6680,
      "views": 6681,
      "##ographer": 6682,
      "popularity": 6683,
      "premier": 6684,
      "purchase": 6685,
      "domestic": 6686,
      "cra": 6687,
      "pink": 6688,
      "##eb": 6689,
      "##cop": 6690,
      "##entions": 6691,
      "worst": 6692,
      "raid": 6693,
      "lasted": 6694,
      "surviving": 6695,
      "portray": 6696,
      "peninsula": 6697,
      "bid": 6698,
      "bang": 6699,
      "bath": 6700,
      "ches": 6701,
      "loy": 6702,
      "tanks": 6703,
      "##oli": 6704,
      "tra": 6705,
      "indones": 6706,
      "knots": 6707,
      "crash": 6708,
      "designs": 6709,
      "raf": 6710,
      "personnel": 6711,
      "hamilton": 6712,
      "voted": 6713,
      "settlement": 6714,
      "credited": 6715,
      "concerns": 6716,
      "substant": 6717,
      "astron": 6718,
      "68": 6719,
      "##rations": 6720,
      "##rell": 6721,
      "##sey": 6722,
      "1914": 6723,
      "deaths": 6724,
      "ruled": 6725,
      "objects": 6726,
      "literary": 6727,
      "carrying": 6728,
      "700": 6729,
      "##inary": 6730,
      "attached": 6731,
      "flash": 6732,
      "acid": 6733,
      "poland": 6734,
      "operating": 6735,
      "constit": 6736,
      "1962": 6737,
      "autom": 6738,
      "routes": 6739,
      "##inking": 6740,
      "entering": 6741,
      "speak": 6742,
      "confeder": 6743,
      "similarly": 6744,
      "funds": 6745,
      "##pread": 6746,
      "platinum": 6747,
      "feeling": 6748,
      "diamond": 6749,
      "ceremony": 6750,
      "exclus": 6751,
      "widespread": 6752,
      "ak": 6753,
      "foss": 6754,
      "wings": 6755,
      "clark": 6756,
      "composition": 6757,
      "grade": 6758,
      "playstation": 6759,
      "1981": 6760,
      "eleven": 6761,
      "authors": 6762,
      "combination": 6763,
      "moore": 6764,
      "promotion": 6765,
      "princess": 6766,
      "threatened": 6767,
      "investigation": 6768,
      "kentucky": 6769,
      "passenger": 6770,
      "documentary": 6771,
      "rhyth": 6772,
      "typhoon": 6773,
      "jay": 6774,
      "mine": 6775,
      "sale": 6776,
      "##va": 6777,
      "##ping": 6778,
      "shall": 6779,
      "spons": 6780,
      "carey": 6781,
      "norwe": 6782,
      "130": 6783,
      "correct": 6784,
      "demol": 6785,
      "circulation": 6786,
      "connect": 6787,
      "producing": 6788,
      "denied": 6789,
      "occasionally": 6790,
      "hollywood": 6791,
      "89": 6792,
      "gets": 6793,
      "rivers": 6794,
      "util": 6795,
      "##met": 6796,
      "##put": 6797,
      "singap": 6798,
      "models": 6799,
      "1963": 6800,
      "1976": 6801,
      "1917": 6802,
      "convection": 6803,
      "250": 6804,
      "bridges": 6805,
      "dated": 6806,
      "hull": 6807,
      "kit": 6808,
      "none": 6809,
      "##iques": 6810,
      "##nic": 6811,
      "##oz": 6812,
      "##wick": 6813,
      "##rec": 6814,
      "##adow": 6815,
      "ready": 6816,
      "fruit": 6817,
      "##una": 6818,
      "arsen": 6819,
      "brain": 6820,
      "scar": 6821,
      "genre": 6822,
      "dress": 6823,
      "obtained": 6824,
      "1982": 6825,
      "110": 6826,
      "##ologist": 6827,
      "1974": 6828,
      "crossed": 6829,
      "applied": 6830,
      "journalist": 6831,
      "mulder": 6832,
      "71": 6833,
      "mtv": 6834,
      "rene": 6835,
      "##bl": 6836,
      "##roll": 6837,
      "##ivals": 6838,
      "##rif": 6839,
      "margin": 6840,
      "shear": 6841,
      "address": 6842,
      "entry": 6843,
      "posted": 6844,
      "batman": 6845,
      "beautiful": 6846,
      "entrance": 6847,
      "82": 6848,
      "hell": 6849,
      "torn": 6850,
      "##eral": 6851,
      "##ima": 6852,
      "agency": 6853,
      "evolution": 6854,
      "buff": 6855,
      "oldest": 6856,
      "garrison": 6857,
      "indiana": 6858,
      "olympics": 6859,
      "composer": 6860,
      "equivalent": 6861,
      "86": 6862,
      "dor": 6863,
      "hms": 6864,
      "##oard": 6865,
      "##burn": 6866,
      "grass": 6867,
      "parties": 6868,
      "sax": 6869,
      "install": 6870,
      "returns": 6871,
      "streets": 6872,
      "1916": 6873,
      "elections": 6874,
      "products": 6875,
      "##bourne": 6876,
      "##break": 6877,
      "93": 6878,
      "dates": 6879,
      "##lav": 6880,
      "##oir": 6881,
      "##mouth": 6882,
      "##bound": 6883,
      "##ati": 6884,
      "##atch": 6885,
      "##ushing": 6886,
      "intention": 6887,
      "interp": 6888,
      "actual": 6889,
      "forming": 6890,
      "accur": 6891,
      "winner": 6892,
      "1936": 6893,
      "programme": 6894,
      "departure": 6895,
      "nomination": 6896,
      "segment": 6897,
      "##borne": 6898,
      "ri": 6899,
      "raw": 6900,
      "##tar": 6901,
      "##time": 6902,
      "submar": 6903,
      "implement": 6904,
      "1961": 6905,
      "harv": 6906,
      "portug": 6907,
      "swim": 6908,
      "describing": 6909,
      "certified": 6910,
      "favorite": 6911,
      "##western": 6912,
      "##ito": 6913,
      "##str": 6914,
      "bears": 6915,
      "hear": 6916,
      "amend": 6917,
      "accused": 6918,
      "assert": 6919,
      "subt": 6920,
      "writes": 6921,
      "armour": 6922,
      "1950": 6923,
      "approached": 6924,
      "vessels": 6925,
      "thousands": 6926,
      "adapted": 6927,
      "douglas": 6928,
      "bos": 6929,
      "##rant": 6930,
      "neither": 6931,
      "studied": 6932,
      "divisions": 6933,
      "1930s": 6934,
      "programs": 6935,
      "survived": 6936,
      "premiere": 6937,
      "replacement": 6938,
      "cited": 6939,
      "dal": 6940,
      "rar": 6941,
      "races": 6942,
      "sin": 6943,
      "##acks": 6944,
      "barr": 6945,
      "nether": 6946,
      "exception": 6947,
      "happy": 6948,
      "concerned": 6949,
      "consisting": 6950,
      "singapore": 6951,
      "69": 6952,
      "jane": 6953,
      "wwe": 6954,
      "##inces": 6955,
      "islam": 6956,
      "songwrit": 6957,
      "quant": 6958,
      "acres": 6959,
      "deput": 6960,
      "1956": 6961,
      "##agonist": 6962,
      "baby": 6963,
      "orchestra": 6964,
      "professor": 6965,
      "sydney": 6966,
      "cou": 6967,
      "hang": 6968,
      "##sa": 6969,
      "##rig": 6970,
      "##alf": 6971,
      "decades": 6972,
      "dragon": 6973,
      "owner": 6974,
      "myst": 6975,
      "occurs": 6976,
      "##erged": 6977,
      "introduction": 6978,
      "remainder": 6979,
      "emerged": 6980,
      "emergency": 6981,
      "giant": 6982,
      "conservative": 6983,
      "kennedy": 6984,
      "sleep": 6985,
      "88": 6986,
      "lam": 6987,
      "sessions": 6988,
      "shots": 6989,
      "##aki": 6990,
      "charges": 6991,
      "continuing": 6992,
      "1930": 6993,
      "controversy": 6994,
      "incorporated": 6995,
      "proposal": 6996,
      "permanent": 6997,
      "dele": 6998,
      "##iling": 6999,
      "##etime": 7000,
      "##ighters": 7001,
      "##aked": 7002,
      "orange": 7003,
      "plate": 7004,
      "enfor": 7005,
      "afterwards": 7006,
      "formula": 7007,
      "throne": 7008,
      "buy": 7009,
      "someone": 7010,
      "ackn": 7011,
      "populations": 7012,
      "1978": 7013,
      "universal": 7014,
      "connection": 7015,
      "transportation": 7016,
      "maryland": 7017,
      "chapel": 7018,
      "norwegian": 7019,
      "acknow": 7020,
      "4th": 7021,
      "lock": 7022,
      "wel": 7023,
      "##yard": 7024,
      "##rets": 7025,
      "alf": 7026,
      "comics": 7027,
      "##ctions": 7028,
      "serb": 7029,
      "preced": 7030,
      "driving": 7031,
      "downlo": 7032,
      "convoy": 7033,
      "##book": 7034,
      "trophy": 7035,
      "politics": 7036,
      "animated": 7037,
      "holy": 7038,
      "improve": 7039,
      "chapter": 7040,
      "bringing": 7041,
      "94": 7042,
      "las": 7043,
      "lenn": 7044,
      "wond": 7045,
      "##idden": 7046,
      "bear": 7047,
      "mars": 7048,
      "##iley": 7049,
      "decor": 7050,
      "secured": 7051,
      "remember": 7052,
      "assumed": 7053,
      "downtown": 7054,
      "ports": 7055,
      "##apping": 7056,
      "1937": 7057,
      "##after": 7058,
      "fields": 7059,
      "bombard": 7060,
      "temperatures": 7061,
      "message": 7062,
      "pleas": 7063,
      "ninth": 7064,
      "negoti": 7065,
      "chorus": 7066,
      "basketball": 7067,
      "deleg": 7068,
      "##ds": 7069,
      "##rest": 7070,
      "##ora": 7071,
      "##irt": 7072,
      "reun": 7073,
      "interested": 7074,
      "##ifications": 7075,
      "passage": 7076,
      "collect": 7077,
      "starts": 7078,
      "factor": 7079,
      "engineering": 7080,
      "environmental": 7081,
      "robinson": 7082,
      "vul": 7083,
      "##rus": 7084,
      "##cement": 7085,
      "##po": 7086,
      "shield": 7087,
      "##abled": 7088,
      "##ella": 7089,
      "recalled": 7090,
      "income": 7091,
      "images": 7092,
      "1948": 7093,
      "replace": 7094,
      "hunting": 7095,
      "##ez": 7096,
      "##come": 7097,
      "##wa": 7098,
      "##bar": 7099,
      "theater": 7100,
      "##apes": 7101,
      "shore": 7102,
      "scul": 7103,
      "##achment": 7104,
      "thereafter": 7105,
      "sword": 7106,
      "1958": 7107,
      "superior": 7108,
      "animation": 7109,
      "turb": 7110,
      "cruiser": 7111,
      "pictures": 7112,
      "portrayed": 7113,
      "alleged": 7114,
      "bought": 7115,
      "cul": 7116,
      "kur": 7117,
      "vision": 7118,
      "##itors": 7119,
      "ones": 7120,
      "##otic": 7121,
      "partn": 7122,
      "otherwise": 7123,
      "equipped": 7124,
      "sounds": 7125,
      "settled": 7126,
      "reduce": 7127,
      "indicated": 7128,
      "academic": 7129,
      "##ascar": 7130,
      "sweden": 7131,
      "loyal": 7132,
      "84": 7133,
      "bure": 7134,
      "wet": 7135,
      "##right": 7136,
      "##cer": 7137,
      "##uge": 7138,
      "##organ": 7139,
      "##ali": 7140,
      "scand": 7141,
      "##izations": 7142,
      "formal": 7143,
      "remn": 7144,
      "##veland": 7145,
      "universe": 7146,
      "praise": 7147,
      "mexican": 7148,
      "methods": 7149,
      "chairman": 7150,
      "behavior": 7151,
      "arsenal": 7152,
      "gone": 7153,
      "haz": 7154,
      "veter": 7155,
      "##ooth": 7156,
      "##hetic": 7157,
      "warri": 7158,
      "##aware": 7159,
      "##teenth": 7160,
      "undert": 7161,
      "phill": 7162,
      "176": 7163,
      "prize": 7164,
      "identity": 7165,
      "separated": 7166,
      "battleships": 7167,
      "resources": 7168,
      "crop": 7169,
      "ku": 7170,
      "##icate": 7171,
      "truth": 7172,
      "alliance": 7173,
      "##ensions": 7174,
      "earn": 7175,
      "##orney": 7176,
      "1947": 7177,
      "strongly": 7178,
      "affairs": 7179,
      "argent": 7180,
      "importance": 7181,
      "seeing": 7182,
      "derived": 7183,
      "accounts": 7184,
      "alien": 7185,
      "adventure": 7186,
      "gilbert": 7187,
      "diet": 7188,
      "jump": 7189,
      "rig": 7190,
      "##ran": 7191,
      "##wich": 7192,
      "##ester": 7193,
      "inher": 7194,
      "##ashed": 7195,
      "answ": 7196,
      "aboard": 7197,
      "charged": 7198,
      "cape": 7199,
      "metrop": 7200,
      "landed": 7201,
      "greatly": 7202,
      "cleveland": 7203,
      "satis": 7204,
      "discovery": 7205,
      "recognition": 7206,
      "climb": 7207,
      "ancest": 7208,
      "marshall": 7209,
      "aspects": 7210,
      "disappoint": 7211,
      "dynam": 7212,
      "vietnam": 7213,
      "bapt": 7214,
      "cells": 7215,
      "lun": 7216,
      "pel": 7217,
      "soph": 7218,
      "vary": 7219,
      "wels": 7220,
      "##emed": 7221,
      "offers": 7222,
      "simon": 7223,
      "1954": 7224,
      "weekend": 7225,
      "effectively": 7226,
      "hoped": 7227,
      "recommended": 7228,
      "wearing": 7229,
      "penalty": 7230,
      "sunday": 7231,
      "sculpt": 7232,
      "78": 7233,
      "##uan": 7234,
      "##zer": 7235,
      "##heas": 7236,
      "##ares": 7237,
      "##ersed": 7238,
      "trig": 7239,
      "marc": 7240,
      "whereas": 7241,
      "##lets": 7242,
      "12th": 7243,
      "extension": 7244,
      "attacking": 7245,
      "communist": 7246,
      "##ographic": 7247,
      "treas": 7248,
      "missions": 7249,
      "circle": 7250,
      "memory": 7251,
      "unusual": 7252,
      "au": 7253,
      "kong": 7254,
      "mud": 7255,
      "##bro": 7256,
      "maria": 7257,
      "##ansas": 7258,
      "attorney": 7259,
      "howard": 7260,
      "mayor": 7261,
      "moves": 7262,
      "door": 7263,
      "meters": 7264,
      "transition": 7265,
      "##aham": 7266,
      "classical": 7267,
      "tries": 7268,
      "differences": 7269,
      "requested": 7270,
      "falling": 7271,
      "distribution": 7272,
      "strengthen": 7273,
      "benn": 7274,
      "gle": 7275,
      "mck": 7276,
      "sid": 7277,
      "##itage": 7278,
      "##ela": 7279,
      "chain": 7280,
      "flo": 7281,
      "retreat": 7282,
      "expect": 7283,
      "courts": 7284,
      "completion": 7285,
      "legs": 7286,
      "grounds": 7287,
      "injuries": 7288,
      "attracted": 7289,
      "terminus": 7290,
      "examples": 7291,
      "neighbor": 7292,
      "ottoman": 7293,
      "06": 7294,
      "eat": 7295,
      "pav": 7296,
      "##onia": 7297,
      "##ingly": 7298,
      "175": 7299,
      "anne": 7300,
      "serves": 7301,
      "13th": 7302,
      "##rett": 7303,
      "techniques": 7304,
      "camer": 7305,
      "improv": 7306,
      "rooms": 7307,
      "chemical": 7308,
      "netherlands": 7309,
      "rab": 7310,
      "##inal": 7311,
      "##ami": 7312,
      "##char": 7313,
      "intercept": 7314,
      "fled": 7315,
      "installed": 7316,
      "17th": 7317,
      "classified": 7318,
      "breaking": 7319,
      "crosses": 7320,
      "morris": 7321,
      "difficulty": 7322,
      "properties": 7323,
      "responsibility": 7324,
      "sequel": 7325,
      "assistance": 7326,
      "dissip": 7327,
      "##osaurus": 7328,
      "inspiration": 7329,
      "92": 7330,
      "cem": 7331,
      "fu": 7332,
      "##entially": 7333,
      "##otes": 7334,
      "##agu": 7335,
      "mans": 7336,
      "##hedral": 7337,
      "impl": 7338,
      "operate": 7339,
      "##chers": 7340,
      "controversial": 7341,
      "sweet": 7342,
      "welsh": 7343,
      "pak": 7344,
      "pull": 7345,
      "##ses": 7346,
      "##ishes": 7347,
      "##omic": 7348,
      "##omot": 7349,
      "##imet": 7350,
      "##osis": 7351,
      "##opher": 7352,
      "##ortion": 7353,
      "##ables": 7354,
      "##ovic": 7355,
      "reconst": 7356,
      "upd": 7357,
      "outstanding": 7358,
      "##iversary": 7359,
      "possibility": 7360,
      "massive": 7361,
      "insur": 7362,
      "immig": 7363,
      "weapon": 7364,
      "custom": 7365,
      "scheme": 7366,
      "atmosphere": 7367,
      "lor": 7368,
      "lies": 7369,
      "tu": 7370,
      "wag": 7371,
      "##mus": 7372,
      "relative": 7373,
      "carbon": 7374,
      "mush": 7375,
      "musicians": 7376,
      "communities": 7377,
      "russell": 7378,
      "promote": 7379,
      "representative": 7380,
      "votes": 7381,
      "##works": 7382,
      "simpson": 7383,
      "##heastern": 7384,
      "fitted": 7385,
      "ira": 7386,
      "jazz": 7387,
      "kiss": 7388,
      "nba": 7389,
      "pig": 7390,
      "##ugh": 7391,
      "manner": 7392,
      "carrier": 7393,
      "flank": 7394,
      "##inton": 7395,
      "medic": 7396,
      "restored": 7397,
      "commanded": 7398,
      "clubs": 7399,
      "salv": 7400,
      "instruments": 7401,
      "navig": 7402,
      "##ranean": 7403,
      "cock": 7404,
      "dies": 7405,
      "nel": 7406,
      "stood": 7407,
      "##olitan": 7408,
      "##iva": 7409,
      "excess": 7410,
      "prey": 7411,
      "somewh": 7412,
      "pope": 7413,
      "triple": 7414,
      "1933": 7415,
      "electronic": 7416,
      "solar": 7417,
      "catch": 7418,
      "atlant": 7419,
      "considerable": 7420,
      "climate": 7421,
      "establishment": 7422,
      "rescue": 7423,
      "siege": 7424,
      "somewhat": 7425,
      "eric": 7426,
      "nfl": 7427,
      "pure": 7428,
      "sailed": 7429,
      "##riers": 7430,
      "##ogen": 7431,
      "warm": 7432,
      "underground": 7433,
      "depos": 7434,
      "advis": 7435,
      "enterpr": 7436,
      "standards": 7437,
      "easy": 7438,
      "involving": 7439,
      "needs": 7440,
      "turk": 7441,
      "racing": 7442,
      "distributed": 7443,
      "strategy": 7444,
      "opposite": 7445,
      "gap": 7446,
      "kat": 7447,
      "tied": 7448,
      "##dh": 7449,
      "##eness": 7450,
      "anton": 7451,
      "spoke": 7452,
      "recre": 7453,
      "carter": 7454,
      "joy": 7455,
      "##ropical": 7456,
      "transm": 7457,
      "obl": 7458,
      "expand": 7459,
      "##onto": 7460,
      "trials": 7461,
      "philip": 7462,
      "senator": 7463,
      "safe": 7464,
      "cancer": 7465,
      "experiences": 7466,
      "##ressed": 7467,
      "ford": 7468,
      "forb": 7469,
      "##ules": 7470,
      "##agues": 7471,
      "finishing": 7472,
      "cris": 7473,
      "locomot": 7474,
      "##urray": 7475,
      "persu": 7476,
      "1921": 7477,
      "destruction": 7478,
      "davis": 7479,
      "missed": 7480,
      "immediate": 7481,
      "learning": 7482,
      "photograph": 7483,
      "legislation": 7484,
      "hundreds": 7485,
      "attributed": 7486,
      "rhythm": 7487,
      "cant": 7488,
      "dens": 7489,
      "fab": 7490,
      "hou": 7491,
      "nich": 7492,
      "rif": 7493,
      "sight": 7494,
      "vert": 7495,
      "##gets": 7496,
      "##iant": 7497,
      "##oes": 7498,
      "andy": 7499,
      "##umin": 7500,
      "##abil": 7501,
      "monarch": 7502,
      "anniversary": 7503,
      "harris": 7504,
      "internet": 7505,
      "everyone": 7506,
      "flew": 7507,
      "circuit": 7508,
      "rebell": 7509,
      "measures": 7510,
      "nickn": 7511,
      "stanley": 7512,
      "dipl": 7513,
      "pushed": 7514,
      "##wan": 7515,
      "##fire": 7516,
      "##body": 7517,
      "begun": 7518,
      "hearing": 7519,
      "suicide": 7520,
      "prohib": 7521,
      "##illing": 7522,
      "enth": 7523,
      "indians": 7524,
      "consult": 7525,
      "driven": 7526,
      "##ucks": 7527,
      "childhood": 7528,
      "reviewers": 7529,
      "debate": 7530,
      "claiming": 7531,
      "informed": 7532,
      "reveals": 7533,
      "##inois": 7534,
      "productions": 7535,
      "apparent": 7536,
      "bh": 7537,
      "lanc": 7538,
      "vel": 7539,
      "##ione": 7540,
      "##opes": 7541,
      "committed": 7542,
      "outbreak": 7543,
      "movements": 7544,
      "supposed": 7545,
      "belt": 7546,
      "1952": 7547,
      "cycle": 7548,
      "styles": 7549,
      "wrong": 7550,
      "closer": 7551,
      "excell": 7552,
      "berlin": 7553,
      "dating": 7554,
      "gust": 7555,
      "##iel": 7556,
      "frame": 7557,
      "spending": 7558,
      "enh": 7559,
      "reprodu": 7560,
      "meat": 7561,
      "airborne": 7562,
      "drag": 7563,
      "##tenance": 7564,
      "maintenance": 7565,
      "raise": 7566,
      "visible": 7567,
      "reportedly": 7568,
      "engineer": 7569,
      "satell": 7570,
      "##going": 7571,
      "duties": 7572,
      "dynasty": 7573,
      "dangerous": 7574,
      "sudden": 7575,
      "interpret": 7576,
      "gor": 7577,
      "kl": 7578,
      "pad": 7579,
      "alan": 7580,
      "sees": 7581,
      "partner": 7582,
      "reception": 7583,
      "mathem": 7584,
      "modified": 7585,
      "mediter": 7586,
      "1951": 7587,
      "euro": 7588,
      "politic": 7589,
      "circum": 7590,
      "illinois": 7591,
      "cathedral": 7592,
      "murd": 7593,
      "absor": 7594,
      "korea": 7595,
      "precip": 7596,
      "passengers": 7597,
      "dismissed": 7598,
      "bats": 7599,
      "tony": 7600,
      "alco": 7601,
      "trained": 7602,
      "twin": 7603,
      "usa": 7604,
      "##weight": 7605,
      "assass": 7606,
      "##aza": 7607,
      "landsc": 7608,
      "1912": 7609,
      "attempting": 7610,
      "innov": 7611,
      "norman": 7612,
      "recovered": 7613,
      "mobile": 7614,
      "encouraged": 7615,
      "illeg": 7616,
      "byzantine": 7617,
      "criminal": 7618,
      "toll": 7619,
      "##adi": 7620,
      "stor": 7621,
      "##illed": 7622,
      "uniform": 7623,
      "bristol": 7624,
      "scout": 7625,
      "##ultane": 7626,
      "liqu": 7627,
      "simultane": 7628,
      "anyone": 7629,
      "stands": 7630,
      "reality": 7631,
      "salt": 7632,
      "toronto": 7633,
      "##ommod": 7634,
      "mediterranean": 7635,
      "bou": 7636,
      "dod": 7637,
      "fishing": 7638,
      "gent": 7639,
      "lion": 7640,
      "##imate": 7641,
      "isbn": 7642,
      "clay": 7643,
      "heritage": 7644,
      "pref": 7645,
      "consp": 7646,
      "divers": 7647,
      "##isms": 7648,
      "predecess": 7649,
      "tomb": 7650,
      "hosted": 7651,
      "learn": 7652,
      "happened": 7653,
      "surrounded": 7654,
      "abbey": 7655,
      "distinguished": 7656,
      "7th": 7657,
      "ah": 7658,
      "craft": 7659,
      "rug": 7660,
      "um": 7661,
      "wol": 7662,
      "theor": 7663,
      "alleg": 7664,
      "##agre": 7665,
      "noting": 7666,
      "bruce": 7667,
      "roger": 7668,
      "displ": 7669,
      "monument": 7670,
      "ministry": 7671,
      "publishing": 7672,
      "harm": 7673,
      "township": 7674,
      "strip": 7675,
      "seemed": 7676,
      "fisher": 7677,
      "preferred": 7678,
      "cos": 7679,
      "##aug": 7680,
      "##je": 7681,
      "##atically": 7682,
      "##state": 7683,
      "freder": 7684,
      "##osa": 7685,
      "plane": 7686,
      "reconna": 7687,
      "branc": 7688,
      "##ruption": 7689,
      "appropri": 7690,
      "finn": 7691,
      "##wealth": 7692,
      "##rupted": 7693,
      "ratings": 7694,
      "exhibition": 7695,
      "synthes": 7696,
      "cabinet": 7697,
      "lod": 7698,
      "##rum": 7699,
      "##uv": 7700,
      "##mo": 7701,
      "##pson": 7702,
      "##reck": 7703,
      "##ilation": 7704,
      "##etery": 7705,
      "##pping": 7706,
      "##athan": 7707,
      "releases": 7708,
      "1935": 7709,
      "1955": 7710,
      "1957": 7711,
      "commonwealth": 7712,
      "factory": 7713,
      "villages": 7714,
      "cruisers": 7715,
      "melbourne": 7716,
      "municip": 7717,
      "elder": 7718,
      "cemetery": 7719,
      "83": 7720,
      "dj": 7721,
      "fighters": 7722,
      "sector": 7723,
      "tone": 7724,
      "taught": 7725,
      "##dd": 7726,
      "##tw": 7727,
      "##bell": 7728,
      "##pective": 7729,
      "##eted": 7730,
      "##uts": 7731,
      "##uting": 7732,
      "fried": 7733,
      "chur": 7734,
      "adams": 7735,
      "files": 7736,
      "driver": 7737,
      "halo": 7738,
      "delayed": 7739,
      "footage": 7740,
      "regularly": 7741,
      "giants": 7742,
      "disappear": 7743,
      "deputy": 7744,
      "acknowled": 7745,
      "reconnaissance": 7746,
      "bun": 7747,
      "dick": 7748,
      "lith": 7749,
      "mamm": 7750,
      "sang": 7751,
      "voy": 7752,
      "##fr": 7753,
      "##inced": 7754,
      "##arn": 7755,
      "stayed": 7756,
      "##aints": 7757,
      "dean": 7758,
      "spears": 7759,
      "firing": 7760,
      "ages": 7761,
      "cob": 7762,
      "finals": 7763,
      "accommod": 7764,
      "understand": 7765,
      "publis": 7766,
      "instance": 7767,
      "wins": 7768,
      "extent": 7769,
      "parker": 7770,
      "affair": 7771,
      "absol": 7772,
      "dominated": 7773,
      "guardian": 7774,
      "scholar": 7775,
      "encountered": 7776,
      "croatia": 7777,
      "fel": 7778,
      "hipp": 7779,
      "ride": 7780,
      "tip": 7781,
      "tub": 7782,
      "##ila": 7783,
      "asks": 7784,
      "##owa": 7785,
      "deemed": 7786,
      "decline": 7787,
      "warner": 7788,
      "##ternal": 7789,
      "##ertain": 7790,
      "##oyd": 7791,
      "extr": 7792,
      "formerly": 7793,
      "temporary": 7794,
      "creative": 7795,
      "jews": 7796,
      "impressed": 7797,
      "apparently": 7798,
      "vessel": 7799,
      "residential": 7800,
      "survivors": 7801,
      "cod": 7802,
      "mack": 7803,
      "##arf": 7804,
      "render": 7805,
      "bypass": 7806,
      "abd": 7807,
      "meg": 7808,
      "terror": 7809,
      "discip": 7810,
      "deliver": 7811,
      "1910": 7812,
      "convinced": 7813,
      "1926": 7814,
      "patri": 7815,
      "angle": 7816,
      "periods": 7817,
      "horror": 7818,
      "thompson": 7819,
      "funding": 7820,
      "swedish": 7821,
      "santa": 7822,
      "cher": 7823,
      "jord": 7824,
      "ye": 7825,
      "##part": 7826,
      "##icial": 7827,
      "##apse": 7828,
      "enters": 7829,
      "resigned": 7830,
      "armen": 7831,
      "belg": 7832,
      "1953": 7833,
      "1920s": 7834,
      "scientists": 7835,
      "ensure": 7836,
      "fictional": 7837,
      "thousand": 7838,
      "croatian": 7839,
      "jesus": 7840,
      "900": 7841,
      "nom": 7842,
      "##car": 7843,
      "##anium": 7844,
      "##itable": 7845,
      "##aska": 7846,
      "forests": 7847,
      "##oslav": 7848,
      "conte": 7849,
      "appearing": 7850,
      "1977": 7851,
      "##elsen": 7852,
      "arrested": 7853,
      "initi": 7854,
      "costs": 7855,
      "looked": 7856,
      "aware": 7857,
      "drawing": 7858,
      "arrangement": 7859,
      "tunnel": 7860,
      "vehicle": 7861,
      "hud": 7862,
      "lose": 7863,
      "pic": 7864,
      "pip": 7865,
      "yor": 7866,
      "##eas": 7867,
      "##pan": 7868,
      "##eler": 7869,
      "##lying": 7870,
      "shark": 7871,
      "joh": 7872,
      "parks": 7873,
      "##amese": 7874,
      "generated": 7875,
      "170": 7876,
      "mainstream": 7877,
      "detailed": 7878,
      "skills": 7879,
      "1959": 7880,
      "protagonist": 7881,
      "refuge": 7882,
      "check": 7883,
      "criticised": 7884,
      "madag": 7885,
      "wooden": 7886,
      "representing": 7887,
      "discussed": 7888,
      "permission": 7889,
      "matthew": 7890,
      "agricultural": 7891,
      "##friend": 7892,
      "retirement": 7893,
      "breat": 7894,
      "abilities": 7895,
      "repr": 7896,
      "coff": 7897,
      "teeth": 7898,
      "charl": 7899,
      "monster": 7900,
      "armor": 7901,
      "longest": 7902,
      "##erto": 7903,
      "depicted": 7904,
      "classification": 7905,
      "stream": 7906,
      "kevin": 7907,
      "1929": 7908,
      "suffering": 7909,
      "sufficient": 7910,
      "normally": 7911,
      "violent": 7912,
      "colorado": 7913,
      "neighbour": 7914,
      "iraq": 7915,
      "churches": 7916,
      "dave": 7917,
      "dna": 7918,
      "nbc": 7919,
      "##ois": 7920,
      "##arian": 7921,
      "##eland": 7922,
      "##ecast": 7923,
      "leaf": 7924,
      "amaz": 7925,
      "marry": 7926,
      "accompl": 7927,
      "recordings": 7928,
      "depend": 7929,
      "arriving": 7930,
      "1927": 7931,
      "behalf": 7932,
      "references": 7933,
      "facing": 7934,
      "queens": 7935,
      "tribute": 7936,
      "fatal": 7937,
      "tamil": 7938,
      "cz": 7939,
      "cous": 7940,
      "kw": 7941,
      "pine": 7942,
      "pitt": 7943,
      "rising": 7944,
      "sib": 7945,
      "somers": 7946,
      "##nie": 7947,
      "##acent": 7948,
      "stem": 7949,
      "chanc": 7950,
      "manh": 7951,
      "apple": 7952,
      "lowest": 7953,
      "treated": 7954,
      "lyn": 7955,
      "painted": 7956,
      "indicate": 7957,
      "adults": 7958,
      "premiered": 7959,
      "inhabit": 7960,
      "dialogue": 7961,
      "moderate": 7962,
      "bureau": 7963,
      "ech": 7964,
      "gear": 7965,
      "kon": 7966,
      "mes": 7967,
      "miam": 7968,
      "pale": 7969,
      "##sk": 7970,
      "##rence": 7971,
      "alab": 7972,
      "plain": 7973,
      "desire": 7974,
      "interests": 7975,
      "minnes": 7976,
      "imposs": 7977,
      "batting": 7978,
      "novels": 7979,
      "exposed": 7980,
      "collaps": 7981,
      "raj": 7982,
      "personality": 7983,
      "facility": 7984,
      "##itzer": 7985,
      "##iliar": 7986,
      "struggle": 7987,
      "isolated": 7988,
      "partnership": 7989,
      "bag": 7990,
      "hin": 7991,
      "rud": 7992,
      "sisters": 7993,
      "xbox": 7994,
      "##oh": 7995,
      "thro": 7996,
      "##imb": 7997,
      "##chang": 7998,
      "seas": 7999,
      "shock": 8000,
      "##ogy": 8001,
      "pregn": 8002,
      "smooth": 8003,
      "polar": 8004,
      "1949": 8005,
      "##encing": 8006,
      "difference": 8007,
      "handed": 8008,
      "window": 8009,
      "believes": 8010,
      "helping": 8011,
      "romantic": 8012,
      "technique": 8013,
      "fifteen": 8014,
      "wright": 8015,
      "imprison": 8016,
      "seeking": 8017,
      "renew": 8018,
      "nelson": 8019,
      "miami": 8020,
      "hans": 8021,
      "rit": 8022,
      "##lus": 8023,
      "##ivan": 8024,
      "##ager": 8025,
      "clock": 8026,
      "cloth": 8027,
      "usd": 8028,
      "relie": 8029,
      "repairs": 8030,
      "boil": 8031,
      "##enses": 8032,
      "buck": 8033,
      "description": 8034,
      "avo": 8035,
      "starred": 8036,
      "helic": 8037,
      "radar": 8038,
      "fifty": 8039,
      "representatives": 8040,
      "difficulties": 8041,
      "uncertain": 8042,
      "materials": 8043,
      "pitched": 8044,
      "housing": 8045,
      "absence": 8046,
      "puerto": 8047,
      "diameter": 8048,
      "molec": 8049,
      "unsuccessful": 8050,
      "lisa": 8051,
      "lennon": 8052,
      "neighborhood": 8053,
      "bour": 8054,
      "kin": 8055,
      "nas": 8056,
      "nag": 8057,
      "##mun": 8058,
      "##ache": 8059,
      "whil": 8060,
      "allen": 8061,
      "agents": 8062,
      "##attan": 8063,
      "directors": 8064,
      "fung": 8065,
      "device": 8066,
      "doesn": 8067,
      "##regon": 8068,
      "frequent": 8069,
      "determine": 8070,
      "anthony": 8071,
      "prompted": 8072,
      "lect": 8073,
      "tan": 8074,
      "##lec": 8075,
      "##fare": 8076,
      "##olas": 8077,
      "##apers": 8078,
      "scor": 8079,
      "coin": 8080,
      "##iously": 8081,
      "metro": 8082,
      "continental": 8083,
      "conclusion": 8084,
      "austria": 8085,
      "##ologists": 8086,
      "greece": 8087,
      "swift": 8088,
      "detail": 8089,
      "verse": 8090,
      "factors": 8091,
      "priest": 8092,
      "copy": 8093,
      "creator": 8094,
      "earthqu": 8095,
      "achieve": 8096,
      "languages": 8097,
      "multipl": 8098,
      "spiritual": 8099,
      "negotiations": 8100,
      "erect": 8101,
      "oregon": 8102,
      "##vis": 8103,
      "##rees": 8104,
      "1900": 8105,
      "depr": 8106,
      "##iller": 8107,
      "brick": 8108,
      "aftern": 8109,
      "uss": 8110,
      "##aws": 8111,
      "institution": 8112,
      "stewart": 8113,
      "prevented": 8114,
      "travelled": 8115,
      "ranking": 8116,
      "ethnic": 8117,
      "vietn": 8118,
      "executed": 8119,
      "graphics": 8120,
      "minnesota": 8121,
      "impossible": 8122,
      "helicop": 8123,
      "5th": 8124,
      "6th": 8125,
      "murray": 8126,
      "option": 8127,
      "sor": 8128,
      "tenth": 8129,
      "telling": 8130,
      "wolf": 8131,
      "##night": 8132,
      "##oral": 8133,
      "##esc": 8134,
      "##real": 8135,
      "alter": 8136,
      "alph": 8137,
      "##agement": 8138,
      "seats": 8139,
      "##udes": 8140,
      "clinton": 8141,
      "margar": 8142,
      "timber": 8143,
      "synd": 8144,
      "surg": 8145,
      "pointed": 8146,
      "australians": 8147,
      "1934": 8148,
      "1932": 8149,
      "victories": 8150,
      "victims": 8151,
      "morgan": 8152,
      "departed": 8153,
      "settle": 8154,
      "moments": 8155,
      "gallery": 8156,
      "visitors": 8157,
      "##coming": 8158,
      "bradman": 8159,
      "athletic": 8160,
      "cinema": 8161,
      "context": 8162,
      "alabama": 8163,
      "vietnamese": 8164,
      "dancing": 8165,
      "icon": 8166,
      "nit": 8167,
      "rates": 8168,
      "##enz": 8169,
      "##utt": 8170,
      "chase": 8171,
      "##ods": 8172,
      "cook": 8173,
      "armored": 8174,
      "founder": 8175,
      "16th": 8176,
      "km2": 8177,
      "bases": 8178,
      "##attered": 8179,
      "closing": 8180,
      "withdrew": 8181,
      "linked": 8182,
      "extreme": 8183,
      "eliminated": 8184,
      "whilst": 8185,
      "05": 8186,
      "cu": 8187,
      "cov": 8188,
      "citing": 8189,
      "iowa": 8190,
      "##fa": 8191,
      "##boy": 8192,
      "stable": 8193,
      "alignment": 8194,
      "##osing": 8195,
      "prosp": 8196,
      "unn": 8197,
      "abund": 8198,
      "carp": 8199,
      "meets": 8200,
      "joining": 8201,
      "##ixon": 8202,
      "defended": 8203,
      "aviation": 8204,
      "arrest": 8205,
      "1928": 8206,
      "1922": 8207,
      "analy": 8208,
      "intensified": 8209,
      "poetry": 8210,
      "upgraded": 8211,
      "crystal": 8212,
      "subsid": 8213,
      "restaurant": 8214,
      "enthus": 8215,
      "04": 8216,
      "kelly": 8217,
      "sic": 8218,
      "sick": 8219,
      "##orous": 8220,
      "inland": 8221,
      "##eline": 8222,
      "sure": 8223,
      "prol": 8224,
      "shif": 8225,
      "##ophy": 8226,
      "##usted": 8227,
      "coordin": 8228,
      "dece": 8229,
      "parish": 8230,
      "phr": 8231,
      "phone": 8232,
      "collapse": 8233,
      "communication": 8234,
      "watching": 8235,
      "relationships": 8236,
      "software": 8237,
      "nielsen": 8238,
      "specimens": 8239,
      "submarine": 8240,
      "metropolitan": 8241,
      "crisis": 8242,
      "diplom": 8243,
      "madagascar": 8244,
      "sas": 8245,
      "##tz": 8246,
      "##mes": 8247,
      "comments": 8248,
      "shipping": 8249,
      "unp": 8250,
      "notably": 8251,
      "indeed": 8252,
      "charter": 8253,
      "174": 8254,
      "anna": 8255,
      "basin": 8256,
      "goods": 8257,
      "catal": 8258,
      "expression": 8259,
      "federation": 8260,
      "towers": 8261,
      "pilots": 8262,
      "credits": 8263,
      "application": 8264,
      "conservation": 8265,
      "philippines": 8266,
      "wedding": 8267,
      "belgium": 8268,
      "coc": 8269,
      "dol": 8270,
      "kal": 8271,
      "neck": 8272,
      "pace": 8273,
      "sull": 8274,
      "yug": 8275,
      "##eing": 8276,
      "##aire": 8277,
      "##rating": 8278,
      "##vens": 8279,
      "##fe": 8280,
      "##orph": 8281,
      "##rete": 8282,
      "##rose": 8283,
      "##aya": 8284,
      "prest": 8285,
      "manusc": 8286,
      "feud": 8287,
      "charlie": 8288,
      "leads": 8289,
      "disturb": 8290,
      "operational": 8291,
      "signal": 8292,
      "junction": 8293,
      "harbor": 8294,
      "autob": 8295,
      "1925": 8296,
      "patrick": 8297,
      "militia": 8298,
      "testing": 8299,
      "narrative": 8300,
      "keeping": 8301,
      "quarterback": 8302,
      "borough": 8303,
      "hawai": 8304,
      "minimal": 8305,
      "instrumental": 8306,
      "amendment": 8307,
      "manuscript": 8308,
      "dre": 8309,
      "danc": 8310,
      "pione": 8311,
      "##oen": 8312,
      "##bit": 8313,
      "##uman": 8314,
      "carib": 8315,
      "finale": 8316,
      "warn": 8317,
      "pars": 8318,
      "soil": 8319,
      "mining": 8320,
      "artistic": 8321,
      "140": 8322,
      "lawrence": 8323,
      "tempor": 8324,
      "hungarian": 8325,
      "voiced": 8326,
      "satur": 8327,
      "questions": 8328,
      "concerts": 8329,
      "subjects": 8330,
      "riders": 8331,
      "aimed": 8332,
      "ghost": 8333,
      "napole": 8334,
      "##onymous": 8335,
      "wonder": 8336,
      "turkish": 8337,
      "jordan": 8338,
      "osc": 8339,
      "sq": 8340,
      "##iat": 8341,
      "##leman": 8342,
      "execut": 8343,
      "##uster": 8344,
      "##wned": 8345,
      "format": 8346,
      "parach": 8347,
      "loop": 8348,
      "owners": 8349,
      "offices": 8350,
      "characteristics": 8351,
      "raaf": 8352,
      "chel": 8353,
      "malays": 8354,
      "biggest": 8355,
      "escaped": 8356,
      "symp": 8357,
      "feelings": 8358,
      "boundary": 8359,
      "picked": 8360,
      "dollar": 8361,
      "bernard": 8362,
      "muslim": 8363,
      "enterprise": 8364,
      "hub": 8365,
      "mall": 8366,
      "##bra": 8367,
      "##aria": 8368,
      "andre": 8369,
      "arn": 8370,
      "spa": 8371,
      "##ova": 8372,
      "intense": 8373,
      "cargo": 8374,
      "##inder": 8375,
      "pole": 8376,
      "quad": 8377,
      "sole": 8378,
      "string": 8379,
      "myster": 8380,
      "refers": 8381,
      "destroyers": 8382,
      "businesses": 8383,
      "appointment": 8384,
      "participate": 8385,
      "badly": 8386,
      "grown": 8387,
      "degrees": 8388,
      "encounter": 8389,
      "purposes": 8390,
      "registered": 8391,
      "nazi": 8392,
      "bronze": 8393,
      "manhattan": 8394,
      "afternoon": 8395,
      "07": 8396,
      "gab": 8397,
      "jet": 8398,
      "mental": 8399,
      "sig": 8400,
      "wy": 8401,
      "##bec": 8402,
      "##anth": 8403,
      "##ader": 8404,
      "forty": 8405,
      "##igen": 8406,
      "##vere": 8407,
      "bra": 8408,
      "coins": 8409,
      "attained": 8410,
      "interpre": 8411,
      "blind": 8412,
      "10th": 8413,
      "laur": 8414,
      "keith": 8415,
      "changing": 8416,
      "fallen": 8417,
      "bowling": 8418,
      "##mingham": 8419,
      "holds": 8420,
      "rounds": 8421,
      "samuel": 8422,
      "battalions": 8423,
      "##bean": 8424,
      "adjacent": 8425,
      "adaptation": 8426,
      "dock": 8427,
      "pounds": 8428,
      "rocks": 8429,
      "rih": 8430,
      "##mate": 8431,
      "##roke": 8432,
      "stick": 8433,
      "fred": 8434,
      "##sea": 8435,
      "recon": 8436,
      "metall": 8437,
      "publicly": 8438,
      "1911": 8439,
      "electron": 8440,
      "statue": 8441,
      "trek": 8442,
      "trend": 8443,
      "copper": 8444,
      "hole": 8445,
      "louisiana": 8446,
      "dollars": 8447,
      "elsewhere": 8448,
      "paintings": 8449,
      "bennett": 8450,
      "satellite": 8451,
      "yugoslav": 8452,
      "covers": 8453,
      "roc": 8454,
      "##rm": 8455,
      "##ture": 8456,
      "##uits": 8457,
      "##war": 8458,
      "hend": 8459,
      "partly": 8460,
      "decides": 8461,
      "interstate": 8462,
      "teacher": 8463,
      "##amps": 8464,
      "guil": 8465,
      "125": 8466,
      "portra": 8467,
      "##ructure": 8468,
      "1913": 8469,
      "highways": 8470,
      "influences": 8471,
      "multi": 8472,
      "bombers": 8473,
      "wider": 8474,
      "beatles": 8475,
      "huge": 8476,
      "rebuilt": 8477,
      "jacob": 8478,
      "somerset": 8479,
      "rihanna": 8480,
      "gaga": 8481,
      "mail": 8482,
      "##alo": 8483,
      "##apolis": 8484,
      "recip": 8485,
      "partially": 8486,
      "overl": 8487,
      "assists": 8488,
      "##phone": 8489,
      "delay": 8490,
      "cyl": 8491,
      "amongst": 8492,
      "veget": 8493,
      "select": 8494,
      "situated": 8495,
      "potter": 8496,
      "flights": 8497,
      "bulk": 8498,
      "birthday": 8499,
      "surprise": 8500,
      "emotional": 8501,
      "benefit": 8502,
      "playoffs": 8503,
      "pretty": 8504,
      "sullivan": 8505,
      "aqu": 8506,
      "boss": 8507,
      "gates": 8508,
      "hi": 8509,
      "honey": 8510,
      "pir": 8511,
      "ted": 8512,
      "##da": 8513,
      "##mi": 8514,
      "##itter": 8515,
      "##sters": 8516,
      "alive": 8517,
      "frig": 8518,
      "chand": 8519,
      "arist": 8520,
      "pron": 8521,
      "spar": 8522,
      "brill": 8523,
      "serial": 8524,
      "aged": 8525,
      "remove": 8526,
      "noble": 8527,
      "depending": 8528,
      "barry": 8529,
      "heading": 8530,
      "ski": 8531,
      "videos": 8532,
      "represents": 8533,
      "involvement": 8534,
      "documents": 8535,
      "baltim": 8536,
      "displayed": 8537,
      "territories": 8538,
      "substit": 8539,
      "newspapers": 8540,
      "substantial": 8541,
      "rarely": 8542,
      "precipitation": 8543,
      "autobi": 8544,
      "bald": 8545,
      "kan": 8546,
      "mate": 8547,
      "patt": 8548,
      "waves": 8549,
      "wreck": 8550,
      "zh": 8551,
      "##ls": 8552,
      "##lings": 8553,
      "##chen": 8554,
      "##mates": 8555,
      "##asions": 8556,
      "##isd": 8557,
      "##amer": 8558,
      "##rot": 8559,
      "##idency": 8560,
      "##osure": 8561,
      "seattle": 8562,
      "ark": 8563,
      "amy": 8564,
      "indies": 8565,
      "revenue": 8566,
      "mete": 8567,
      "expensive": 8568,
      "concurr": 8569,
      "##ontin": 8570,
      "1931": 8571,
      "21st": 8572,
      "1908": 8573,
      "1907": 8574,
      "audio": 8575,
      "turrets": 8576,
      "birmingham": 8577,
      "powered": 8578,
      "suspended": 8579,
      "dogs": 8580,
      "cartoon": 8581,
      "doubt": 8582,
      "merchant": 8583,
      "mathemat": 8584,
      "alcohol": 8585,
      "storage": 8586,
      "baltimore": 8587,
      "08": 8588,
      "dc": 8589,
      "esp": 8590,
      "hamp": 8591,
      "pc": 8592,
      "rings": 8593,
      "som": 8594,
      "tong": 8595,
      "tast": 8596,
      "##lan": 8597,
      "##bal": 8598,
      "inqu": 8599,
      "##storm": 8600,
      "##rog": 8601,
      "##usal": 8602,
      "##using": 8603,
      "shakes": 8604,
      "apprec": 8605,
      "acted": 8606,
      "charity": 8607,
      "monaster": 8608,
      "crus": 8609,
      "battlec": 8610,
      "medium": 8611,
      "lob": 8612,
      "load": 8613,
      "characterized": 8614,
      "completing": 8615,
      "skull": 8616,
      "donated": 8617,
      "argues": 8618,
      "franklin": 8619,
      "cannon": 8620,
      "minimum": 8621,
      "pulled": 8622,
      "##otype": 8623,
      "alfred": 8624,
      "##music": 8625,
      "medicine": 8626,
      "battlecru": 8627,
      "09": 8628,
      "billy": 8629,
      "gw": 8630,
      "lists": 8631,
      "pant": 8632,
      "sank": 8633,
      "##rates": 8634,
      "inaug": 8635,
      "cha": 8636,
      "##essee": 8637,
      "assisted": 8638,
      "underw": 8639,
      "retail": 8640,
      "advoc": 8641,
      "approval": 8642,
      "explains": 8643,
      "anticip": 8644,
      "infr": 8645,
      "influential": 8646,
      "predict": 8647,
      "punk": 8648,
      "walking": 8649,
      "##avery": 8650,
      "tornado": 8651,
      "ranks": 8652,
      "tiss": 8653,
      "##acle": 8654,
      "forcing": 8655,
      "##ifer": 8656,
      "##ounced": 8657,
      "butter": 8658,
      "jobs": 8659,
      "formally": 8660,
      "genetic": 8661,
      "##issions": 8662,
      "airfield": 8663,
      "designer": 8664,
      "designation": 8665,
      "successor": 8666,
      "glac": 8667,
      "restoration": 8668,
      "organizations": 8669,
      "soldier": 8670,
      "covering": 8671,
      "lesser": 8672,
      "fortress": 8673,
      "predicted": 8674,
      "dominant": 8675,
      "guitarist": 8676,
      "favorable": 8677,
      "flagship": 8678,
      "globe": 8679,
      "distinctive": 8680,
      "behavi": 8681,
      "habitat": 8682,
      "excellent": 8683,
      "9th": 8684,
      "ian": 8685,
      "jury": 8686,
      "py": 8687,
      "vs": 8688,
      "yan": 8689,
      "yield": 8690,
      "isot": 8691,
      "arena": 8692,
      "agree": 8693,
      "acceler": 8694,
      "gene": 8695,
      "counties": 8696,
      "##anny": 8697,
      "165": 8698,
      "portions": 8699,
      "reviewer": 8700,
      "opponents": 8701,
      "opponent": 8702,
      "telegr": 8703,
      "mississ": 8704,
      "motiv": 8705,
      "employees": 8706,
      "walker": 8707,
      "apartment": 8708,
      "##donald": 8709,
      "tennessee": 8710,
      "satisf": 8711,
      "atlanta": 8712,
      "dict": 8713,
      "fo": 8714,
      "hidden": 8715,
      "pages": 8716,
      "rib": 8717,
      "vig": 8718,
      "wake": 8719,
      "##gas": 8720,
      "reaches": 8721,
      "plus": 8722,
      "##eare": 8723,
      "cliff": 8724,
      "compound": 8725,
      "resol": 8726,
      "evans": 8727,
      "filed": 8728,
      "guards": 8729,
      "173": 8730,
      "matters": 8731,
      "loan": 8732,
      "advice": 8733,
      "skel": 8734,
      "1923": 8735,
      "marketing": 8736,
      "parliamentary": 8737,
      "talent": 8738,
      "articles": 8739,
      "spotted": 8740,
      "definition": 8741,
      "hungary": 8742,
      "download": 8743,
      "caribbean": 8744,
      "parachute": 8745,
      "ral": 8746,
      "tale": 8747,
      "wool": 8748,
      "##lah": 8749,
      "##mad": 8750,
      "theod": 8751,
      "##oust": 8752,
      "##rod": 8753,
      "##estone": 8754,
      "ammun": 8755,
      "parent": 8756,
      "mines": 8757,
      "155": 8758,
      "1924": 8759,
      "values": 8760,
      "friendly": 8761,
      "vii": 8762,
      "defeating": 8763,
      "compete": 8764,
      "engineers": 8765,
      "snake": 8766,
      "##borough": 8767,
      "occupation": 8768,
      "administrative": 8769,
      "legislative": 8770,
      "sarah": 8771,
      "drugs": 8772,
      "remnants": 8773,
      "houston": 8774,
      "liquid": 8775,
      "shakesp": 8776,
      "berg": 8777,
      "riding": 8778,
      "tie": 8779,
      "##erb": 8780,
      "##enh": 8781,
      "rever": 8782,
      "##uther": 8783,
      "atomic": 8784,
      "##unc": 8785,
      "nep": 8786,
      "herald": 8787,
      "resolution": 8788,
      "perry": 8789,
      "commem": 8790,
      "##kshire": 8791,
      "drivers": 8792,
      "115": 8793,
      "signing": 8794,
      "radical": 8795,
      "##iveness": 8796,
      "electrical": 8797,
      "listen": 8798,
      "hunt": 8799,
      "michel": 8800,
      "ferry": 8801,
      "intellect": 8802,
      "pursue": 8803,
      "restricted": 8804,
      "hindu": 8805,
      "ammunition": 8806,
      "bog": 8807,
      "wine": 8808,
      "##iary": 8809,
      "##col": 8810,
      "##iden": 8811,
      "##oto": 8812,
      "perceived": 8813,
      "blow": 8814,
      "##hips": 8815,
      "describe": 8816,
      "demanded": 8817,
      "killer": 8818,
      "believing": 8819,
      "destro": 8820,
      "err": 8821,
      "choose": 8822,
      "poorly": 8823,
      "amounts": 8824,
      "texts": 8825,
      "celebrated": 8826,
      "waiting": 8827,
      "agriculture": 8828,
      "teaching": 8829,
      "deployed": 8830,
      "grammy": 8831,
      "strengthened": 8832,
      "inhabitants": 8833,
      "guilty": 8834,
      "8th": 8835,
      "ay": 8836,
      "ale": 8837,
      "hann": 8838,
      "hob": 8839,
      "vinc": 8840,
      "zero": 8841,
      "##gle": 8842,
      "##no": 8843,
      "##fish": 8844,
      "##jan": 8845,
      "##ulating": 8846,
      "lex": 8847,
      "##sole": 8848,
      "evolved": 8849,
      "carn": 8850,
      "canter": 8851,
      "##anger": 8852,
      "slave": 8853,
      "14th": 8854,
      "lightning": 8855,
      "friendship": 8856,
      "broadway": 8857,
      "1905": 8858,
      "lacked": 8859,
      "ern": 8860,
      "constitutional": 8861,
      "seriously": 8862,
      "essential": 8863,
      "demonstrated": 8864,
      "ceremon": 8865,
      "repeatedly": 8866,
      "explosion": 8867,
      "mason": 8868,
      "phen": 8869,
      "sony": 8870,
      "tight": 8871,
      "##kel": 8872,
      "##hill": 8873,
      "##point": 8874,
      "##inations": 8875,
      "forg": 8876,
      "forecast": 8877,
      "asian": 8878,
      "heir": 8879,
      "resumed": 8880,
      "##oker": 8881,
      "mario": 8882,
      "disaster": 8883,
      "edwards": 8884,
      "ownership": 8885,
      "controll": 8886,
      "radiation": 8887,
      "possession": 8888,
      "palest": 8889,
      "civilian": 8890,
      "colonies": 8891,
      "interesting": 8892,
      "renov": 8893,
      "luke": 8894,
      "layer": 8895,
      "legislature": 8896,
      "schedule": 8897,
      "candidates": 8898,
      "summit": 8899,
      "canterbury": 8900,
      "ecl": 8901,
      "fold": 8902,
      "faster": 8903,
      "hence": 8904,
      "##life": 8905,
      "##die": 8906,
      "##power": 8907,
      "##zona": 8908,
      "##essing": 8909,
      "##unction": 8910,
      "clin": 8911,
      "marks": 8912,
      "##icken": 8913,
      "origins": 8914,
      "11th": 8915,
      "deliber": 8916,
      "controls": 8917,
      "##ippi": 8918,
      "archb": 8919,
      "exclud": 8920,
      "benj": 8921,
      "wait": 8922,
      "thirteen": 8923,
      "revolt": 8924,
      "3d": 8925,
      "fed": 8926,
      "hav": 8927,
      "jum": 8928,
      "jason": 8929,
      "ker": 8930,
      "ment": 8931,
      "pm": 8932,
      "pup": 8933,
      "rush": 8934,
      "##iac": 8935,
      "##wer": 8936,
      "##iner": 8937,
      "touring": 8938,
      "##irts": 8939,
      "aside": 8940,
      "procl": 8941,
      "roose": 8942,
      "preserved": 8943,
      "meter": 8944,
      "divor": 8945,
      "provinc": 8946,
      "organised": 8947,
      "refere": 8948,
      "moral": 8949,
      "argument": 8950,
      "sympt": 8951,
      "symph": 8952,
      "physic": 8953,
      "measured": 8954,
      "traveled": 8955,
      "##exp": 8956,
      "cancelled": 8957,
      "drums": 8958,
      "execution": 8959,
      "exercise": 8960,
      "frederick": 8961,
      "czech": 8962,
      "shakespeare": 8963,
      "roosevel": 8964,
      "hut": 8965,
      "holl": 8966,
      "liz": 8967,
      "nad": 8968,
      "vast": 8969,
      "##oly": 8970,
      "##esis": 8971,
      "stere": 8972,
      "##emen": 8973,
      "plut": 8974,
      "recurr": 8975,
      "graham": 8976,
      "reluct": 8977,
      "offense": 8978,
      "flows": 8979,
      "elabor": 8980,
      "105": 8981,
      "##flow": 8982,
      "##rows": 8983,
      "explo": 8984,
      "initiated": 8985,
      "communications": 8986,
      "ballad": 8987,
      "insisted": 8988,
      "mcm": 8989,
      "woods": 8990,
      "uncle": 8991,
      "objective": 8992,
      "qualifying": 8993,
      "suggesting": 8994,
      "##ographical": 8995,
      "flowers": 8996,
      "overseas": 8997,
      "printed": 8998,
      "strategic": 8999,
      "israeli": 9000,
      "rebellion": 9001,
      "meteor": 9002,
      "03": 9003,
      "m2": 9004,
      "mond": 9005,
      "wish": 9006,
      "##uations": 9007,
      "##ye": 9008,
      "##hears": 9009,
      "toky": 9010,
      "##elle": 9011,
      "console": 9012,
      "anch": 9013,
      "##agen": 9014,
      "##rix": 9015,
      "residence": 9016,
      "marvel": 9017,
      "aggress": 9018,
      "partial": 9019,
      "offering": 9020,
      "overw": 9021,
      "param": 9022,
      "poison": 9023,
      "underst": 9024,
      "preserv": 9025,
      "108": 9026,
      "obv": 9027,
      "familiar": 9028,
      "stevens": 9029,
      "arrive": 9030,
      "propag": 9031,
      "organisation": 9032,
      "quebec": 9033,
      "diagn": 9034,
      "thinking": 9035,
      "policies": 9036,
      "360": 9037,
      "ranging": 9038,
      "##chell": 9039,
      "observations": 9040,
      "arizona": 9041,
      "neutral": 9042,
      "circumst": 9043,
      "simultaneously": 9044,
      "benjamin": 9045,
      "cable": 9046,
      "craw": 9047,
      "dum": 9048,
      "dri": 9049,
      "jar": 9050,
      "jess": 9051,
      "si": 9052,
      "tang": 9053,
      "##ss": 9054,
      "##oned": 9055,
      "insc": 9056,
      "##roit": 9057,
      "rend": 9058,
      "##imeter": 9059,
      "external": 9060,
      "trick": 9061,
      "allmusic": 9062,
      "usual": 9063,
      "pool": 9064,
      "bros": 9065,
      "subspec": 9066,
      "slaves": 9067,
      "obst": 9068,
      "15th": 9069,
      "passion": 9070,
      "harbour": 9071,
      "personally": 9072,
      "1906": 9073,
      "hunter": 9074,
      "squadrons": 9075,
      "fastest": 9076,
      "submitted": 9077,
      "laboratory": 9078,
      "volunteers": 9079,
      "dramatic": 9080,
      "swimming": 9081,
      "mississippi": 9082,
      "roosevelt": 9083,
      "subspecies": 9084,
      "hab": 9085,
      "hog": 9086,
      "liv": 9087,
      "##uating": 9088,
      "##ecraft": 9089,
      "span": 9090,
      "spider": 9091,
      "tru": 9092,
      "encl": 9093,
      "resign": 9094,
      "carriers": 9095,
      "consol": 9096,
      "retrie": 9097,
      "subur": 9098,
      "movies": 9099,
      "epic": 9100,
      "willing": 9101,
      "##erted": 9102,
      "continu": 9103,
      "sixteen": 9104,
      "delaware": 9105,
      "storms": 9106,
      "anglo": 9107,
      "planets": 9108,
      "morrison": 9109,
      "merely": 9110,
      "educational": 9111,
      "clearly": 9112,
      "athletes": 9113,
      "attendance": 9114,
      "imagery": 9115,
      "egyptian": 9116,
      "tactics": 9117,
      "oklah": 9118,
      "temporarily": 9119,
      "cort": 9120,
      "cave": 9121,
      "dir": 9122,
      "jtw": 9123,
      "lanes": 9124,
      "pall": 9125,
      "ric": 9126,
      "sult": 9127,
      "##equ": 9128,
      "##rants": 9129,
      "todd": 9130,
      "asking": 9131,
      "spend": 9132,
      "##oken": 9133,
      "reporter": 9134,
      "armies": 9135,
      "mills": 9136,
      "diff": 9137,
      "stead": 9138,
      "christopher": 9139,
      "trading": 9140,
      "1909": 9141,
      "institutions": 9142,
      "bonus": 9143,
      "collaboration": 9144,
      "illustrated": 9145,
      "orbit": 9146,
      "chronicle": 9147,
      "trouble": 9148,
      "branches": 9149,
      "napoleon": 9150,
      "jtwc": 9151,
      "02": 9152,
      "bone": 9153,
      "dust": 9154,
      "fate": 9155,
      "fern": 9156,
      "fasc": 9157,
      "rice": 9158,
      "tube": 9159,
      "##lock": 9160,
      "##rams": 9161,
      "##yon": 9162,
      "##ouver": 9163,
      "##omer": 9164,
      "wasn": 9165,
      "congr": 9166,
      "##emon": 9167,
      "seed": 9168,
      "##esses": 9169,
      "##asts": 9170,
      "earning": 9171,
      "understanding": 9172,
      "airlines": 9173,
      "thanks": 9174,
      "mini": 9175,
      "##phy": 9176,
      "caps": 9177,
      "guar": 9178,
      "severely": 9179,
      "extract": 9180,
      "##ucing": 9181,
      "signs": 9182,
      "perspective": 9183,
      "companion": 9184,
      "increases": 9185,
      "competed": 9186,
      "condem": 9187,
      "audition": 9188,
      "audiences": 9189,
      "survive": 9190,
      "##owski": 9191,
      "targets": 9192,
      "drove": 9193,
      "oxy": 9194,
      "diego": 9195,
      "adopt": 9196,
      "electricity": 9197,
      "translation": 9198,
      "conventional": 9199,
      "eagle": 9200,
      "demolished": 9201,
      "municipal": 9202,
      "saturday": 9203,
      "cord": 9204,
      "cass": 9205,
      "furn": 9206,
      "rag": 9207,
      "rav": 9208,
      "tack": 9209,
      "vanc": 9210,
      "##fc": 9211,
      "##ouri": 9212,
      "##oming": 9213,
      "frust": 9214,
      "##esty": 9215,
      "shak": 9216,
      "##abe": 9217,
      "##ante": 9218,
      "amate": 9219,
      "mane": 9220,
      "coat": 9221,
      "warren": 9222,
      "empt": 9223,
      "##roph": 9224,
      "dressed": 9225,
      "164": 9226,
      "steven": 9227,
      "commanding": 9228,
      "##shore": 9229,
      "putting": 9230,
      "settlers": 9231,
      "fault": 9232,
      "indicates": 9233,
      "galax": 9234,
      "chemistry": 9235,
      "danger": 9236,
      "papers": 9237,
      "suitable": 9238,
      "patterns": 9239,
      "placing": 9240,
      "pearl": 9241,
      "pakistan": 9242,
      "predecessor": 9243,
      "earthquake": 9244,
      "archbishop": 9245,
      "tokyo": 9246,
      "01": 9247,
      "ced": 9248,
      "hide": 9249,
      "##folk": 9250,
      "##onian": 9251,
      "threw": 9252,
      "anime": 9253,
      "##unes": 9254,
      "shaw": 9255,
      "abol": 9256,
      "marge": 9257,
      "accum": 9258,
      "peaking": 9259,
      "retain": 9260,
      "liked": 9261,
      "surpass": 9262,
      "concrete": 9263,
      "chrom": 9264,
      "wayne": 9265,
      "explicit": 9266,
      "furthermore": 9267,
      "solution": 9268,
      "volumes": 9269,
      "affect": 9270,
      "predomin": 9271,
      "ruling": 9272,
      "saved": 9273,
      "revolutionary": 9274,
      "translated": 9275,
      "recommend": 9276,
      "talking": 9277,
      "preparation": 9278,
      "enlisted": 9279,
      "vertical": 9280,
      "margaret": 9281,
      "provincial": 9282,
      "oklahoma": 9283,
      "vancouver": 9284,
      "bot": 9285,
      "ecc": 9286,
      "len": 9287,
      "nur": 9288,
      "nash": 9289,
      "##rac": 9290,
      "##inction": 9291,
      "##isp": 9292,
      "waste": 9293,
      "stern": 9294,
      "proced": 9295,
      "existed": 9296,
      "##ellor": 9297,
      "components": 9298,
      "##ishment": 9299,
      "gran": 9300,
      "aggreg": 9301,
      "quiet": 9302,
      "drinking": 9303,
      "##atherine": 9304,
      "redes": 9305,
      "autumn": 9306,
      "swiss": 9307,
      "succession": 9308,
      "campbell": 9309,
      "lights": 9310,
      "micha": 9311,
      "profile": 9312,
      "##riptions": 9313,
      "1903": 9314,
      "iran": 9315,
      "meetings": 9316,
      "contributions": 9317,
      "sevent": 9318,
      "ferr": 9319,
      "rangers": 9320,
      "evacuated": 9321,
      "dubbed": 9322,
      "chess": 9323,
      "overwhel": 9324,
      "guarant": 9325,
      "nurs": 9326,
      "pod": 9327,
      "sitting": 9328,
      "tales": 9329,
      "ticket": 9330,
      "wore": 9331,
      "##oons": 9332,
      "##mat": 9333,
      "##bird": 9334,
      "##inals": 9335,
      "##itated": 9336,
      "##roc": 9337,
      "forth": 9338,
      "beats": 9339,
      "shift": 9340,
      "shadow": 9341,
      "compens": 9342,
      "northward": 9343,
      "armament": 9344,
      "mainland": 9345,
      "provision": 9346,
      "provinces": 9347,
      "barn": 9348,
      "johnny": 9349,
      "westward": 9350,
      "switzer": 9351,
      "arrives": 9352,
      "detroit": 9353,
      "considers": 9354,
      "traded": 9355,
      "limits": 9356,
      "burial": 9357,
      "horiz": 9358,
      "cutting": 9359,
      "godd": 9360,
      "curt": 9361,
      "montreal": 9362,
      "assembled": 9363,
      "reflect": 9364,
      "beauty": 9365,
      "mushroom": 9366,
      "rugby": 9367,
      "multiplayer": 9368,
      "switzerland": 9369,
      "rect": 9370,
      "vick": 9371,
      "##ray": 9372,
      "##aration": 9373,
      "stores": 9374,
      "bearing": 9375,
      "alg": 9376,
      "comfort": 9377,
      "##ghan": 9378,
      "##ello": 9379,
      "abc": 9380,
      "##orship": 9381,
      "knock": 9382,
      "surge": 9383,
      "backing": 9384,
      "portland": 9385,
      "##aughters": 9386,
      "functions": 9387,
      "1904": 9388,
      "voting": 9389,
      "recognised": 9390,
      "sequences": 9391,
      "christianity": 9392,
      "buddh": 9393,
      "ceased": 9394,
      "oslo": 9395,
      "nucle": 9396,
      "struggled": 9397,
      "concentrated": 9398,
      "consequently": 9399,
      "bombs": 9400,
      "hypothes": 9401,
      "vulner": 9402,
      "bones": 9403,
      "ip": 9404,
      "kansas": 9405,
      "mong": 9406,
      "push": 9407,
      "tai": 9408,
      "##lined": 9409,
      "##rome": 9410,
      "##uable": 9411,
      "##itively": 9412,
      "ask": 9413,
      "comed": 9414,
      "spac": 9415,
      "roots": 9416,
      "marines": 9417,
      "relocated": 9418,
      "serge": 9419,
      "disord": 9420,
      "decide": 9421,
      "blu": 9422,
      "defences": 9423,
      "capit": 9424,
      "edin": 9425,
      "171": 9426,
      "founding": 9427,
      "annually": 9428,
      "##ieth": 9429,
[...]
