[PAD]
[UNK]
[CLS]
[SEP]
[MASK]
!
"
#
$
%
&
'
(
)
*
+
,
-
.
/
0
1
2
3
4
5
6
7
8
9
:
;
<
=
>
?
@
[
\
]
^
_
`
a
b
c
d
e
f
g
h
i
j
k
l
m
n
o
p
q
r
s
t
u
v
w
x
y
z
{
|
}
~
¡
¢
£
¥
§
«
®
°
±
²
³
µ
¶
·
¹
º
»
¼
½
¾
¿
×
ß
æ
ð
÷
ø
þ
đ
ħ
ı
ł
ŋ
œ
ƈ
ƍ
ƒ
ƥ
ƭ
ǀ
ǁ
ǃ
ɐ
ɑ
ɒ
ɔ
ɕ
ə
ɛ
ɟ
ɠ
ɡ
ɣ
ɤ
ɨ
ɪ
ɫ
ɬ
ɯ
ɲ
ɺ
ɾ
ʀ
ʁ
ʂ
ʃ
ʄ
ʇ
ʈ
ʊ
ʋ
ʌ
ʒ
ʔ
ʖ
ʗ
ʠ
ʰ
ʲ
ʷ
ʻ
ʾ
ʿ
ˈ
ˌ
ː
ˠ
α
β
γ
δ
ε
ζ
η
θ
ι
κ
λ
μ
ν
ξ
ο
π
ρ
ς
σ
τ
υ
φ
χ
ψ
ω
ϕ
а
б
в
г
д
е
ж
з
и
к
л
м
н
о
п
р
с
т
у
ф
х
ц
ч
ш
щ
ъ
ы
ь
э
я
і
ј
њ
ћ
ү
ө
ա
բ
գ
ե
զ
թ
ի
խ
կ
հ
մ
յ
ն
շ
ո
չ
պ
ս
վ
տ
ր
ց
ւ
ք
א
ב
ג
ד
ה
ו
ח
י
כ
ל
ם
מ
נ
ס
ע
פ
צ
ק
ר
ש
ת
ء
ا
ب
ة
ت
ج
ح
خ
د
ر
ز
س
ش
ص
ع
غ
ق
ك
ل
م
ن
ه
و
ي
ہ
ی
ܐ
ܒ
ܙ
ܝ
ܠ
ܥ
ः
अ
इ
ऋ
क
ख
ग
च
ज
ट
ड
त
थ
द
ध
न
प
ब
भ
म
य
र
ल
व
श
ष
स
ह
ऽ
ा
ि
ी
ो
ॐ
।
॥
१
३
ক
ত
ল
ষ
া
ী
ে
ਅ
ਲ
ਹ
ਾ
ன
ం
ఖ
డ
ద
న
బ
ర
ల
ు
ಡ
ಬ
ಾ
ೕ
ก
ข
ง
ช
ด
ต
ท
น
บ
พ
ภ
ม
ย
ร
ล
ว
ส
ห
อ
ะ
า
เ
་
ག
ན
བ
མ
ཡ
ར
ས
ა
ე
ვ
თ
ლ
მ
ნ
უ
ქ
ჺ
ᄀ
ᄂ
ᄅ
ᄆ
ᄇ
ᄉ
ᄋ
ᄌ
ᄎ
ᄏ
ᄐ
ᄒ
ᅡ
ᅢ
ᅣ
ᅥ
ᅩ
ᅭ
ᅮ
ᅯ
ᅳ
ᅵ
ᆨ
ᆫ
ᆯ
ᆰ
ᆷ
ᆼ
ር
ስ
ቆ
ቈ
ብ
ቲ
ታ
ን
አ
ዕ
ያ
ᵻ
ᵿ
‐
‑
‒
–
—
―
‖
‘
’
“
”
„
†
‡
•
…
‰
′
″
⁄
⁺
₂
₣
₤
₨
₩
€
₱
₹
ℓ
№
™
⅓
⅔
⅛
⅜
←
↑
→
↓
⇒
∆
∈
∑
−
√
∞
∴
≈
≡
≤
≥
☉
♄
♦
♭
♯
、
〈
〉
「
」
い
う
お
か
き
く
け
さ
し
せ
た
ち
つ
て
と
な
に
の
は
ひ
へ
ま
み
も
や
ゆ
ょ
よ
ら
り
を
ん
ァ
ア
ィ
イ
ウ
ェ
エ
ォ
オ
カ
キ
ク
ケ
コ
サ
シ
ス
セ
ソ
タ
チ
ッ
ツ
テ
ト
ナ
ニ
ネ
ノ
ハ
ヒ
フ
ヘ
ホ
マ
ミ
ム
メ
モ
ャ
ヤ
ュ
ユ
ョ
ラ
リ
ル
レ
ロ
ワ
ン
・
ー
一
三
上
下
不
且
世
东
両
个
中
丸
为
主
之
乙
九
乱
予
争
事
五
亚
亜
京
人
仪
仮
件
伊
会
伝
作
侗
侠
侬
信
俳
候
備
僕
光
六
共
关
其
内
写
军
出
刘
利
到
剛
剣
剧
劃
劉
动
劳
勇
勝
区
區
千
半
华
協
南
卦
厚
原
厩
县
双
发
叔
取
受
召
可
台
叶
号
名
周
命
和
咲
品
响
唄
喋
喚
喝
四
回
国
國
在
地
坂
堂
堤
場
塊
填
增
壁
壬
声
壳
壽
変
外
大
天
奇
奈
奎
女
好
妙
姚
姫
子
字
学
孫
宋
宗
定
宝
宿
寶
对
寿
将
小
少
尾
展
市
帕
師
幕
幻
庄
康
廻
式
弓
弘
形
彦
彩
役
徳
忠
性
情
想
愛
感
懷
戎
我
战
戦
戰
房
所
打
扶
承
指
換
攝
放
政
教
散
断
新
方
旅
日
昌
明
星
時
晒
智
曲
更
書
會
月
朝
末
本
朱
杂
李
東
柔
柚
柱
桜
楽
様
橘
次
正
武
歳
残
殿
每
比
民
气
水
江
河
治
泉
法
津
派
海
涼
清
湖
源
灣
火
烟
無
然
照
煮
熊
熱
父
物
狐
狼
獣
王
生
用
田
由
男
町
界
番
登
白
的
皇
盟
直
真
眼
矢
知
砂
礁
社
祈
神
禁
福
禰
程
積
空
立
童
端
第
節
籌
精
紅
素
紫
細
紹
絵
經
編
细
绍
维
羽
翼
老
者
耕
耳
耿
聖
聞
肩
胠
脱
自
良
艺
节
芒
花
芽
茶
草
莉
蓮
薛
藤
藩
蛇
蝉
血
術
街
表
裏
襄
西
観
解
計
詠
話
誓
語
説
読
調
議
课
谷
賞
賦
質
贵
贺
赤
跡
路
身
転
輔
輪
述
通
運
道
部
酷
野
金
鉄
銀
長
长
門
閏
間
関
闘
门
问
降
限
雄
集
雙
霆
靈
青
非
面
韓
韦
題
風
香
馬
马
骸
高
鬼
魂
魔
鵡
麻
黄
黒
鼎
龍
ﬁ
ﮮ
ﻋ
！
，
６
：
～
𒀯
𒀳
𝕡
##l
##e
##g
##a
##i
##s
##d
##n
##r
##t
##k
##c
##h
##o
##u
##v
##m
##w
##f
##b
##y
##p
##q
##л
##а
##д
##ł
##j
##0
##8
##4
##1
##3
##9
##2
##5
##x
##ม
##อ
##น
##ท
##ง
##z
##ェ
##イ
##エ
##ア
##ग
##न
##ー
##ウ
##ル
##ス
##ハ
##ヒ
##ロ
##ν
##ω
##σ
##ι
##ς
##6
##7
##ɪ
##θ
##ɒ
##æ
##ə
##ε
##ο
##ᅥ
##ᆫ
##ᄀ
##ᅮ
##ᆨ
##ि
##त
##ा
##ः
##о
##ਲ
##ਾ
##ਹ
##ɛ
##ʁ
##с
##к
##в
##у
##ø
##ト
##タ
##λ
##ρ
##ན
##མ
##κ
##δ
##α
##τ
##υ
##ل
##ق
##ن
##ي
##ر
##ة
##ɔ
##ッ
##ク
##マ
##ン
##đ
##ち
##ˈ
##द
##ո
##ն
##ɐ
##ʲ
##ː
##ı
##ɨ
##π
##շ
##μ
##ð
##ʻ
##ա
##ր
##գ
##ս
##յ
##ƒ
##י
##נ
##א
##ק
##ו
##ס
##и
##н
##р
##т
##ш
##ћ
##е
##ァ
##レ
##ォ
##フ
##г
##м
##β
##я
##र
##ʊ
##प
##ე
##ლ
##უ
##ა
##म
##ह
##カ
##ツ
##ʿ
##ß
##ь
##þ
##œ
##ɡ
##و
##ф
##リ
##บ
##η
##ᅡ
##ᄅ
##ᅵ
##ᄉ
##χ
##γ
##ऽ
##х
##ュ
##ɾ
##ˠ
##ɑ
##φ
##ב
##ᵻ
##ˌ
##ј
##ц
##ܒ
##ܐ
##ケ
##モ
##ʒ
##ノ
##ミ
##の
##キ
##テ
##ィ
##ナ
##պ
##ւ
##թ
##サ
##ɕ
##ย
##า
##ว
##ζ
##ム
##ܠ
##ܝ
##ᆰ
##ᄋ
##ᅳ
##ᄂ
##ᅩ
##ᆯ
##ो
##ध
##स
##ʷ
##ʂ
##ا
##ʰ
##か
##た
##よ
##り
##ъ
##ب
##د
##م
##१
##س
##ع
##ニ
##く
##み
##া
##ল
##ী
##ক
##セ
##б
##き
##ラ
##თ
##ስ
##ታ
##ን
##ቲ
##ు
##ల
##ర
##シ
##ユ
##מ
##ם
##ャ
##ዕ
##ቆ
##ብ
##ɲ
##ʃ
##չ
##ի
##خ
##เ
##ร
##ข
##い
##メ
##ү
##э
##क
##オ
##は
##な
##し
##ょ
##ɯ
##ɺ
##غ
##զ
##ե
##տ
##ɬ
##ᄇ
##ж
##ᅣ
##ᆼ
##ᆷ
##ﬁ
##व
##ч
##य
##ी
##ʾ
##ะ
##ホ
##ʀ
##６
##ल
##さ
##ŋ
##ひ
##ء
##ش
##ہ
##ی
##ه
##ด
##ส
##ต
##ภ
##ɤ
##ز
##ヤ
##п
##ɟ
##け
##ვ
##ნ
##վ
##հ
##𒀳
##ᄏ
##і
##ح
##ে
##ত
##ج
##ɫ
##च
##ש
##ה
##ᄌ
##ᄒ
##お
##ん
##ᵿ
##や
##ゆ
##ョ
##う
##コ
##з
##ר
##ת
##њ
##བ
##ག
##º
##ע
##խ
##մ
##ष
##थ
##ಡ
##ೕ
##ಬ
##ಾ
##կ
##բ
##ց
##ヘ
##щ
##ы
##צ
##て
##ד
##ネ
##ソ
##ᄐ
##ᅢ
##ᅯ
##ﮮ
##ت
##ट
##ʔ
##と
##ཡ
##ड
##ब
##ር
##አ
##ล
##ք
##ʋ
##も
##ワ
##ك
##ం
##డ
##బ
##इ
##ө
##ص
##ら
##ח
##ל
##ɣ
##に
##せ
##ג
##ᄎ
##న
##ξ
##ʌ
##ま
##ᅭ
##he
the
##er
##in
##ed
##on
##nd
##or
##at
##es
##en
##ar
in
of
##an
##al
##ing
##it
##as
and
##is
to
##ic
##ou
##re
##ion
##om
##il
##el
th
##ent
##ec
##st
##am
##et
##ro
on
##ad
was
##ac
##ur
st
##le
for
##ly
##ol
##ir
##id
as
##ter
##iv
##ot
##ig
re
##ut
##im
##ith
##ow
##ay
be
al
with
that
wh
it
##ation
con
at
by
an
##ers
fr
##em
is
he
##us
##ch
##ce
##ver
##th
##ul
##and
##ain
##os
ch
##her
his
##est
19
##ag
##av
##um
com
from
se
su
pro
##ct
##od
##ess
de
##ap
##ect
##ist
##ri
##un
##00
sh
ne
##op
##ill
##ere
##igh
##ber
##ld
##ies
##oc
##all
##art
##ich
##ard
##ak
ar
##if
or
ex
were
##ort
##ate
pl
un
##ab
pr
##pp
le
sp
##ant
##ud
##ong
##gh
##ated
tr
##se
en
##ity
##ive
##ie
had
##ame
##ore
##ack
which
##our
##ip
##ast
##ge
are
##ear
##ough
not
##ov
af
##ment
##ian
##ell
##ally
##ost
##ound
##qu
##out
cl
##ight
rec
whe
br
##ust
##ary
##ord
##ia
##pt
##oun
##ave
##ine
##cc
her
ad
sc
comp
fir
but
inc
wor
##ould
this
##ther
tw
ab
cont
after
int
##ous
##ish
##ial
first
gr
200
its
##so
##ions
their
20
all
new
res
am
##ure
one
##per
ro
##ue
##ass
man
##ok
also
mar
per
she
##ome
us
##ign
##ub
tim
##oll
##ical
rel
##ater
they
##ond
##ide
##hed
##age
two
##ire
fe
##orm
##og
##ru
ser
who
##ry
have
ag
comm
part
bec
##ans
##du
##ff
##rit
##ence
##ile
dis
des
##ra
app
we
rep
##end
##ree
go
##ition
##iz
been
has
off
##ely
##ance
##own
##uring
##act
play
18
over
year
other
up
##lud
out
im
201
co
##ult
##ice
##ach
ev
##ember
##ace
att
##wn
when
##land
car
fin
dec
inter
##ations
##ke
##ade
pre
##ory
can
time
bo
during
##ail
fl
##ib
##ount
includ
##urn
would
##ced
ind
##ens
into
##man
##one
sec
te
me
##ks
##ward
##ict
##ite
him
##we
##ang
##int
bl
fil
##pl
act
##ates
##ick
##ased
##ied
cent
##ited
##ose
more
bet
jo
##able
ear
war
##nder
form
char
par
##amp
##ents
##way
acc
film
el
##ors
##ase
##old
##les
cons
##ces
##ft
while
mus
##aw
##ild
##te
most
##ings
##pr
thr
##ason
##att
there
kn
rem
##form
game
##ind
nor
bu
po
song
no
##vel
qu
##aus
gen
##fer
so
##iss
ass
pe
##ious
##reat
##ake
how
reg
em
later
about
produ
##gan
##ved
##ican
again
##eld
##rop
work
under
##ood
ret
##ve
only
air
may
some
three
##rib
than
them
##ix
day
high
##ock
##gr
##ween
##ubl
mon
bro
between
sy
##oth
through
##ollow
col
##als
##ered
num
##ction
199
##fore
##outh
follow
##ath
##ons
min
##hip
record
second
end
rele
ma
eng
##ational
li
alb
##ters
dr
pres
##hn
##orn
sub
ac
##ug
def
##iew
sa
##ph
pos
four
ph
before
where
##ating
cap
lar
season
mov
north
amer
sch
do
##ral
made
##ular
ep
##ey
##ics
world
album
##ived
writ
##son
sur
team
##ames
##ision
000
sing
sm
will
##ep
str
##ained
gu
arm
such
##hes
spec
cr
##ished
##ton
rev
call
publ
pol
loc
met
##ever
sever
supp
##ning
south
##itt
add
years
##let
10
##ected
gener
mill
##ily
##io
##ros
inv
show
both
imp
used
##ode
being
count
art
however
then
##ank
##tern
number
##other
##ific
##ery
##ual
bel
set
##led
batt
these
##ool
stud
inst
long
well
##ury
ed
sim
##ection
back
##ten
17
##oup
music
against
epis
series
many
##ert
main
##ince
##ause
##az
##air
##ale
city
found
op
lead
##ather
##ement
including
pop
##urr
charac
dire
rece
became
sl
brit
##ier
ter
united
##ron
trans
##fl
##res
several
perform
div
##velop
##oy
##ise
##ower
##au
mil
mat
state
12
##ife
##ised
ob
##anc
appear
##vern
##ork
##igin
ship
cre
contin
##ures
dist
did
##ines
##its
develop
origin
15
nov
alth
win
exp
ann
ext
although
prov
dep
198
could
##ities
##ley
states
conc
ger
bar
dif
##iet
##til
##ually
govern
oper
const
##ross
##ield
run
##elf
##ird
return
##uc
##are
following
194
john
est
said
any
##ful
##ouse
early
crit
group
##iver
american
##ative
land
##der
direct
11
near
##ann
aust
episode
pass
king
mod
school
##emb
sign
196
known
16
jun
##sp
##eng
##row
##olog
fam
gre
##ident
##ople
down
##ought
feat
##ued
##uch
design
##iam
began
##ah
hist
because
red
##ism
serv
west
med
pers
lo
##ange
##ject
##ivers
##ern
##ided
own
until
har
desc
offic
disc
##ized
called
##ek
national
along
point
197
##ll
##ured
##aking
port
ste
open
eff
##ined
released
like
##0s
##ty
people
resp
##enn
million
##stem
##gin
##els
compan
##ccess
prev
##ists
##ele
##ium
##osed
##ets
##xt
ever
av
six
maj
since
##ially
system
british
##ull
around
if
star
head
my
##ric
ju
##red
aut
13
var
cour
adv
class
bre
same
best
just
##ession
id
aug
##oot
hel
cor
km
la
another
##ments
##ution
five
major
east
##ains
award
sw
##ont
german
##gg
##cept
attack
coll
each
road
took
##ark
august
describ
##aced
start
success
##up
ty
old
##ently
great
support
##ible
##aining
oct
##ene
sept
build
arr
14
report
use
##ts
austral
book
september
##ys
result
##hern
##amed
##ane
##ired
final
received
gl
you
##aving
##cl
occ
character
##ended
tri
area
complet
public
dem
##ruct
##und
band
det
##raft
consid
line
ge
what
##ik
##app
small
##ob
prom
short
193
##ober
##ues
##ately
due
march
turn
hal
##ives
chr
october
ra
##get
life
house
sk
mid
##ble
195
last
stre
del
##ger
way
camp
##uss
rest
century
government
june
##ash
single
##ison
##ission
squ
##ner
##ored
##ted
mag
##ility
contro
third
univers
191
##ants
partic
rout
command
##enc
##ilt
event
large
##ink
##ove
##oss
games
top
cal
ke
ent
mark
##ians
home
dam
##urch
##ins
much
differ
apr
general
jan
island
left
##hing
child
gun
vers
##aim
april
july
##iving
capt
ele
company
conv
death
prot
##rap
month
##omet
##ute
allow
fur
tit
review
men
##ively
accord
##ina
town
even
york
##sc
##inc
power
##idge
soc
##ting
##ms
enter
black
##uary
place
family
##ales
track
storm
##bo
river
eu
spe
story
kill
##ica
##ural
25
november
##ified
##aged
conf
incre
leg
based
##hest
vict
addition
##lish
now
water
vis
##bert
progr
192
##erg
according
appro
played
december
post
##ared
30
law
hand
requ
vide
##hen
##ically
hum
within
##rote
person
included
##ient
pat
##ention
wind
expl
park
right
cast
name
##avy
##ages
club
army
wrote
##over
##empt
##ime
times
week
##ling
january
intern
##side
far
##ats
those
##ract
prop
##ott
opp
rad
ant
belie
##ven
##ience
help
led
##ides
bill
##ody
##med
deb
init
won
##apan
##ague
ii
##min
previous
##ench
wom
##ball
described
##ilar
##iven
organ
val
japan
built
still
stand
bus
##ached
battle
##por
white
ang
##by
##ital
##aff
next
##aken
force
##omin
foot
memb
##ister
##ior
similar
care
##ival
cy
##ony
repl
make
further
light
##erv
video
poss
##ched
division
sout
##akes
among
##bru
champ
exper
late
nort
named
##br
commun
##itions
##iod
iss
original
elect
route
held
##sh
##wards
rock
view
attempt
trop
bas
sold
former
real
effect
milit
nat
list
ref
members
##ne
christ
febru
february
president
##mer
equ
##na
days
##ested
very
period
tour
##ograp
100
dest
inf
fre
good
side
match
cle
auth
though
tem
typ
sound
2010
every
##ulation
##ying
##ented
##ney
##ret
europ
roy
youn
release
##ps
sol
che
##ars
desp
##ense
role
tele
say
few
##uted
fle
infl
##ech
##hy
polit
control
eas
21
##ren
plan
claim
university
pa
tot
species
cross
order
##augh
league
having
##ck
##port
different
take
super
local
##ences
continued
half
mount
beh
french
press
coun
production
begin
24
caus
##ness
never
##ipp
##ances
player
service
##oci
estab
europe
common
##ler
low
##bs
level
sent
2011
fact
often
##ese
##ves
came
without
wat
je
associ
fire
geor
##ots
##iend
##par
histor
cover
##ator
pri
william
test
##ford
##estern
22
2009
vol
friend
written
##line
pet
mor
despite
less
sum
mich
mi
forces
##ards
##craft
sty
chart
lond
don
##af
london
2008
stat
considered
church
arch
##erc
moved
fun
court
##ops
comb
prof
ten
##ham
##ruction
country
songs
field
##ices
night
tre
strong
rom
building
##ried
england
given
mo
highway
party
jack
royal
position
trad
lim
##essed
want
##rodu
##ady
repres
hig
vi
##irc
##aster
##ax
county
military
tropical
english
cop
##me
##ittle
become
champions
##atter
##hel
23
aircraft
total
hour
vir
rail
author
eight
##omb
##vision
##ones
announ
history
father
gold
invol
2012
earl
##ising
anim
##que
##alk
broad
lab
##con
sugg
produced
##iety
version
influ
need
let
##lex
##eder
##ize
reported
little
##atic
aff
chang
##ology
##self
2007
program
lost
son
##ald
##urs
dav
find
##ief
dou
defe
miss
hy
using
phil
returned
##ged
##ailed
hom
arg
young
ord
development
went
colle
street
##ript
26
mass
should
##ead
190
50
##oint
project
##elt
tro
published
get
somet
canad
##ai
sal
ground
ap
larg
##ency
trav
recorded
ball
coast
particular
western
##echn
front
gave
prim
critic
circ
conn
ve
##ae
stated
##sequ
40
sel
##ably
once
bur
southern
station
##ches
import
region
upon
free
##ories
depart
hit
##xim
months
hall
include
##cess
see
ships
television
28
##used
du
ins
refer
center
popular
age
ly
making
##ned
##iness
throughout
international
compet
central
vill
ide
hun
##ef
vo
##alth
women
australia
##ges
##play
techn
mad
##ama
ft
##osp
##ength
suff
produc
career
27
rich
instead
children
sen
##ests
special
mot
performance
squad
cond
fav
seven
##lo
enc
fall
non
2006
##aign
obs
full
##day
##co
cam
himself
live
##iment
hot
campaign
##roy
wall
##itive
eventually
mal
dev
championship
aud
##iter
official
pal
##ape
##ring
fif
james
tur
##ither
away
areas
##ases
remained
across
aver
net
##most
##rew
introdu
relations
ir
189
various
##field
##ky
modern
##vers
cost
look
##ploy
bow
##raw
##itted
hor
base
feet
died
players
cut
##ensive
miles
title
##isted
##ument
reached
sil
##ael
decl
signific
big
fem
ham
love
too
2013
characters
announced
hurr
##ened
hurrican
fight
curr
sun
northern
put
wr
##ille
sit
fac
##fic
##rict
grand
ill
member
bridge
sea
##ization
##ming
hard
thought
brother
born
##utes
pra
present
bri
hop
fort
writing
created
##dom
political
able
brown
manag
know
pain
##ked
stri
cult
cat
hill
russ
mc
adm
hold
mer
japanese
cro
toget
##ett
human
together
round
range
seen
body
race
##ana
developed
##ple
pi
taken
successful
wood
agre
mean
followed
located
cert
##ering
works
promot
##idence
noted
gar
que
office
appeared
style
##enth
engine
29
george
##work
meet
hon
sat
##yl
##ries
performed
den
surv
struct
football
commission
america
##elling
destroy
esc
rank
killed
los
heavy
significant
felt
tor
##ecut
##ress
##tain
##ality
##ids
god
##ration
##orts
##oney
construction
mother
served
becom
##ani
reb
others
does
points
mm
##ara
hurricane
australian
saw
##cent
establ
mem
##iction
##iting
indust
added
features
##ature
business
##enced
entire
ho
##ements
##ects
grow
##ample
originally
2005
process
##reek
thom
mix
activ
read
critics
established
sn
##aves
hen
almost
kingdom
2014
ital
##epend
ident
word
##ateg
college
independ
site
inform
##irl
population
civ
pred
playing
stage
ur
sex
lack
##ee
decided
soon
expr
close
peak
hol
##odes
impro
##ators
started
##ma
action
di
##ster
jour
behind
caused
pot
formed
magaz
##oon
towards
##eal
mult
reach
invest
##iers
sym
fourth
pen
san
##emy
proble
##ades
director
##eth
##ending
interv
david
rather
jud
separ
wee
social
##ows
fell
##den
subsequ
##go
##aps
31
mart
##yn
guns
damage
##bur
##ceed
resear
##aces
initially
mater
tom
radio
##acy
insp
commit
voc
sam
michael
scre
##erm
opened
creat
reve
bomb
##imin
##istic
fleet
eastern
ul
robert
completed
case
##less
##anch
##ogn
treat
##medi
civil
188
featured
loss
##head
##cil
comment
appoint
##igned
brig
laun
princ
indian
represent
weeks
##ped
inj
troops
##wood
##ata
bay
lou
500
rain
##olution
scene
vot
##aval
surf
edu
clos
dark
sour
neg
earth
important
wid
##ino
sus
pract
girl
tradition
##itar
average
mac
##ways
inn
crew
econ
##ams
prem
cru
fund
break
econom
colon
##gar
secret
diffic
green
difficult
##asing
##omm
generally
avail
##ox
##asion
er
contract
goal
battal
runs
lang
cho
chief
provided
rap
##arch
##iding
discover
##ament
rob
##ius
##ivid
placed
sett
cur
past
##lin
france
interest
republ
working
shot
example
unc
proper
training
host
fig
##duct
allowed
educ
hours
relationship
quar
##board
either
norm
##cast
##chest
exc
##here
foc
staff
midd
pur
room
leading
redu
mur
worked
victory
believed
estim
nar
quick
speed
respect
priv
##iff
mel
scored
feder
##umb
dut
navy
individ
##ena
angel
magazine
##pre
material
fut
ru
tar
##ico
least
2004
ach
##men
studio
cup
wanted
bi
pit
key
dro
must
rul
stru
council
grad
turned
wife
##ship
##ential
squadron
recogn
scen
187
wil
##to
winds
ver
immedi
conduct
##ption
flight
##li
2015
##west
bir
piec
stop
finished
accept
designed
pay
##uel
##hic
keep
involved
henry
operation
##fall
earlier
paul
come
deal
board
lower
cycl
available
##be
union
186
news
regard
awards
##aut
##spec
ey
contrib
##ha
##anks
tow
brought
transport
##erous
better
mcc
mph
##oring
##tim
stone
##ki
##aper
events
records
recording
nine
##ving
regular
##ville
##uck
##cher
##off
plat
minutes
##aur
2003
relig
saying
nomin
exist
##ells
joined
##imes
opening
washing
increased
pil
roman
particip
##iforn
novel
lik
californ
particularly
##oph
flood
virgin
der
##omp
employ
##eter
lear
elements
replaced
##of
feel
achie
largest
threat
scott
phys
move
atl
society
viol
germany
##antic
summer
##osition
prior
grant
charles
##pression
fa
##mp
##for
##ishing
washington
ox
ended
doc
##ays
highest
##ecutive
length
##ination
langu
35
uk
films
quest
##ological
infant
money
hous
##ris
##uit
bal
taking
respons
research
ps
##hib
step
account
european
##ka
##iation
thus
district
##aring
##anish
remov
reviews
forced
food
commerc
flor
captain
##itution
##gn
##key
heart
sequ
cas
mary
parl
cred
##anned
##ude
police
thomas
percent
anti
committe
california
association
##sel
##oke
##heast
##agon
##berg
possible
##nal
reason
passed
units
space
fly
signed
additional
beginning
indic
smith
community
##aled
change
going
##ocr
above
positive
roll
##elled
lines
disp
outside
meas
##lement
castle
##itz
give
##itor
dig
##rison
debut
##rated
##back
##arily
told
directed
travel
middle
##aded
bank
##ems
abs
lake
##ze
##pped
enough
praised
domin
parts
centre
future
##ida
battalion
bad
section
##oul
musical
##ula
concert
except
2000
##gress
##ago
appearance
45
type
assist
surface
lat
lord
##ership
dead
overall
product
object
rights
##pper
boy
happ
mic
deep
spent
theat
transfer
richard
natural
##ayed
2001
media
certain
interview
##ios
##bers
##ilities
admin
required
##ique
minor
limited
failed
kil
health
infantry
screen
##my
victor
pan
##tr
prob
trib
frank
##ification
study
christian
##bor
##reg
pressure
parliam
60
commander
##aughter
liter
##ference
emp
acad
##ush
##aker
evidence
election
committee
ha
mach
asked
guitar
ordered
poor
complete
jackson
female
##nes
##onna
bat
fest
prison
2002
phot
department
##mar
whose
itself
square
canada
students
rh
beat
##erson
issue
##ecess
ber
bud
market
parliament
32
corn
pac
##ream
previously
claimed
india
our
score
##enue
franc
scient
ren
think
##ume
lu
##kn
stars
queen
pun
##anded
subject
appl
blue
britain
bird
sand
bey
es
chap
clear
amount
broadcast
usually
minister
multip
wild
##ises
anal
specific
##essional
idea
construct
mex
fifth
remain
frequ
##round
entered
muse
##tt
##ully
##ston
larger
approxim
##ready
occup
estimated
ran
##enty
might
##wh
##ability
consider
ny
##edy
##ibility
guard
##airs
##onst
winning
introduced
##uter
##wor
already
##usion
alex
contr
living
env
amb
movement
##erved
##asc
slow
term
quickly
lay
##ga
##ections
breed
peter
voice
investig
commercial
espec
remaining
network
museum
especially
fore
concern
journal
##uation
heav
carried
##isl
ol
date
pow
##apt
railway
lyr
##gen
whom
script
longer
discuss
##icket
provide
village
aw
got
##esh
##stand
decision
##ergy
favor
gro
##oles
teams
groups
lie
##ander
leaving
ultim
display
quarter
walk
##ex
territ
immediately
wal
##change
saf
burn
your
##ground
draw
##ump
shar
185
flag
surround
becoming
upper
##ties
##ites
emerg
jew
appointed
susp
ben
purch
shows
running
shortly
scenes
latter
access
nearly
clim
temper
friends
300
##ulf
capital
structure
##ension
text
governor
hosp
##tained
sev
impr
face
leader
brigade
approximately
cand
course
##bc
react
acqu
officers
brief
fer
##atory
anc
shoot
services
nature
something
virginia
mission
##oor
compared
experience
sometimes
administ
##ba
diss
producer
##aries
##aint
archit
##bour
##aph
billboard
80
gi
self
##ores
occurr
bul
kore
##ope
woman
current
75
arrived
##oid
##igan
personal
##porary
chic
compl
blood
operations
captured
defeated
louis
##val
##oms
intens
rac
sem
democr
sov
corps
dom
##atively
unit
ens
complex
islands
tracks
depression
emb
1999
polic
supported
entertain
canc
federal
tal
wide
uns
helped
##rd
##inct
writer
meth
33
whether
cann
regiment
winter
##onse
imm
arrang
destroyed
male
response
increasing
higher
princip
##ii
artic
effects
copies
soviet
fail
##ography
changes
problems
##ror
##idents
##ective
liber
36
##erve
##iron
episodes
awarded
agreed
industry
pict
instr
language
##anced
attract
standard
bord
##ecting
cm
spanish
color
suggested
intended
jim
chall
buildings
##ken
create
empire
altern
##umn
##ift
horse
forward
plant
singles
model
pu
mont
officer
influence
dance
naval
ut
financ
tax
weap
syn
doct
valley
education
likely
70
cele
planned
##ining
battles
mom
##ulated
spir
spring
finally
proposed
lib
rid
ray
moving
##hem
today
damaged
counter
##burg
##selves
kar
van
##icted
rang
##thing
themselves
##itting
soldiers
manager
cause
plans
albums
conclud
private
ca
##orial
mostly
yet
##can
impact
edition
books
fant
oce
##lands
probably
done
daughter
contem
##rupt
tex
##teen
artist
congress
hero
johnson
environ
oly
numerous
information
subsequently
nation
tun
associated
double
dog
olymp
edward
ranked
cyclone
ice
size
##ector
energy
legisl
iron
scot
simp
##ication
withd
concept
takes
##ban
subst
pacific
minute
feature
establish
mixed
##ny
##iser
##ands
science
critical
lyrics
kr
##uing
##era
block
initial
professional
##che
##abor
includes
assemb
termin
majority
focus
##well
twenty
prec
psy
creek
bring
extended
combat
changed
martin
categ
wing
##ta
##bury
##alled
remains
location
##rica
kh
leave
fighting
admir
gard
mess
ple
related
issued
covered
ce
draft
##andon
qual
chicago
##tic
##joy
##rol
status
37
mu
birth
bond
gal
gall
jose
penn
##ental
refl
composed
goals
offered
defeat
conditions
fiction
##riage
00
lin
carry
festival
makes
needed
primary
fans
##ari
exam
ocean
bed
rat
florida
tas
suffered
method
##ria
slight
raised
launched
##hl
##jected
##uth
mountain
revealed
here
box
##inese
atlantic
crow
##ette
##ching
cust
yard
##gy
traff
compos
conserv
distrib
smaller
experi
entertainment
##asy
##icans
consist
countries
terms
os
##uries
ath
1998
appears
independent
celebr
ast
ven
##uments
active
cit
##oud
##ili
enjoy
movie
attacks
audience
##ado
always
trade
184
actor
oil
confir
ring
##bed
chinese
singer
hu
morn
##olic
##ung
incor
visit
architect
log
und
##adium
really
instit
sir
##hood
##ify
numbers
bor
##isions
od
wit
##ania
stra
##olk
metal
portr
magn
letter
meeting
fair
##ault
married
maxim
sales
##rect
traditional
cer
##icated
china
ability
observ
respectively
removed
##down
##lear
africa
dail
mr
##fact
##amb
canadian
starting
fill
master
##com
##ole
1997
##aught
34
fox
##lor
##ya
##eck
intell
era
poll
conference
silver
hospital
wa
schools
glob
thir
##umed
morning
yards
##vey
annual
selected
foreign
##nel
##etic
##aches
##ously
##izing
constant
lived
via
expected
listed
individual
daily
##abit
determ
largely
russian
##mon
inside
19th
shown
closed
approach
suggest
bound
dv
mun
rate
kind
whole
38
bene
cart
##oo
plot
sched
greater
pack
183
produce
##ronic
greatest
angeles
dar
newsp
marsh
variety
##ograph
##aj
##kin
confl
assigned
##light
##ening
wrest
sar
##itude
##aging
below
##read
1994
constitution
increase
##chester
environment
1st
bab
ign
##house
##leg
##ortun
unable
drive
writers
kenn
##iest
stadium
coach
presented
attempted
religious
mech
##yan
italian
nick
sav
touch
##use
adult
contains
defense
schol
inspired
card
nuc
##gl
##vin
reform
revolution
refused
mas
##aped
recover
direction
prevent
##ompan
##urity
progress
41
die
fast
asp
ali
spot
drum
texas
400
hund
1992
dun
mention
##ste
meant
levels
ros
conver
chann
enemy
adop
disapp
##ails
flow
northwest
collection
occasion
question
constructed
90
stories
ash
##ighter
##ears
attacked
link
##ounds
##tered
cham
neigh
contact
imper
formation
elected
theme
highly
##bridge
source
occurred
dru
mos
sle
extre
economic
hundred
55
hus
##gs
##atives
brad
electric
separate
ultimately
cath
names
##ples
accompan
1995
waters
tower
batter
pair
tourn
resulted
ris
sister
##uated
##uals
earned
express
##rey
##ocks
serious
farm
practice
reduced
cab
haw
stan
train
carol
rapid
discovered
peace
competition
vocal
mechan
giving
##hold
##quar
weaken
iii
coup
lov
thick
begins
##itation
deg
spl
inters
nearby
effort
controvers
##rie
exhib
transl
kent
row
tv
##ging
##ona
directly
promin
theatre
jer
luc
prince
distance
vehic
encoun
declared
multiple
native
##uk
2016
1996
athlet
dvd
abandon
dism
kept
apart
commented
kilomet
swe
seg
##ogue
repe
attention
defend
metres
houses
greek
##band
##ols
purp
francis
nin
##illery
sports
##ibly
##ims
perm
referred
wales
executive
sixth
overs
companies
candid
matt
##ij
##zz
attended
ending
positions
incorpor
hors
tons
##enant
legal
organization
##wide
notes
marriage
weather
acting
emper
strugg
dyn
##yr
suppl
divided
mind
rough
zeal
##win
forest
##hers
print
bob
means
artillery
words
things
prime
eth
sides
##rier
##rian
respond
##ceeded
pilot
49
purs
madonna
financial
mis
viet
##ca
##uff
managed
appar
coal
exped
issues
1993
chris
meaning
diam
iv
##uct
##ishop
forms
convention
psych
necess
scotland
conflict
mexico
cry
jones
true
advance
##ners
stating
colour
strateg
continue
pick
##utions
180
dropped
share
corpor
##ipped
transferred
admiral
39
bon
##iated
179
trial
64
mir
##inem
perf
quality
chem
##like
lot
##gu
##odies
inches
passeng
property
responsible
et
##don
##thur
animals
potential
cold
rein
recomm
resulting
primarily
contrast
ram
saint
##cing
boat
bowl
lif
##road
stock
artists
##de
inch
shel
continues
conducted
zealand
opt
##ingu
##iance
founded
tried
elev
honor
contemporary
traffic
##bre
##ulations
20th
presence
marked
viewers
peaked
accepted
ban
hers
talk
##mas
##ional
##une
##oper
medical
innings
dani
fat
gas
les
mile
tend
spect
swed
homer
seconds
featuring
efforts
##rial
attend
parents
airport
edge
48
##essions
propos
torped
piece
##track
rating
##oe
##yer
seem
##ellow
relatively
showed
powerful
northeast
secretary
flying
slightly
mob
rose
##writ
##cend
prep
performances
hands
republic
target
digital
cities
theory
46
sac
##ita
##ils
job
torpedo
afr
favour
oxford
ess
spirit
fantasy
vess
distinct
authority
eye
65
branch
advent
concluded
thous
stephen
onto
comes
search
##anna
memorial
figure
machine
emperor
fis
##ada
stay
suc
subm
soundtrack
policy
residents
strength
completely
laws
combined
document
citiz
lee
actually
returning
owned
opportun
symb
african
##vement
##pe
beaut
offer
1991
defence
academy
lieut
42
portion
avenue
demonst
allowing
becomes
premi
border
doll
tel
paris
alongside
##apped
bost
cases
##gian
##thel
##ero
therefore
minim
steam
michigan
doub
rule
pieces
imperial
egg
gained
tree
wound
##lam
##ersey
allied
appeal
concent
headquar
senior
culture
44
bott
##ih
##orter
##rawn
element
brothers
ll
##king
##za
coming
sust
##unt
calling
studios
systems
planet
battleship
da
mut
oh
##har
##istry
arab
##overs
filming
vari
tournament
sought
##ques
clar
student
capture
selling
##enge
##icient
arts
equip
observed
italy
##while
##rick
##ires
##aga
##ills
require
function
kg
wear
##ications
carl
results
ire
yellow
##olf
##ota
##ushed
recent
broke
vocals
article
bell
inh
181
actions
passes
replac
temple
management
reaching
negot
lieutenant
ded
gil
ott
##nam
rear
##uled
uses
canal
attempts
croat
##stein
47
52
##sen
##rain
##isation
##acity
scale
weight
freed
sources
murder
maximum
dur
invasion
titled
subsequent
administration
43
unkn
##ube
##rael
security
paid
williams
officials
dry
liver
##town
scr
feed
influenced
sexual
instrument
mol
rod
##ding
nothing
soft
armed
labor
senate
hotel
category
cerem
dw
alone
mainly
matches
opera
struck
##standing
doctor
dang
sense
##ifying
orchest
spain
resist
drama
says
confirmed
gam
##ker
guest
1941
bit
fish
lane
##pass
store
alt
##vert
chair
resident
collabor
claims
rainfall
latin
jersey
behav
encour
data
paper
##ockey
abb
dise
charge
crown
channel
boston
unknown
fan
pap
##ips
##ickets
else
illust
scottish
prominent
##astic
note
consisted
designated
reports
deliv
meanwhile
promoted
choice
beyond
##cle
albert
write
crowd
ireland
fear
##iring
webs
arms
convers
activity
##ns
##cy
##mond
poet
widely
platform
equipment
##hire
##iced
manchester
imag
joint
explained
believe
growth
seventh
##ini
send
adj
evac
americans
1942
jeff
territory
bass
merc
extra
weapons
bbc
##hi
hyd
figures
husband
tells
##ety
comedy
proved
historic
walls
nominated
joseph
md
path
sant
tall
##ees
##bon
stations
##ider
broken
surpr
studies
older
argued
libr
##dy
##anes
seek
twice
eliz
grew
historical
problem
pul
##mans
##pool
israel
resc
plays
typically
physical
victoria
heavily
horses
##icks
##ura
reserve
matter
visited
ancient
##gypt
expedition
cinem
lives
##rical
avoid
producers
reign
##osen
comic
serve
assault
workers
motor
headquarters
ahead
sens
##ux
##abeth
seasons
harrison
debuted
affected
treatment
moment
intellig
unlike
trust
182
cool
prepar
1990
advanced
label
duke
catholic
egypt
ta
##lie
##ala
height
1960s
animal
escape
cell
din
tank
##ads
severe
editor
maintained
leaders
1945
bart
pin
##ew
##iber
##adel
beach
emot
watch
historian
##born
suit
offensive
elimin
background
pattern
looking
rot
##la
toward
floor
capacity
##ancy
1989
lands
passing
##ket
chosen
unf
content
manu
steel
golden
dutch
birds
tech
##rate
exec
1980s
1943
roads
column
opposition
51
ni
##uous
##olved
fired
value
identified
tam
##rative
compr
speech
nuclear
youth
##ev
anth
trail
opin
expans
medal
represented
95
cub
ow
##ym
pros
##ordin
register
fellow
herself
2nd
dream
mort
places
sport
image
actors
landing
analys
manufact
hat
jul
nations
ton
##ano
##isers
interact
worldwide
wilson
simply
hair
von
##egr
##iana
##ancing
strike
narrow
korean
wave
doing
entr
palace
independence
creating
##ece
spr
scoring
wars
1970s
expressed
injury
mul
soul
tay
##icip
##omers
mounted
condition
eld
##wall
why
trying
contained
criticized
situation
normal
##osaur
leaves
cooper
operated
trees
newspaper
repeated
hockey
il
mit
##cel
notable
compar
polish
protection
flooding
couple
elizabeth
bol
fuel
##wise
##ete
columb
laid
agreement
alexander
surrounding
lem
##lines
##gers
##ighth
agric
barb
opposed
motion
##ylv
robin
jon
pian
##more
officially
causing
activities
challeng
fal
lady
##room
##erse
spin
brid
1988
technology
vote
aim
##water
supre
frequently
gord
##where
##illy
##urb
newly
finish
1987
1944
southeast
losing
achieved
sequence
casual
assembly
kilometres
bc
sr
##under
##stone
lew
##gend
parall
##ledge
1940
versions
baseball
regarded
97
gross
lind
chose
##izes
##ocked
cricket
150
georg
bac
kid
kick
rhy
sher
sail
##ava
setting
myth
possibly
volume
girls
agricult
54
aid
ble
faced
##ule
defin
supply
##fully
republican
##worth
straight
ba
arc
spread
aired
southwest
serving
oppos
carolina
dub
gill
##iles
##uls
accident
emph
famil
prompt
perfect
76
mist
tab
##oman
consequ
join
foundation
christmas
ec
lap
##isters
##acher
##ayer
##emic
##ends
nob
fully
##onents
##oty
chor
interchange
snow
institute
website
53
aer
gib
zone
##mark
##aly
##agan
arthur
legend
try
poly
miller
##engt
calc
billion
contributed
daniel
sud
shell
##intend
1990s
restrict
homes
budget
mig
##isc
##iled
heard
filmed
##azz
appearances
distingu
expanded
advant
sky
request
standing
66
cd
nav
fresh
consecutive
surre
justice
younger
fame
gather
rise
sell
##rid
chance
ends
famous
1970
crossing
commissioned
urban
expansion
habit
lic
roles
andrew
##amm
unus
attrib
effective
criticism
split
600
ax
##ias
retired
orders
democratic
800
tail
vice
##uce
##ote
contain
relief
##resp
planning
61
ga
page
weak
receive
holly
cannot
##ylvania
emphas
dan
##oted
franch
##umber
cloud
moon
cambridge
abandoned
dim
hur
##hew
##oma
##ola
recently
##pton
web
consists
178
explos
growing
granted
citizens
##awa
depict
killing
experiment
hits
rival
##sw
##inity
##rel
##outs
revol
supporting
penal
colonel
measure
dismiss
drop
hip
tell
##omy
##uses
##anda
prefer
actress
remix
basis
mike
individuals
safety
taylor
##yle
braz
adapt
secondary
summ
brian
powers
57
##oration
orb
computer
heads
regional
honour
extrem
risk
library
bishop
bodies
drew
gh
gulf
nest
##stream
exchange
centuries
177
classic
##ription
ideas
successfully
negative
participated
tag
##oses
##estic
seat
roof
agent
bands
reference
cultural
briefly
battery
fro
gives
##iate
##ici
max
volcan
failure
determined
56
gate
##och
thing
heat
harry
treaty
literature
shooting
scheduled
gain
##lers
##itan
##ading
##akers
contest
champion
necessary
3rd
##laim
##heim
throw
##utation
sund
singing
describes
mentioned
chamber
families
##onent
brand
locations
extensive
finds
rolling
85
bom
fash
horn
males
ori
creation
1969
weekly
virt
weakened
az
core
##ko
##aling
##ulate
##umes
quite
instruct
skin
eyes
penns
benef
jr
##eper
##han
##hol
##uate
##bi
perman
follows
sets
leadership
1972
protect
##hens
commonly
authorities
females
58
dial
hind
lad
rand
ts
##rad
##ington
prote
teach
performing
railroad
irish
painting
witness
liverpool
62
caught
##rane
##orters
online
##agn
excl
sche
allies
upgr
titles
organized
72
banks
save
##ram
##zy
atm
unique
province
turns
solo
facilities
rub
1939
rebu
garden
bes
caval
jenn
nap
oak
##set
##jo
##ocated
incident
perh
disney
decre
1983
trip
mountains
freedom
gordon
##tv
##ira
rejected
##osh
genus
belong
picture
degree
wounded
fashion
perhaps
map
ridge
tact
120
visual
purchased
principal
disease
ron
session
##bn
1967
1971
types
hope
rapidly
91
pier
rare
##greg
##inum
##ato
##ivity
patrol
hyp
sites
entirely
launch
supreme
gay
##err
##once
##eless
knight
1985
1966
grey
industrial
temperature
adopted
kings
mand
sort
##aven
glass
philos
touchdown
reinfor
##ja
##itled
sha
goes
##issance
transform
##box
suggests
freeway
alternative
lewis
eag
hay
##kins
##arm
##istics
integr
boys
strengt
1968
corresp
swit
1918
currently
journey
regarding
existing
intelligence
atmosp
correspond
bern
drawn
##inn
##elve
##oln
chronic
##unk
##unte
twelve
volunte
connected
##burgh
acquired
pennsylvania
fought
gri
jac
##een
##zant
shape
adap
firm
generation
##shire
controlled
improved
scholars
roughly
##zen
##het
##onic
byzant
boats
didn
1964
##adelph
advantage
table
##eed
##iro
thin
##iful
repair
knew
engaged
crime
depth
protected
everything
judge
ohio
ka
##fort
##ilton
advert
gray
##oking
guy
calls
arrival
campus
towns
solid
profess
philadelph
jewish
task
sustained
opinion
ok
##rons
##atures
unl
##attle
landfall
evening
beyonce
franchise
brazil
dip
linc
ward
##lusion
plants
gameplay
1986
letters
missing
falls
utc
analysis
lit
om
worth
providing
##arked
belief
equal
charts
philipp
unsu
experienced
converted
philadelphia
vac
recru
defined
watched
jean
historians
russia
intensity
withdraw
global
63
cad
code
fix
hem
nhl
alle
playoff
themes
steve
surviv
employed
enjoyed
purpose
dedicated
kir
ped
wed
##rich
##any
stages
##iform
containing
resemb
dram
typh
occur
penins
focused
learned
vehicles
opportunity
casualties
asia
##eman
trains
graph
resour
acts
consc
regions
junior
household
limit
olympic
succeeded
59
##ua
##iments
shr
exerc
wealth
norway
germans
anything
moder
protest
coastal
folk
fighter
naz
sie
deploy
reserv
consum
survey
developing
provides
internal
prisoners
scientific
walter
increasingly
georgia
surrender
mode
##aver
##iday
##ender
pret
specim
holding
structures
hart
ken
ot
rated
sed
sad
##kes
##pi
##asa
shared
descend
poem
##leton
championships
stopped
resistance
cavalry
lincoln
99
eighth
fine
outer
sab
tenn
##elly
flat
brook
adding
simple
1984
stret
neverthel
selection
architecture
nevertheless
gang
lb
nintend
##pa
##eds
##amin
isol
##aine
reputation
1960
turning
getting
camera
merch
duty
reaction
liberal
67
ss
whit
conqu
seems
exact
desert
ways
humans
easily
corner
semi
prepared
parallel
hug
rum
##gun
##wart
##ceived
enem
ell
receiving
approved
hills
faith
breeding
responded
nintendo
ari
cens
hired
##iger
##ignment
blues
engines
publication
allows
equival
finding
rules
religion
francisco
supplies
98
##iny
trou
enl
estate
headed
earliest
unsuccess
jam
inner
shaped
##illa
##aka
basic
specifically
corporation
vic
##atus
anderson
##etts
##antly
18th
cars
interior
maintain
1920
bush
##onym
recognized
existence
rhodes
occupied
symbol
eggs
96
mouth
##ware
##usc
plac
wheel
joe
1973
demand
##encies
wickets
##oster
ago
defensive
collected
1919
1915
hung
technical
credit
synt
cabin
candidate
cryst
piano
pound
##icide
##ompl
##istan
bright
##achus
decade
1980
deter
confron
declined
violence
bull
lis
ross
##olis
##ipe
marine
evil
flu
secure
##ucky
storyline
archae
buried
losses
closely
renamed
77
##aud
##taining
phase
1979
details
dougl
colonial
kim
##inger
thor
proceed
adam
##mann
subs
1946
160
restaur
massachus
inspir
economy
bottom
delivered
hydro
enemies
massachusetts
73
fit
na
nic
nam
rome
sections
wides
##hr
frag
shut
price
syd
classes
windows
basket
typical
paint
reading
injured
gradually
sharp
81
cow
pear
vent
##fri
##okes
guide
showing
simps
clean
statement
labour
knowledge
admitted
pitch
intersection
simpsons
87
jes
ryan
##eton
shop
neut
deck
warning
retained
capable
1938
viewed
slowly
drug
rural
##ients
##icit
thunder
##station
##ador
##othes
##istol
##ieval
musl
medieval
magic
additionally
projects
hitler
##garian
assistant
challenge
thirty
wrestling
accompanied
79
##iences
##oked
retire
highlight
entitled
presidential
jur
sons
items
##asty
##eller
acclaim
##ropri
colony
1965
##ipping
tests
reasons
arranged
columbia
extremely
74
han
##gest
##ien
##ras
##ji
bron
scully
gram
grav
teen
crimin
invited
1975
1950s
causes
significantly
micro
filled
chest
mint
##orted
lev
leon
mah
supporters
greg
speaking
views
##ographer
popularity
premier
purchase
domestic
cra
pink
##eb
##cop
##entions
worst
raid
lasted
surviving
portray
peninsula
bid
bang
bath
ches
loy
tanks
##oli
tra
indones
knots
crash
designs
raf
personnel
hamilton
voted
settlement
credited
concerns
substant
astron
68
##rations
##rell
##sey
1914
deaths
ruled
objects
literary
carrying
700
##inary
attached
flash
acid
poland
operating
constit
1962
autom
routes
##inking
entering
speak
confeder
similarly
funds
##pread
platinum
feeling
diamond
ceremony
exclus
widespread
ak
foss
wings
clark
composition
grade
playstation
1981
eleven
authors
combination
moore
promotion
princess
threatened
investigation
kentucky
passenger
documentary
rhyth
typhoon
jay
mine
sale
##va
##ping
shall
spons
carey
norwe
130
correct
demol
circulation
connect
producing
denied
occasionally
hollywood
89
gets
rivers
util
##met
##put
singap
models
1963
1976
1917
convection
250
bridges
dated
hull
kit
none
##iques
##nic
##oz
##wick
##rec
##adow
ready
fruit
##una
arsen
brain
scar
genre
dress
obtained
1982
110
##ologist
1974
crossed
applied
journalist
mulder
71
mtv
rene
##bl
##roll
##ivals
##rif
margin
shear
address
entry
posted
batman
beautiful
entrance
82
hell
torn
##eral
##ima
agency
evolution
buff
oldest
garrison
indiana
olympics
composer
equivalent
86
dor
hms
##oard
##burn
grass
parties
sax
install
returns
streets
1916
elections
products
##bourne
##break
93
dates
##lav
##oir
##mouth
##bound
##ati
##atch
##ushing
intention
interp
actual
forming
accur
winner
1936
programme
departure
nomination
segment
##borne
ri
raw
##tar
##time
submar
implement
1961
harv
portug
swim
describing
certified
favorite
##western
##ito
##str
bears
hear
amend
accused
assert
subt
writes
armour
1950
approached
vessels
thousands
adapted
douglas
bos
##rant
neither
studied
divisions
1930s
programs
survived
premiere
replacement
cited
dal
rar
races
sin
##acks
barr
nether
exception
happy
concerned
consisting
singapore
69
jane
wwe
##inces
islam
songwrit
quant
acres
deput
1956
##agonist
baby
orchestra
professor
sydney
cou
hang
##sa
##rig
##alf
decades
dragon
owner
myst
occurs
##erged
introduction
remainder
emerged
emergency
giant
conservative
kennedy
sleep
88
lam
sessions
shots
##aki
charges
continuing
1930
controversy
incorporated
proposal
permanent
dele
##iling
##etime
##ighters
##aked
orange
plate
enfor
afterwards
formula
throne
buy
someone
ackn
populations
1978
universal
connection
transportation
maryland
chapel
norwegian
acknow
4th
lock
wel
##yard
##rets
alf
comics
##ctions
serb
preced
driving
downlo
convoy
##book
trophy
politics
animated
holy
improve
chapter
bringing
94
las
lenn
wond
##idden
bear
mars
##iley
decor
secured
remember
assumed
downtown
ports
##apping
1937
##after
fields
bombard
temperatures
message
pleas
ninth
negoti
chorus
basketball
deleg
##ds
##rest
##ora
##irt
reun
interested
##ifications
passage
collect
starts
factor
engineering
environmental
robinson
vul
##rus
##cement
##po
shield
##abled
##ella
recalled
income
images
1948
replace
hunting
##ez
##come
##wa
##bar
theater
##apes
shore
scul
##achment
thereafter
sword
1958
superior
animation
turb
cruiser
pictures
portrayed
alleged
bought
cul
kur
vision
##itors
ones
##otic
partn
otherwise
equipped
sounds
settled
reduce
indicated
academic
##ascar
sweden
loyal
84
bure
wet
##right
##cer
##uge
##organ
##ali
scand
##izations
formal
remn
##veland
universe
praise
mexican
methods
chairman
behavior
arsenal
gone
haz
veter
##ooth
##hetic
warri
##aware
##teenth
undert
phill
176
prize
identity
separated
battleships
resources
crop
ku
##icate
truth
alliance
##ensions
earn
##orney
1947
strongly
affairs
argent
importance
seeing
derived
accounts
alien
adventure
gilbert
diet
jump
rig
##ran
##wich
##ester
inher
##ashed
answ
aboard
charged
cape
metrop
landed
greatly
cleveland
satis
discovery
recognition
climb
ancest
marshall
aspects
disappoint
dynam
vietnam
bapt
cells
lun
pel
soph
vary
wels
##emed
offers
simon
1954
weekend
effectively
hoped
recommended
wearing
penalty
sunday
sculpt
78
##uan
##zer
##heas
##ares
##ersed
trig
marc
whereas
##lets
12th
extension
attacking
communist
##ographic
treas
missions
circle
memory
unusual
au
kong
mud
##bro
maria
##ansas
attorney
howard
mayor
moves
door
meters
transition
##aham
classical
tries
differences
requested
falling
distribution
strengthen
benn
gle
mck
sid
##itage
##ela
chain
flo
retreat
expect
courts
completion
legs
grounds
injuries
attracted
terminus
examples
neighbor
ottoman
06
eat
pav
##onia
##ingly
175
anne
serves
13th
##rett
techniques
camer
improv
rooms
chemical
netherlands
rab
##inal
##ami
##char
intercept
fled
installed
17th
classified
breaking
crosses
morris
difficulty
properties
responsibility
sequel
assistance
dissip
##osaurus
inspiration
92
cem
fu
##entially
##otes
##agu
mans
##hedral
impl
operate
##chers
controversial
sweet
welsh
pak
pull
##ses
##ishes
##omic
##omot
##imet
##osis
##opher
##ortion
##ables
##ovic
reconst
upd
outstanding
##iversary
possibility
massive
insur
immig
weapon
custom
scheme
atmosphere
lor
lies
tu
wag
##mus
relative
carbon
mush
musicians
communities
russell
promote
representative
votes
##works
simpson
##heastern
fitted
ira
jazz
kiss
nba
pig
##ugh
manner
carrier
flank
##inton
medic
restored
commanded
clubs
salv
instruments
navig
##ranean
cock
dies
nel
stood
##olitan
##iva
excess
prey
somewh
pope
triple
1933
electronic
solar
catch
atlant
considerable
climate
establishment
rescue
siege
somewhat
eric
nfl
pure
sailed
##riers
##ogen
warm
underground
depos
advis
enterpr
standards
easy
involving
needs
turk
racing
distributed
strategy
opposite
gap
kat
tied
##dh
##eness
anton
spoke
recre
carter
joy
##ropical
transm
obl
expand
##onto
trials
philip
senator
safe
cancer
experiences
##ressed
ford
forb
##ules
##agues
finishing
cris
locomot
##urray
persu
1921
destruction
davis
missed
immediate
learning
photograph
legislation
hundreds
attributed
rhythm
cant
dens
fab
hou
nich
rif
sight
vert
##gets
##iant
##oes
andy
##umin
##abil
monarch
anniversary
harris
internet
everyone
flew
circuit
rebell
measures
nickn
stanley
dipl
pushed
##wan
##fire
##body
begun
hearing
suicide
prohib
##illing
enth
indians
consult
driven
##ucks
childhood
reviewers
debate
claiming
informed
reveals
##inois
productions
apparent
bh
lanc
vel
##ione
##opes
committed
outbreak
movements
supposed
belt
1952
cycle
styles
wrong
closer
excell
berlin
dating
gust
##iel
frame
spending
enh
reprodu
meat
airborne
drag
##tenance
maintenance
raise
visible
reportedly
engineer
satell
##going
duties
dynasty
dangerous
sudden
interpret
gor
kl
pad
alan
sees
partner
reception
mathem
modified
mediter
1951
euro
politic
circum
illinois
cathedral
murd
absor
korea
precip
passengers
dismissed
bats
tony
alco
trained
twin
usa
##weight
assass
##aza
landsc
1912
attempting
innov
norman
recovered
mobile
encouraged
illeg
byzantine
criminal
toll
##adi
stor
##illed
uniform
bristol
scout
##ultane
liqu
simultane
anyone
stands
reality
salt
toronto
##ommod
mediterranean
bou
dod
fishing
gent
lion
##imate
isbn
clay
heritage
pref
consp
divers
##isms
predecess
tomb
hosted
learn
happened
surrounded
abbey
distinguished
7th
ah
craft
rug
um
wol
theor
alleg
##agre
noting
bruce
roger
displ
monument
ministry
publishing
harm
township
strip
seemed
fisher
preferred
cos
##aug
##je
##atically
##state
freder
##osa
plane
reconna
branc
##ruption
appropri
finn
##wealth
##rupted
ratings
exhibition
synthes
cabinet
lod
##rum
##uv
##mo
##pson
##reck
##ilation
##etery
##pping
##athan
releases
1935
1955
1957
commonwealth
factory
villages
cruisers
melbourne
municip
elder
cemetery
83
dj
fighters
sector
tone
taught
##dd
##tw
##bell
##pective
##eted
##uts
##uting
fried
chur
adams
files
driver
halo
delayed
footage
regularly
giants
disappear
deputy
acknowled
reconnaissance
bun
dick
lith
mamm
sang
voy
##fr
##inced
##arn
stayed
##aints
dean
spears
firing
ages
cob
finals
accommod
understand
publis
instance
wins
extent
parker
affair
absol
dominated
guardian
scholar
encountered
croatia
fel
hipp
ride
tip
tub
##ila
asks
##owa
deemed
decline
warner
##ternal
##ertain
##oyd
extr
formerly
temporary
creative
jews
impressed
apparently
vessel
residential
survivors
cod
mack
##arf
render
bypass
abd
meg
terror
discip
deliver
1910
convinced
1926
patri
angle
periods
horror
thompson
funding
swedish
santa
cher
jord
ye
##part
##icial
##apse
enters
resigned
armen
belg
1953
1920s
scientists
ensure
fictional
thousand
croatian
jesus
900
nom
##car
##anium
##itable
##aska
forests
##oslav
conte
appearing
1977
##elsen
arrested
initi
costs
looked
aware
drawing
arrangement
tunnel
vehicle
hud
lose
pic
pip
yor
##eas
##pan
##eler
##lying
shark
joh
parks
##amese
generated
170
mainstream
detailed
skills
1959
protagonist
refuge
check
criticised
madag
wooden
representing
discussed
permission
matthew
agricultural
##friend
retirement
breat
abilities
repr
coff
teeth
charl
monster
armor
longest
##erto
depicted
classification
stream
kevin
1929
suffering
sufficient
normally
violent
colorado
neighbour
iraq
churches
dave
dna
nbc
##ois
##arian
##eland
##ecast
leaf
amaz
marry
accompl
recordings
depend
arriving
1927
behalf
references
facing
queens
tribute
fatal
tamil
cz
cous
kw
pine
pitt
rising
sib
somers
##nie
##acent
stem
chanc
manh
apple
lowest
treated
lyn
painted
indicate
adults
premiered
inhabit
dialogue
moderate
bureau
ech
gear
kon
mes
miam
pale
##sk
##rence
alab
plain
desire
interests
minnes
imposs
batting
novels
exposed
collaps
raj
personality
facility
##itzer
##iliar
struggle
isolated
partnership
bag
hin
rud
sisters
xbox
##oh
thro
##imb
##chang
seas
shock
##ogy
pregn
smooth
polar
1949
##encing
difference
handed
window
believes
helping
romantic
technique
fifteen
wright
imprison
seeking
renew
nelson
miami
hans
rit
##lus
##ivan
##ager
clock
cloth
usd
relie
repairs
boil
##enses
buck
description
avo
starred
helic
radar
fifty
representatives
difficulties
uncertain
materials
pitched
housing
absence
puerto
diameter
molec
unsuccessful
lisa
lennon
neighborhood
bour
kin
nas
nag
##mun
##ache
whil
allen
agents
##attan
directors
fung
device
doesn
##regon
frequent
determine
anthony
prompted
lect
tan
##lec
##fare
##olas
##apers
scor
coin
##iously
metro
continental
conclusion
austria
##ologists
greece
swift
detail
verse
factors
priest
copy
creator
earthqu
achieve
languages
multipl
spiritual
negotiations
erect
oregon
##vis
##rees
1900
depr
##iller
brick
aftern
uss
##aws
institution
stewart
prevented
travelled
ranking
ethnic
vietn
executed
graphics
minnesota
impossible
helicop
5th
6th
murray
option
sor
tenth
telling
wolf
##night
##oral
##esc
##real
alter
alph
##agement
seats
##udes
clinton
margar
timber
synd
surg
pointed
australians
1934
1932
victories
victims
morgan
departed
settle
moments
gallery
visitors
##coming
bradman
athletic
cinema
context
alabama
vietnamese
dancing
icon
nit
rates
##enz
##utt
chase
##ods
cook
armored
founder
16th
km2
bases
##attered
closing
withdrew
linked
extreme
eliminated
whilst
05
cu
cov
citing
iowa
##fa
##boy
stable
alignment
##osing
prosp
unn
abund
carp
meets
joining
##ixon
defended
aviation
arrest
1928
1922
analy
intensified
poetry
upgraded
crystal
subsid
restaurant
enthus
04
kelly
sic
sick
##orous
inland
##eline
sure
prol
shif
##ophy
##usted
coordin
dece
parish
phr
phone
collapse
communication
watching
relationships
software
nielsen
specimens
submarine
metropolitan
crisis
diplom
madagascar
sas
##tz
##mes
comments
shipping
unp
notably
indeed
charter
174
anna
basin
goods
catal
expression
federation
towers
pilots
credits
application
conservation
philippines
wedding
belgium
coc
dol
kal
neck
pace
sull
yug
##eing
##aire
##rating
##vens
##fe
##orph
##rete
##rose
##aya
prest
manusc
feud
charlie
leads
disturb
operational
signal
junction
harbor
autob
1925
patrick
militia
testing
narrative
keeping
quarterback
borough
hawai
minimal
instrumental
amendment
manuscript
dre
danc
pione
##oen
##bit
##uman
carib
finale
warn
pars
soil
mining
artistic
140
lawrence
tempor
hungarian
voiced
satur
questions
concerts
subjects
riders
aimed
ghost
napole
##onymous
wonder
turkish
jordan
osc
sq
##iat
##leman
execut
##uster
##wned
format
parach
loop
owners
offices
characteristics
raaf
chel
malays
biggest
escaped
symp
feelings
boundary
picked
dollar
bernard
muslim
enterprise
hub
mall
##bra
##aria
andre
arn
spa
##ova
intense
cargo
##inder
pole
quad
sole
string
myster
refers
destroyers
businesses
appointment
participate
badly
grown
degrees
encounter
purposes
registered
nazi
bronze
manhattan
afternoon
07
gab
jet
mental
sig
wy
##bec
##anth
##ader
forty
##igen
##vere
bra
coins
attained
interpre
blind
10th
laur
keith
changing
fallen
bowling
##mingham
holds
rounds
samuel
battalions
##bean
adjacent
adaptation
dock
pounds
rocks
rih
##mate
##roke
stick
fred
##sea
recon
metall
publicly
1911
electron
statue
trek
trend
copper
hole
louisiana
dollars
elsewhere
paintings
bennett
satellite
yugoslav
covers
roc
##rm
##ture
##uits
##war
hend
partly
decides
interstate
teacher
##amps
guil
125
portra
##ructure
1913
highways
influences
multi
bombers
wider
beatles
huge
rebuilt
jacob
somerset
rihanna
gaga
mail
##alo
##apolis
recip
partially
overl
assists
##phone
delay
cyl
amongst
veget
select
situated
potter
flights
bulk
birthday
surprise
emotional
benefit
playoffs
pretty
sullivan
aqu
boss
gates
hi
honey
pir
ted
##da
##mi
##itter
##sters
alive
frig
chand
arist
pron
spar
brill
serial
aged
remove
noble
depending
barry
heading
ski
videos
represents
involvement
documents
baltim
displayed
territories
substit
newspapers
substantial
rarely
precipitation
autobi
bald
kan
mate
patt
waves
wreck
zh
##ls
##lings
##chen
##mates
##asions
##isd
##amer
##rot
##idency
##osure
seattle
ark
amy
indies
revenue
mete
expensive
concurr
##ontin
1931
21st
1908
1907
audio
turrets
birmingham
powered
suspended
dogs
cartoon
doubt
merchant
mathemat
alcohol
storage
baltimore
08
dc
esp
hamp
pc
rings
som
tong
tast
##lan
##bal
inqu
##storm
##rog
##usal
##using
shakes
apprec
acted
charity
monaster
crus
battlec
medium
lob
load
characterized
completing
skull
donated
argues
franklin
cannon
minimum
pulled
##otype
alfred
##music
medicine
battlecru
09
billy
gw
lists
pant
sank
##rates
inaug
cha
##essee
assisted
underw
retail
advoc
approval
explains
anticip
infr
influential
predict
punk
walking
##avery
tornado
ranks
tiss
##acle
forcing
##ifer
##ounced
butter
jobs
formally
genetic
##issions
airfield
designer
designation
successor
glac
restoration
organizations
soldier
covering
lesser
fortress
predicted
dominant
guitarist
favorable
flagship
globe
distinctive
behavi
habitat
excellent
9th
ian
jury
py
vs
yan
yield
isot
arena
agree
acceler
gene
counties
##anny
165
portions
reviewer
opponents
opponent
telegr
mississ
motiv
employees
walker
apartment
##donald
tennessee
satisf
atlanta
dict
fo
hidden
pages
rib
vig
wake
##gas
reaches
plus
##eare
cliff
compound
resol
evans
filed
guards
173
matters
loan
advice
skel
1923
marketing
parliamentary
talent
articles
spotted
definition
hungary
download
caribbean
parachute
ral
tale
wool
##lah
##mad
theod
##oust
##rod
##estone
ammun
parent
mines
155
1924
values
friendly
vii
defeating
compete
engineers
snake
##borough
occupation
administrative
legislative
sarah
drugs
remnants
houston
liquid
shakesp
berg
riding
tie
##erb
##enh
rever
##uther
atomic
##unc
nep
herald
resolution
perry
commem
##kshire
drivers
115
signing
radical
##iveness
electrical
listen
hunt
michel
ferry
intellect
pursue
restricted
hindu
ammunition
bog
wine
##iary
##col
##iden
##oto
perceived
blow
##hips
describe
demanded
killer
believing
destro
err
choose
poorly
amounts
texts
celebrated
waiting
agriculture
teaching
deployed
grammy
strengthened
inhabitants
guilty
8th
ay
ale
hann
hob
vinc
zero
##gle
##no
##fish
##jan
##ulating
lex
##sole
evolved
carn
canter
##anger
slave
14th
lightning
friendship
broadway
1905
lacked
ern
constitutional
seriously
essential
demonstrated
ceremon
repeatedly
explosion
mason
phen
sony
tight
##kel
##hill
##point
##inations
forg
forecast
asian
heir
resumed
##oker
mario
disaster
edwards
ownership
controll
radiation
possession
palest
civilian
colonies
interesting
renov
luke
layer
legislature
schedule
candidates
summit
canterbury
ecl
fold
faster
hence
##life
##die
##power
##zona
##essing
##unction
clin
marks
##icken
origins
11th
deliber
controls
##ippi
archb
exclud
benj
wait
thirteen
revolt
3d
fed
hav
jum
jason
ker
ment
pm
pup
rush
##iac
##wer
##iner
touring
##irts
aside
procl
roose
preserved
meter
divor
provinc
organised
refere
moral
argument
sympt
symph
physic
measured
traveled
##exp
cancelled
drums
execution
exercise
frederick
czech
shakespeare
roosevel
hut
holl
liz
nad
vast
##oly
##esis
stere
##emen
plut
recurr
graham
reluct
offense
flows
elabor
105
##flow
##rows
explo
initiated
communications
ballad
insisted
mcm
woods
uncle
objective
qualifying
suggesting
##ographical
flowers
overseas
printed
strategic
israeli
rebellion
meteor
03
m2
mond
wish
##uations
##ye
##hears
toky
##elle
console
anch
##agen
##rix
residence
marvel
aggress
partial
offering
overw
param
poison
underst
preserv
108
obv
familiar
stevens
arrive
propag
organisation
quebec
diagn
thinking
policies
360
ranging
##chell
observations
arizona
neutral
circumst
simultaneously
benjamin
cable
craw
dum
dri
jar
jess
si
tang
##ss
##oned
insc
##roit
rend
##imeter
external
trick
allmusic
usual
pool
bros
subspec
slaves
obst
15th
passion
harbour
personally
1906
hunter
squadrons
fastest
submitted
laboratory
volunteers
dramatic
swimming
mississippi
roosevelt
subspecies
hab
hog
liv
##uating
##ecraft
span
spider
tru
encl
resign
carriers
consol
retrie
subur
movies
epic
willing
##erted
continu
sixteen
delaware
storms
anglo
planets
morrison
merely
educational
clearly
athletes
attendance
imagery
egyptian
tactics
oklah
temporarily
cort
cave
dir
jtw
lanes
pall
ric
sult
##equ
##rants
todd
asking
spend
##oken
reporter
armies
mills
diff
stead
christopher
trading
1909
institutions
bonus
collaboration
illustrated
orbit
chronicle
trouble
branches
napoleon
jtwc
02
bone
dust
fate
fern
fasc
rice
tube
##lock
##rams
##yon
##ouver
##omer
wasn
congr
##emon
seed
##esses
##asts
earning
understanding
airlines
thanks
mini
##phy
caps
guar
severely
extract
##ucing
signs
perspective
companion
increases
competed
condem
audition
audiences
survive
##owski
targets
drove
oxy
diego
adopt
electricity
translation
conventional
eagle
demolished
municipal
saturday
cord
cass
furn
rag
rav
tack
vanc
##fc
##ouri
##oming
frust
##esty
shak
##abe
##ante
amate
mane
coat
warren
empt
##roph
dressed
164
steven
commanding
##shore
putting
settlers
fault
indicates
galax
chemistry
danger
papers
suitable
patterns
placing
pearl
pakistan
predecessor
earthquake
archbishop
tokyo
01
ced
hide
##folk
##onian
threw
anime
##unes
shaw
abol
marge
accum
peaking
retain
liked
surpass
concrete
chrom
wayne
explicit
furthermore
solution
volumes
affect
predomin
ruling
saved
revolutionary
translated
recommend
talking
preparation
enlisted
vertical
margaret
provincial
oklahoma
vancouver
bot
ecc
len
nur
nash
##rac
##inction
##isp
waste
stern
proced
existed
##ellor
components
##ishment
gran
aggreg
quiet
drinking
##atherine
redes
autumn
swiss
succession
campbell
lights
micha
profile
##riptions
1903
iran
meetings
contributions
sevent
ferr
rangers
evacuated
dubbed
chess
overwhel
guarant
nurs
pod
sitting
tales
ticket
wore
##oons
##mat
##bird
##inals
##itated
##roc
forth
beats
shift
shadow
compens
northward
armament
mainland
provision
provinces
barn
johnny
westward
switzer
arrives
detroit
considers
traded
limits
burial
horiz
cutting
godd
curt
montreal
assembled
reflect
beauty
mushroom
rugby
multiplayer
switzerland
rect
vick
##ray
##aration
stores
bearing
alg
comfort
##ghan
##ello
abc
##orship
knock
surge
backing
portland
##aughters
functions
1904
voting
recognised
sequences
christianity
buddh
ceased
oslo
nucle
struggled
concentrated
consequently
bombs
hypothes
vulner
bones
ip
kansas
mong
push
tai
##lined
##rome
##uable
##itively
ask
comed
spac
roots
marines
relocated
serge
disord
decide
blu
defences
capit
edin
171
founding
annually
##ieth
rede
discovers
demands
sket
visiting
cleared
funeral
representation
balance
percentage
dispute
liberty
watershed
feeding
cuba
comparison
exactly
confront
landscape
commemor
phenom
goth
gosp
lakes
mant
pand
rena
wants
wicket
##low
##pes
##aro
##itudes
stu
stal
##lev
rehears
trough
cler
##iah
amph
marie
disl
flower
remark
backed
terry
courses
useful
occasions
lawyer
youngest
1902
connecting
devast
escort
uranium
bombing
practices
innoc
unclear
scenar
discussion
supplied
elevation
proposals
replacing
axis
volcanic
wealthy
oblig
edinburgh
bible
rou
##gate
##gie
##ingham
##adier
##idal
asc
alice
fract
##opp
##ellation
brun
feels
supplement
simpl
continuous
austrian
universities
speaker
confidence
legit
fewer
fleming
circular
insects
cruc
melody
employment
victorian
democrats
terminal
boundaries
leslie
prepare
false
argentina
photographs
surgery
bent
dense
kids
lying
pond
rick
rio
ze
##lain
##gow
##rom
##ridge
##rator
##ycl
prost
##istent
orth
##anton
tract
manor
upset
eve
##enson
guine
revenge
wells
casting
##brid
looks
striking
industries
dioc
flooded
cancel
qualified
reflected
dinner
protein
shaft
glee
cousin
monastery
cel
gif
hong
##din
##ni
##cott
##bu
therm
##inter
##icul
##acre
##urer
##igs
proc
afghan
overt
coinc
finland
airing
engagement
##ika
rocky
coverage
stronger
duo
campaigns
silent
survival
practical
crews
panel
tribes
investigate
arrangements
alternate
caes
drummer
mechanical
loved
lucas
succeed
conversion
bomber
kirk
crops
underwent
symptoms
sultan
cot
wire
##sky
tox
altered
##berts
plum
unless
sovere
101
163
166
lover
coron
patron
1901
ideal
steps
hearts
ambass
burned
talks
marshal
ninete
optim
dwight
dwarf
delivery
lemur
dimension
jurisd
dissipated
reconstruction
suddenly
pitts
alpha
ralph
amateur
sovereign
pill
pok
pyr
rus
tap
##away
##ci
##cs
##cles
##mith
##fast
##itch
##iders
##idae
##utor
##ayan
alaska
chad
seized
exit
##uda
scattered
grap
attending
indu
##grad
phoen
guild
revival
millenn
receives
glas
handling
valuable
equally
improvement
achievement
hugh
recovery
portugues
acknowledged
behaviour
michaels
bod
daughters
jama
josh
kos
nca
tak
tort
ub
##lon
##nell
reass
reward
compilation
roberts
indigen
##ensis
parody
presidency
104
1940s
persian
harvey
promised
markets
##minster
missouri
shoulder
declaration
commissioner
murphy
scientology
broadcasting
oliv
impress
questioned
mythology
orient
conscious
conquest
songwriter
illegal
appropriate
collapsed
circumstances
portuguese
ncaa
indigenous
bast
denn
danish
hitting
kane
mood
pas
tape
##20
##arth
stuff
beam
orn
compounds
perp
overlo
acoust
northwestern
musician
obtain
##anche
##ieties
168
eleph
debt
funny
profit
affili
illness
##ettes
investment
ruler
verd
certainly
panzer
displays
gardens
aspect
sending
philosophy
fixed
thunderstorm
kurt
interpretation
oxygen
dors
kam
kap
tig
##sch
tools
##igible
##owed
chan
##ctic
exceed
##ensed
centers
assum
stress
strict
guerr
slov
transit
extending
lasting
requiring
realized
tourism
colleagues
penet
closest
ranges
architectural
magnitude
accompanying
challenged
gathered
rebuild
exclusively
yorkshire
parsons
bah
nut
nixon
peng
rp
sample
tier
##iable
##father
##jection
##lyn
prove
clan
scores
disagre
##landers
warfare
poems
maur
##phal
154
myc
collections
trium
considering
replied
donald
1897
##ylan
readers
excav
##autical
taxes
approaching
unlik
nicholas
baker
æthel
##inian
##ori
toy
##icity
##urally
stim
friday
##ardo
##ifies
exter
unexp
##sex
##active
1800
maya
colors
endors
engage
extend
operates
raising
monthly
hamlet
sung
structural
destroyer
gods
removal
ensemb
failing
karl
bobby
concentration
lloyd
deterior
constitu
culmin
density
clothing
erected
aber
celt
dy
ov
tum
venue
##math
##atched
ongoing
##oting
reed
isa
##andy
##estyle
nev
exha
##iph
worlds
artwork
edited
slavery
111
169
publications
visits
expert
charted
tenure
##castle
reduction
graduate
wilhel
physics
indicating
theatrical
##world
oliver
counterpart
shelter
honorary
sacrif
opportunities
dawn
mitchell
jonathan
emphasis
experimental
switch
hughes
indonesia
confederate
displaced
voyage
consolid
unexpected
daw
dylan
fi
kerr
rico
vib
yout
##inis
##itary
##icut
anat
proceeded
shorter
##acked
grave
sheep
impression
cole
canyon
blo
defending
surve
obama
barnes
governments
reducing
farms
angl
lighting
travels
sunk
loud
jimmy
witch
jerry
permitted
columns
##ulsion
advertising
hydrogen
##strong
tubes
vincent
ds
gy
hass
hood
ms
##rine
##cements
##hart
##haw
##mers
##onium
ing
##anz
##stan
##ige
##agger
##uma
##odox
##alling
tram
relatives
dischar
outf
regime
colored
strange
127
developers
descent
varied
glor
characteristic
detected
strongest
referring
memor
samples
biography
sharks
suspic
nickel
coalition
adventures
requirements
comprom
sheriff
withdrawal
census
portrayal
improvements
conspir
chancellor
chelsea
maneu
bench
foster
ko
ky
lava
##ski
##hor
##hard
##vi
##feld
##aser
stops
##iga
reorgan
##tha
##ulus
sugar
spy
spur
spaces
clothes
scrap
worn
amid
decay
warship
locally
distant
158
152
112
austin
medals
starring
collins
streak
explan
nato
sentence
1893
cuts
commenting
verte
traveling
montana
establishing
consistent
encounters
mirror
bacter
fossil
answer
phoenix
dak
fulf
por
ruth
tickets
##run
##hs
##uki
##piter
topped
##ethel
##rov
congreg
##avian
neil
orle
component
abuse
aftermath
grace
newcastle
##oga
finance
##angel
norfolk
revised
originated
jupiter
programming
competing
turkey
1898
predators
diary
absent
racial
heroes
clarke
prosec
sailing
random
griff
warnings
yanke
destroying
unlikely
gaz
pse
wis
##nia
##rimin
##yt
##rooms
##acles
beating
conceived
heb
chore
sean
seam
##artney
exists
enabled
compiled
newton
##keeper
blocks
belle
maintaining
114
tyr
reviewed
legacy
announcement
##efa
hook
identical
identify
holiday
judg
judges
hosts
transported
screenplay
burns
withdrawn
celebration
mosc
lifetime
springs
troub
determin
connecticut
islamic
decorated
dancers
arnold
interpreted
hampshire
infrast
acoustic
pseud
aest
dive
fier
lav
ml
ost
uefa
yam
##dle
##hin
##erning
##inson
##aters
toured
##uras
##uration
atop
neu
spart
notice
outd
cox
attitude
decisions
peop
##ologies
triang
kills
explain
styl
1899
promotional
magazines
researchers
reveal
estimates
graduated
lux
applications
frequency
intersects
platforms
owing
depicts
craig
accurate
initiative
hudson
phrase
taste
understood
pokemon
youtube
cott
eug
kate
merged
nik
##gom
##tle
##case
##eda
##enberg
infer
##ando
exile
manip
induct
##cester
emmy
writings
armstrong
artific
milk
nova
concerning
advancing
petition
lyric
nonethel
palm
1895
hardy
republicans
lords
ultimate
shares
observation
masters
mosque
aerial
##iciency
bombardment
nickname
orleans
nonetheless
dual
duch
mp
##iar
##vised
therap
##onica
##atra
##ener
##aming
stones
reh
proof
##illes
##ocene
##aku
unt
afford
rook
offshore
eval
warned
parad
knee
##ublin
109
167
persons
turner
humor
burton
denmark
rebel
biographer
learns
pupp
rider
##zzle
ottawa
shells
stretch
boilers
pyram
millennium
glasgow
cash
eis
fing
gast
lac
nice
till
ww
##uin
##erce
##enos
##iture
##idia
alp
##rific
##berry
unre
twent
commenced
paras
peas
smoke
speculation
mature
126
loose
skill
commanders
hyper
arguing
competitive
villain
richmond
senators
faces
garn
memoir
intervention
susan
dealing
350
machin
heaven
weakening
preparing
blend
exclusive
harvard
warrior
cosm
johann
disturbance
pittsburgh
bore
banned
duc
lip
nu
nose
##ike
##nat
##far
##bing
##atar
##aments
beer
##elli
prel
##pled
##place
##ribed
fourteen
singers
belgian
internation
similarities
tempo
superst
historically
morph
apoll
praising
cultiv
denver
brigadier
chiefs
housed
breeds
beds
contacted
collaborated
alberta
opposing
##heimer
fossils
mckin
tissue
peoples
aar
catherine
dublin
eating
gary
mik
maps
nord
sak
tna
vik
wart
##dale
##hum
##wald
##zes
##atropical
##urst
##otte
reich
reagan
conj
##cha
##rik
britt
scots
sciences
gren
sheet
feather
howe
##athy
millimet
121
extinct
barcel
harmon
juven
detect
camps
explaining
profession
##hammad
devoted
1891
currency
urged
participation
alexand
customers
constantin
reforms
pursuit
variations
conversation
virtually
vicinity
indonesian
scandal
absolute
extratropical
taiwan
cav
gest
mouse
nautical
pam
rip
sings
tiger
vamp
##rh
##vant
##mont
##yd
tob
##omed
##eto
intent
booth
##ensively
regiments
monte
ministers
positively
172
exposure
baron
harold
##ometric
confusion
angry
membership
tours
superhe
romney
virus
##itarian
breaks
commercially
evacuation
prosper
clouds
hurt
households
brooks
sponsored
portugal
armoured
warriors
updated
insurance
prospect
oscar
telegraph
triumph
moscow
beng
icel
laps
rivals
wes
##enon
##itely
##idity
##avia
shah
org
##udi
tracy
##soft
partners
remarked
acre
smart
addressed
recept
johnston
stein
varies
idol
delhi
##encer
verses
requires
southeastern
easter
romance
moz
davies
burger
hoping
strikes
processes
1889
choir
hostile
contribution
ratio
constantly
kidn
license
rivalry
instructions
pounder
publisher
relieved
iceland
aids
cros
dall
gon
gau
hier
lag
mild
##iy
##nik
##rin
##hous
##itate
##isive
tol
conce
ana
##eston
shiva
unh
trunk
aft
complement
##ibilities
##rible
monsters
larry
##auc
obsc
couldn
113
signature
tyler
blacks
approaches
experiments
prix
sonic
malay
hopes
traditionally
funded
speeds
mccartney
happen
considerably
principles
##rolled
##aja
chambers
segments
elementary
altitude
mercury
surrendered
microsoft
cameron
dependent
echo
goddess
dimin
hollow
lt
mk
miz
oz
pock
##bow
##idel
rey
bee
##ulates
seal
spell
usage
agu
commerce
coaches
carr
parade
emer
##ahl
steep
juan
eastward
145
trio
handled
explor
cyrus
realistic
testim
connections
stationed
wallace
1890
1892
1896
saturn
paying
nominations
minority
territorial
krist
beneath
options
interaction
witnesses
reinforced
politicians
gentle
proclaim
recurring
aggressive
barcelona
cattle
dart
kes
kyle
laugh
nan
pairs
ramp
tested
##cia
##hu
##hal
##oa
##face
##inge
##ether
##illo
plates
unw
spani
truck
user
users
desper
weigh
assess
worker
minogue
dozen
studying
terrain
159
116
loaded
geoff
delta
nights
ordinary
troop
hurricanes
##adesh
commentary
educated
respective
burning
categories
mrs
ignored
consequence
volcano
besides
brazilian
veloc
enthusi
drift
guinea
cotton
infrastructure
cum
cun
hast
lighter
weld
##mund
##master
##fly
##hell
##arr
##arthur
##reated
ontar
##umented
prices
bris
mann
manage
output
carries
##olds
airline
##othy
drain
teammate
editions
##anner
162
supports
glen
titan
explore
helps
organic
frontier
hammer
presentation
##amental
interviews
suspension
defenders
volunteer
specimen
acclaimed
dreams
substitute
steadily
jurisdiction
ontario
bic
chen
cena
tension
yu
##wright
##hend
##instein
##ashes
##enter
##eta
##aders
##achers
stol
reef
##ours
##ellar
button
worship
##assic
marqu
perc
blast
##press
syria
metre
winners
##ception
tracked
patients
telephone
24th
salary
grows
cruise
privile
keys
450
boyfriend
festivals
consideration
layers
drafted
tasked
jerusal
surprising
decrease
archaeological
kitchen
delegates
locomotives
inquir
ensemble
constantinople
jerusalem
aided
cbs
dug
dying
dread
fert
lon
mour
nerv
pent
ry
rams
vit
wished
##rous
##hand
##ook
##uters
##mel
##icing
bend
isles
##agg
##oda
spokes
comparing
grim
percy
##izer
ups
meyer
remind
remote
presents
106
diverse
operas
##aha
corp
raids
##ussion
parkway
northeastern
involve
hybrid
apolog
villa
socialist
physically
documented
complained
principle
blocked
khan
borrow
bradley
gaming
jefferson
challenges
accidentally
unusually
proteins
remembered
persuaded
disappeared
imprisoned
portrait
autobiography
truly
gospel
ambassador
bak
bert
dil
gender
hir
hect
ion
kle
mim
mcl
##wing
##xual
##isons
##urd
revel
rejo
alam
chal
chord
##rians
##oca
##ocation
pruss
butt
manga
fee
partis
offs
bund
soap
releg
##raltar
reverse
102
numbered
117
detachment
##ashi
220
moist
massacre
femin
judicial
macarthur
wildlife
customs
kenneth
requirement
surprised
gibraltar
reservoir
fragment
barracks
abundant
shifted
gabri
brilliant
battlecruisers
intellectual
empty
vulnerable
aa
bub
dent
fus
math
mull
rains
tensions
##nels
##tra
##oric
ine
##rogen
##aco
stability
##osph
hispan
deeper
trapped
abu
root
rogers
marx
usher
##ritic
disb
elli
thriller
reminis
genres
regist
regulations
monop
southwestern
invent
invaded
bars
##enna
config
associate
costume
facult
knows
merced
lacking
sanct
civilians
1887
error
dropping
corporate
elevated
essentially
citizen
owen
oriented
tactical
touchdowns
scholarship
kaiser
crazy
saxon
amazing
queensland
##changed
settlements
divorce
renaissance
twentieth
apollo
cards
fbi
gym
lope
mak
sap
wii
##ean
##ao
##nut
##cr
##fs
##pin
##enburg
##asters
toler
tough
##icus
##acular
chron
shin
fires
marched
commod
canon
flot
flav
assets
followers
crust
##rosion
batted
backst
##aux
barrier
##enger
swing
restore
convince
##affe
motif
improving
quarters
payment
regardless
participating
dispatched
photography
walt
bullet
embarked
custody
fairly
batteries
favourite
rescued
cinemat
emotions
sporting
manufacturing
bailey
depicting
integrated
implemented
navigation
coffee
hawaii
yankees
internationally
lopez
bil
dud
fib
riley
vin
zoo
##lane
##sburg
theories
##rehens
##imented
anonymous
##aks
uncon
spite
worse
##assed
manages
overd
evident
filmm
produces
##onsin
schum
continent
153
directions
132
gunn
persona
viewing
tourist
easier
sentenced
traditions
turret
rebels
tommy
darkness
1865
beaten
attraction
focuses
muhammad
sacred
emotion
consumption
veteran
veterans
dynamic
diplomatic
sergeant
artificial
fitz
gaining
mg
mentions
nem
nass
rushing
tent
##eo
##gary
##iens
##anas
##rection
stored
staged
##irm
whate
conve
heath
##aping
shack
plains
spong
manuel
attachment
tea
##ints
knocked
crimes
metac
slav
156
157
modest
efficient
auton
135
advised
141
reporting
midnight
marking
proportion
rocket
christians
tourists
everybody
counsel
positioned
authorized
travelling
significance
potentially
closure
1861
threats
digit
##backs
richardson
prisoner
suspected
complaints
compositions
channels
mechanism
rodrig
throwing
repaired
gregory
inherited
deposits
recreation
rifle
murdered
avoided
molecular
malaysia
whatever
ace
bin
dot
fol
finger
flanders
nak
nab
##eenth
##uz
##yers
##ju
##xide
##zac
inver
##anim
thames
##acc
forever
anarch
inclusion
twitter
##pert
manif
##ampa
norse
quoted
crest
opens
terr
122
turnpi
delight
legion
victim
castles
debris
electoral
watson
peters
230
escorted
memories
1885
commentators
normandy
veronica
conducting
cyclones
focusing
psychiat
conflicts
carlos
bitter
reinforcements
beliefs
reunion
turbines
renewed
fungus
obvious
disorder
turnpike
dad
hil
masc
nasa
riff
tin
viv
wer
##di
##cock
##eno
##uri
sting
stun
stall
reject
anger
##thr
##ulk
chile
plaza
prayer
leeds
trump
resur
relied
commons
appe
##izz
##acht
centered
##ugu
crack
crashed
annex
directing
161
myself
helen
particles
railways
colleges
voices
independently
floods
kilog
chapters
heavier
utah
springfield
fantastic
progressive
sustain
inhab
mystery
antonio
enhanced
symphony
preservation
congressional
gauge
fare
golf
pp
sized
tide
##dish
##yll
##atis
##itis
thorn
##roid
##olia
reop
##agers
##riages
##ipher
intr
##irect
disabled
##reeks
upcoming
finest
interc
embr
##phan
doors
guests
poles
imposed
divine
bark
118
harsh
authen
coral
##oba
##issioned
versus
bills
angels
possessed
1000
pete
voters
malta
networks
irreg
humanity
sexually
separately
1876
##beat
removing
scientist
occurring
liner
odd
cardiff
colours
lesb
fischer
mercy
hatch
arcade
advertis
rhodesia
undertaken
trigger
mansion
diversity
condemned
irregular
aj
bold
cec
gig
hond
jets
pump
tet
xx
##eon
##vo
##vet
##nda
inning
input
##isition
onwards
chlor
unoff
leop
leices
spots
enact
##iper
resolved
manning
sheff
fever
playable
blame
thereby
auto
134
corrid
detective
eventual
confident
##lington
mounts
doug
balls
silence
situations
brien
martial
commitment
contracts
deeply
administer
walked
##piece
naming
chester
phillies
sculpture
treasury
fabric
lodge
mammals
galaxy
stuart
nevada
mckinley
superhero
mercedes
sheffield
bach
bib
bind
caf
dat
dio
gift
gamb
haven
laz
lamb
mend
mbar
pagan
xii
##bard
##esco
##alt
##imp
isn
##umar
##ocol
arrow
##abilities
spoken
##usters
marit
agencies
upr
boost
remar
monica
drink
metric
##roscop
shipyard
extends
runner
stark
variation
delays
damaging
protests
politically
volt
devot
introduces
bowled
thoughts
fortune
agrees
garfield
louise
macdonald
pilgr
participants
cornwall
accessible
printing
spectrum
torpedoes
staying
variant
functional
grossing
gibson
##umbered
##umberland
gravity
buffalo
##ught
rendered
amphib
orthodox
impressive
exterior
aston
dorm
kel
pushing
saints
watt
xi
##sis
##kh
##held
##eding
##alg
##iti
tooth
athens
hein
##chy
leban
spit
trace
brah
herb
##assy
intermedi
##keep
canucks
boeing
flour
mega
128
depiction
discour
portal
stef
##gins
keen
confused
progressed
clem
homeless
##rington
introduce
facil
worksh
garcia
brigades
1872
photo
lyrical
grove
architects
montgom
ranged
contempor
linear
examined
logo
magnus
ashore
farmers
sweep
tender
lawsuit
doubles
inhg
negotiated
orchestral
feared
comprising
eldest
maple
philosoph
switched
recruited
wagner
boulev
accommodate
helicopter
spawned
surpassed
botan
redesign
overwhelming
dislik
canceled
graphic
explanation
garnered
machinery
faculty
authentic
montgomery
aub
cs
gut
ib
ske
vital
wig
##iot
##rang
##erver
##reen
##ampton
##adows
ster
stabil
anx
##ichi
##aba
leo
spark
bryan
resort
relation
beck
apply
retreated
monit
phosph
slot
transc
provisions
westminster
##erness
nationalist
demo
##boat
25th
postp
solely
flex
observer
camb
1884
1883
tribe
machines
contrary
rachel
doctors
consistently
confirm
mask
neighb
mechanics
swept
psychology
spectators
mutual
duration
instrumentation
extraordin
trailer
cadets
protestant
unsuccessfully
leonard
transmission
locomotive
armenian
aristocr
inaugural
ernest
reluctant
hypothesis
afghanistan
jamaica
compromise
metacritic
cats
dome
erupt
file
fusion
hes
hok
ibn
lud
ses
sul
##gent
##tains
##uins
##inus
##inated
inhib
##itious
##lew
chop
##heric
seb
pride
##ourt
##oves
brut
adequ
resid
##izers
joan
eligible
genes
miner
##ugg
millions
opined
extensively
estates
##anne
discrimin
stew
131
courage
justin
topics
anthem
battlefield
listening
madrid
##etta
negl
threatening
baltic
disputed
punishment
journalists
democrat
messages
links
tasks
suggestion
occasional
bassist
motorway
eagles
recruit
consumer
absorbed
vegetation
forgot
inducted
prelimin
wartime
unhapp
velocity
bce
cn
hed
lan
lift
nests
pont
rer
sinking
tailed
wo
##ais
##iop
##rage
##vements
##itals
##omes
##ighed
beau
whale
conced
##chi
##abs
##uded
enrolled
grid
graves
##enders
decisive
flown
##icking
elite
monks
preserve
##oys
distances
##annon
jungle
likewise
roadway
detached
##iko
antar
freight
wanting
involves
arguments
hunters
1894
bowie
grandfather
knowles
revealing
1873
panels
##gener
complicated
domain
celebrate
venice
cardinals
opted
crowned
challenging
bachel
restrictions
gathering
##iciently
ladies
decreased
pierre
hemisp
muslims
highlighted
baptist
thrown
tongue
nephew
monday
diocese
thunderstorms
reminiscent
ig
ic
kor
lia
lions
ming
ober
raven
vest
##nity
##edia
tool
##icon
##sts
stir
whales
sunder
proxim
enix
##iev
noticed
clip
adri
abroad
##ishi
2000s
teachers
formations
##atty
undergo
syl
creates
modifications
sixty
promise
##asha
convicted
insuff
knowing
separation
width
graduating
1862
flags
ceiling
qualities
370
daniels
submerged
rotation
sherman
licensed
benefits
patrols
shrine
ellis
shallow
varying
cherry
helicopters
executives
mysterious
propaganda
scenario
sacrifice
warships
aaron
maritime
cere
eman
hd
kot
kem
sans
tir
vern
##oop
##ui
##pher
ingr
##omical
##star
##etus
hep
##agi
une
perth
outs
ware
emma
monuments
endang
demon
prototype
posthum
handle
patient
infection
summon
argue
encomp
devil
promoting
processing
holes
1888
darker
contribute
romanian
casino
reactions
acquire
bulgarian
borders
doctrine
tune
vocalist
targeted
prompting
calculated
honours
otto
asserted
preceding
hazard
expanding
accomplished
pregnancy
ritual
frigate
seventeen
spacecraft
pyramid
aguil
boulevard
biz
hiding
kra
kens
kaz
ling
lung
mv
mast
mock
pend
rushed
sulf
ti
tat
##rs
##rent
##hd
##mill
##imer
beast
##aved
##avan
sup
dear
##rium
sharing
##arded
plastic
unve
bry
compact
ampl
##ffman
repet
outflow
##anga
monitor
subordin
capcom
107
popul
populated
landings
119
median
openly
capturing
##boards
busy
statements
eighteen
circles
fifa
stripped
lacks
properly
biological
1870
dealt
1866
districts
franco
luft
discussing
walks
qualify
venues
constantine
segreg
sensitive
editorial
prosecut
distinguish
frozen
chamberlain
transformed
corresponding
survivor
subtropical
enforcement
scandin
excessive
scouting
pregnant
cylind
theodore
redevelop
consciousness
rookie
dallas
testimony
aguilera
aster
hod
hack
lp
mating
rape
sod
saving
ties
tint
tuck
wisc
yok
##gal
##iya
##hening
##areness
##icular
##adal
##lee
ascend
alc
##agh
orton
trout
##quet
contested
##ishops
##izard
outl
interfer
blank
##osexual
accus
consens
##ilda
remake
emig
underwater
themed
releasing
subd
criter
signals
##enne
breast
glad
##cliff
janet
patent
destiny
tradem
viii
circus
rounded
escal
rebounds
mixture
princeton
purple
melod
contributing
mccl
priority
oxid
discussions
awa
awareness
caution
composers
venus
magnetic
exhibit
coloured
variable
scrapped
diseases
crowds
barbara
lindwall
virtual
pedro
pleasure
##restrial
publishers
pirates
chandler
advocate
palestine
dennis
tigers
wwf
gonz
dudley
preliminary
sunderland
arose
cage
ferg
ned
pub
va
##iors
##ded
##drop
##nan
##ril
##vik
##mons
##pot
##isations
touc
##ilian
##aman
##oland
##ido
athen
fraud
##cht
##ums
neo
proud
leigh
lease
wheat
brandon
##ptic
abst
weighed
##aching
beta
genius
regained
presley
subc
smoking
generals
performers
##auer
distract
developments
advances
##iki
midfield
posts
radi
##neath
trem
connects
favored
merit
heavyweight
henri
symmet
choosing
robb
angelou
achievements
##oult
tribut
renown
package
searching
lemurs
citizenship
knights
reserves
thorough
proceeds
politician
discipline
accelerated
plutonium
nurse
capitol
innocent
dimensional
uprising
aus
dull
diana
fart
kay
mott
nh
nok
rises
sz
##hall
##found
##inite
##alid
##add
stuck
fork
##olo
##tery
##igar
##utz
atoms
chim
suited
depl
##ista
shipped
shirt
leather
trap
trinity
recall
herbert
comprehens
incons
abra
disrupt
index
centimet
underneath
retros
epit
surrey
speculated
##anka
instruction
wellington
divide
barrel
runners
reviewing
soccer
farmer
farming
antib
electro
240
facts
faction
silk
1881
fundamental
1871
##took
acceptance
lengths
measuring
latest
sandstone
emerging
750
ceo
struggling
admiralty
lifted
cubic
978
resemble
restaurants
sleeping
refugees
anticipated
elaborate
dirty
rectang
caesar
perpet
guerrero
wilhelm
duches
pocket
hispanic
disbanded
schumacher
appeals
cecil
unhappy
consensus
bj
dign
gem
gale
m3
moss
nc
raz
##aid
##ti
##vic
##mother
##ðr
##elin
stur
##lem
item
##employ
isle
sear
sega
##istical
shoo
nept
unemploy
lean
sphere
spencer
##qual
incred
afterward
202
marath
evol
boom
indirect
pover
strang
editing
edmund
##urred
##ront
1200
depot
swan
glory
calm
tracking
organisms
basil
##atorial
statistics
missile
ballet
270
##verse
cultures
mcg
indianapolis
choices
curved
1878
1875
bankrupt
corners
ferdin
concepts
pleased
examination
fairy
kinds
##kinson
kenny
athletics
psychological
tables
habitats
witnessed
descendants
demolition
disappointed
assassination
friedrich
fatalities
pioneer
hendrix
patton
chaos
deliberately
predominantly
buddhist
conspiracy
flotilla
wisconsin
fergus
duchess
dh
danny
eb
fog
gould
gains
ix
nost
riv
rut
rational
rode
rays
sut
wald
zones
##kle
##zed
##zon
##inth
##aren
##eches
wash
##urbed
##igo
alumn
whist
convey
frances
##apa
shir
archer
unanim
spores
clif
adela
scales
grain
interference
boot
flesh
blog
noise
##issa
regulation
cres
crane
landmark
steady
stepped
##ennial
aval
##aneous
publicity
deton
##appa
magical
rockets
sentiment
funk
limestone
masses
malcol
devices
striker
holden
mixing
girlfriend
curves
pitcher
1864
1867
objectives
contrad
reflecting
incorporates
pursued
etc
manufactured
julian
sprint
definitely
perfectly
nobel
freshman
##holm
jennifer
ronald
exercises
climbing
diesel
lynch
arkansas
skeleton
errors
bacteria
organs
stolen
shackleton
poverty
malcolm
fount
hak
ore
ug
wishes
##lu
##nor
##bus
##jar
##iche
ald
unaware
leagues
traged
clergy
conting
##uez
flames
##ounted
airplay
colin
drunk
locate
adds
123
distinction
##ologically
loch
discontin
caliph
calgary
divisional
summar
troy
declaring
reader
screens
1880
1886
ukrain
tribal
haun
investigated
powder
logan
darwin
coaching
loves
telesc
anthology
tonnes
##otypes
tennis
allegedly
expectations
joyce
forbes
lancash
innovative
theoret
absolut
subsidiary
dolph
yugoslavia
##birds
verdict
dakota
fierce
##through
lebanon
adelaide
telescope
a3
erosion
fears
lone
maced
nes
rally
ria
tear
tears
##eit
##aun
##dam
##oi
##bach
##12
##inh
##inqu
##orf
##atri
##itic
##asp
##etary
##roe
##iman
alert
confer
hey
chi
deer
degener
ard
wors
amp
##actic
interim
securing
moreover
beth
paraly
assign
undergrad
numer
drake
subsc
cream
137
trips
##iker
topic
calib
convinc
possess
realizes
##ographers
planes
cameo
copyr
primetime
competitions
##osphere
palmer
averages
fights
estimate
rulers
keeps
lengthy
tribune
puzz
ironcl
blockade
reflects
hawk
comprised
webber
instructed
enlar
fluor
shopping
welcome
immigrants
##osaurs
lithuan
charlotte
syndrome
mathematical
resolve
suburbs
ferrari
toxic
olivia
isaac
mozamb
unofficial
extraordinary
bachelor
lancashire
copyright
bishops
fitting
gur
jag
mumb
nl
pere
porter
saga
vander
##how
##oft
##upp
##uine
##ystem
##anan
stamp
##verning
##occ
##akh
tril
trent
notor
intim
##assing
marl
disgu
##endar
governing
blamed
thrust
retiring
maiden
albeit
crom
slip
diving
129
proven
midway
oppen
realm
naturally
temples
pressed
insect
suffer
bigger
##heads
widow
stafford
1877
rhode
laying
safely
1851
koreans
embry
embassy
environments
exhibited
kilometers
##guard
appealed
evacuate
grossed
explosive
belonging
fragments
loyalty
lunar
monarchy
mathematics
isotopes
motivated
ceremonies
eccles
phenomenon
gothic
nineteenth
slovak
prosecution
judgment
memoirs
conjunction
leicester
endangered
aux
cigar
duck
naked
pard
vault
wick
wise
##lides
##gi
##net
##kon
##oria
##enes
##alia
##asm
##eli
##amation
beij
##emouth
prose
pled
enorm
computers
incidents
grants
newport
newfound
amino
##ictions
blaz
metaph
##itty
genera
advocated
bread
halted
confined
progression
explored
parking
##chedel
basement
listing
refuses
##ographed
factions
findings
coastline
devon
introducing
costumes
creatures
cruz
curve
graduation
disputes
panama
scripts
acquisition
financially
raymond
nationally
tunnels
psychedel
observers
preventing
ivan
eleventh
scratch
heights
consequences
nobility
legendary
migration
belonged
strengthening
jacques
quantities
serbian
prohibited
baldwin
holland
procedure
aggregate
compensation
stalin
celtic
vampire
proclaimed
percussion
lesbian
philosophical
disliked
beijing
bail
bury
berm
dra
fool
font
gav
lined
mick
pix
rent
sag
##nought
##cence
##yc
##pow
thail
stair
##olan
##idad
##oshi
chin
chicken
seiz
shout
arbit
unpre
unrest
##abad
spo
##ovo
##elles
allocated
reson
apprent
overcome
carved
wouldn
consent
quart
retaining
albany
suburb
eddie
receiver
slopes
gerald
brew
swamp
speeches
lawyers
propulsion
destination
europa
solutions
volunt
churchill
moor
motors
hardc
honest
denomin
holoca
1882
goalt
robot
florence
analog
1850
muzzle
athlete
defender
essay
encourage
adjust
opinions
mistake
rubber
harvest
jumping
rifles
finnish
breath
neighbouring
cylinder
eclip
anchor
horizont
elephant
dorsal
rodriguez
manifest
hemisphere
proximity
insufficient
luftw
thailand
holocaust
cinc
cauc
jaw
joker
kab
kru
kath
kau
kyl
mere
mold
og
sink
sara
vil
yes
yank
##lake
##gon
##nant
##ression
##kar
##kas
##post
inade
reel
reid
dex
truman
##oured
worcester
grab
##soon
marble
overth
outcome
##aceous
##aceae
whenever
blade
##pler
quit
quint
drives
metals
backup
slaughter
objected
critically
modes
loading
corruption
collecting
144
149
##ikes
halt
##gett
caliber
exploration
valid
valve
carefully
sentences
statute
totaled
homage
mothers
surfaces
rapper
recognize
mccain
platoon
berkel
ambig
investigating
soviets
strait
reformed
dunge
oversee
seemingly
telugu
##worthy
mistaken
measurements
jenna
atmospheric
proceedings
marcus
pavil
reconstruct
immigration
metallica
excluded
legitimate
celest
exhaust
aesthetic
dreadnought
gabriel
ineff
corridor
forgotten
oppenheimer
inadequ
hate
iw
lig
nig
sv
tib
tired
welf
yd
##eur
##sd
##vae
##pit
##jud
##armed
toss
##omon
##omys
##ilus
##acing
##olly
##ema
chuck
##essa
##istically
incompl
twelf
grun
##ormal
weird
fins
actively
musc
sox
dayton
brood
miners
mineral
locks
suppress
generating
barber
barrett
servants
harper
successes
successive
eleg
societies
poster
cheap
pawn
watches
testament
averaged
painter
garage
tomato
creature
drowned
1879
payments
boarding
1869
derby
screening
wilde
draws
bulgar
democracy
bonds
observatory
thickness
repeat
incorporate
submit
altar
illustrations
imagine
unfortun
interactive
cooperation
permanently
beside
hayes
rumors
ellen
pearson
teenage
forbidden
nicknamed
batsman
catalog
mcmah
retrieved
thermal
induced
endorsed
consolidated
outfit
therapy
bengal
hectares
convex
dioxide
intermediate
ferguson
welfare
twelfth
ain
coke
hairs
joke
jokes
jagu
kub
lau
roster
sier
vince
verm
wan
##ea
##aic
##bis
##zi
##atan
##anian
##ouch
##step
##etics
stup
##oline
ally
itunes
fraser
##usa
##usive
##umps
##istence
shocked
##aston
notion
clause
brings
adolf
rog
relating
evangel
preference
warrant
##fts
##pring
genuine
larvae
dover
guadal
revived
reversed
maintains
slope
terrible
performer
runway
persistent
138
collective
augustus
entertaining
possessions
factories
vegas
burg
honored
##lessly
exciting
romania
##rises
accounting
hospitals
concluding
undef
wrestlers
dismant
durham
weakness
summers
thinks
descended
namely
automatic
accuracy
pleasant
phillips
treasure
eaten
advisory
elderly
prolong
deceased
manuscripts
hubbard
hannah
pupils
alpine
nervous
gymn
stewie
mvp
unveiled
rectangular
mozambique
luftwaffe
coul
fen
ful
gaza
jna
lil
merg
nec
oath
rah
wander
##gro
##cks
##uka
##athetic
##enues
##rep
##eley
##eche
##ecca
##stad
reyn
bees
seeds
##ripp
unst
pray
leis
##oven
##ovan
##quer
butler
twins
rok
##asses
fees
desired
##acey
joel
parat
emily
mahar
strat
strings
103
slam
terrestrial
kingston
discl
disco
demographic
routing
calvin
damasc
buses
##brates
freely
flee
lowered
cope
imported
competitors
managing
managers
merger
croc
curse
1863
deriv
roller
dominican
theaters
victorious
academ
photos
bloody
unders
exhibits
jeremy
lifestyle
sailors
maxwell
banksia
philippine
fluid
venture
disappointment
floating
gusts
hipper
siblings
reconcil
ceremonial
referee
frustrated
curtis
crucial
plumage
##houses
desperate
ferdinand
trilogy
mcmahon
dere
dale
dup
eruption
fm
java
nun
oval
zinc
##hou
##mir
##mind
##oro
##alous
##chw
chains
deals
arctic
unity
trag
##ovny
herm
amber
##ogether
##rys
##ailing
accent
poe
assume
monk
libert
##tershire
presum
acids
posed
strain
guit
invitation
edges
maine
developer
export
governors
promising
requests
patch
cyn
priests
lessons
archives
homosexual
apoc
apost
technologies
declare
puts
fortified
browns
goalkeeper
##force
##marks
sandy
occupy
drawings
ensuing
venom
pollution
wrestler
rosen
convert
caroline
##writer
sexuality
altogether
kidney
confronted
neutron
grammar
songwriting
remnant
paved
coffin
accomplish
avoiding
iconic
sparrow
satisfied
##unciation
crawford
resignation
orientation
##arthy
inferior
duchovny
feathers
geoffrey
configuration
contemporaries
tucker
berkeley
sierra
damascus
aria
bam
dish
ease
greeks
ranch
sri
u2
vl
##lov
##aul
##vara
##zig
##inos
##onso
##asia
stunt
reapp
ants
franz
seym
shan
##ongs
enable
claud
##usty
worried
twe
newman
manual
##ubs
relax
serp
commended
##raid
decomm
floyd
##ibal
##inted
joins
muscle
knife
poetic
assignment
regener
seasonal
cran
revers
showc
termed
124
expired
operator
landown
austro
respected
glenn
streams
patric
##overed
##atsu
norton
priory
specialist
illumin
certific
loses
torres
reads
radioactive
breakthrough
##lining
achieving
burnt
giro
talented
immort
nationwide
celebrity
darren
shelters
arabian
papal
preparations
nobody
orbital
brooklyn
wheeler
installation
riot
welcom
floors
cameras
recreational
gorge
allegations
imprisonment
neighborhoods
bourn
##enzie
unnamed
enthusias
lexington
suburban
shakira
cedar
confrontation
bloom
congregation
tyrann
determination
drainage
offspring
farther
lithuanian
mumbai
dexter
incomplete
reynolds
guitars
seymour
bism
cia
fuck
ganes
hanna
kas
lans
lance
luck
luther
mam
nir
nancy
pec
pipe
tatt
ump
##su
##cal
##mitt
##bank
##origin
##atin
##asaki
##oux
##oufl
##aca
stom
stake
whites
##ulator
seize
lend
trucks
##ipel
brass
scouts
marina
relay
##reep
deciding
consort
monroe
monsoon
maid
presc
willis
generate
##rosse
imped
backdrop
shipments
operators
glou
glam
skilled
thirds
routine
captivity
##ometry
clever
morale
colleague
salford
insult
madison
##loid
camoufl
1890s
woodland
commissioners
readily
breakdown
middles
stopping
reasonable
happens
groves
complimented
immune
attractive
incorrect
thirteenth
aspir
lucy
ethics
demonstrate
doubled
gamma
abbot
sends
cooling
##related
adaptations
ladder
##innati
resembles
demanding
evolutionary
serbia
portsmouth
intercepted
prefect
armenia
meteorological
diagnosed
recommendations
clerk
rpg
anatomy
outdoor
eugene
rehabil
juvenile
elliott
sanctuary
commodore
gunnery
adequate
riaa
bermuda
cincinnati
enthusiasm
balk
banner
dian
ely
goss
jed
jill
jake
lent
lub
rhe
tik
zagre
##lass
##dan
##rill
##cor
##van
##vent
##view
##matic
##fo
##fu
##pro
##itory
##icia
##icles
##ente
stance
stipe
##tera
reper
isab
##throp
chant
chau
sealed
##ifax
spont
sperm
trin
##season
clash
##ordination
abrupt
contents
intact
gra
##ogan
coch
carson
ears
charm
elk
underlying
retro
highlands
##onsc
phon
supporter
belgr
longtime
maturity
downstream
designers
efficiency
avatar
starr
geological
soci
##tingham
radius
infected
##psy
superv
georget
sometime
burst
halls
hallow
duet
grandson
mcdonald
admired
denounced
diab
civilization
surfaced
availability
excited
keyboard
mccarthy
employee
antiqu
amounted
investigations
cancellation
immun
horsepower
##hemes
concludes
scotia
magnet
suggestions
savage
lovers
struggles
tendency
bottle
mercen
anthrop
drops
heming
conscience
highlights
astronomical
plateau
lunch
mushrooms
salvador
delivering
lecture
lectures
hiatus
crusade
comfortable
gifts
maurice
discharge
griffin
inquiry
relegated
registration
tragedy
ai
aur
aunt
bout
hiv
homet
kol
locked
ply
roth
rna
til
tud
vine
wester
##gered
##kward
##hm
##hist
##uates
##heart
inev
##isk
##isbury
##stown
##etes
##olics
ashes
cong
chip
comet
seated
projected
##ctive
shops
##berger
exagger
spiel
trim
enroll
##iang
claire
braves
adher
comprises
perimeter
peripher
disorgan
outlets
carriage
secular
centres
poets
minne
relevant
engaging
locals
metab
belfast
episcop
slate
conclus
designing
pointing
swall
marching
halifax
furious
accordance
visc
televised
static
vij
missiles
canadiens
##airo
##rews
facade
honors
peaks
privately
1874
1868
accounted
casc
applic
awkward
candy
spirits
counteratt
conservatives
1848
northwestward
slee
##iji
symbolic
variants
manufacturer
ecos
penalties
remixes
frog
upgrade
##gestion
diamonds
correctly
installment
submarines
subtle
delegation
ancestor
triggered
auction
pulling
persuade
innovation
uncertainty
nitrogen
carpenter
frigates
nucleus
ipad
comedian
remarkable
coronation
hierarch
assessment
monopoly
subdiv
abraham
theoretical
paralymp
leisure
welcomed
zagreb
dana
diction
fals
hess
kant
sect
sits
tiny
wu
##list
##uity
##vana
##mn
##bane
##hey
theft
##ithe
##itating
##asi
toys
thurs
stro
##olph
##oton
reiss
##utnant
beatty
alarm
fright
frater
##estrian
##agara
plag
unse
##oved
##iano
clad
adrian
scope
##sover
##uba
reliable
disqual
goeb
##elyn
overtime
##lando
decom
blown
blair
filter
consumed
quinn
assessed
defining
capability
publish
instances
edgar
slower
matched
disturbed
151
annoy
reddish
persisted
loos
bret
helm
##ggy
146
restart
protecting
accordingly
humour
organisations
experts
equality
associates
profits
viruses
affecting
260
fuller
irre
##ficial
satan
satir
escapes
godwin
businessman
activist
cruel
uncom
##agonists
rolls
literally
rhine
1857
louisville
planted
plantation
categor
odds
wrestleman
meantime
expressing
defendant
mobil
elimination
mortality
miguel
dimensions
philosopher
shawn
transformation
byzantines
limitations
deployment
merchand
placement
riots
bosnia
satisfact
ancestry
murders
batsmen
dodgers
nomine
molecules
timberlake
covent
isotope
controlling
abolition
mlb
eisenh
gentlemen
discrimination
tintin
trademark
bournemouth
hometown
minneapolis
thursday
boun
dus
ditch
gand
gael
nico
pater
tampa
vas
vap
yang
yale
##rators
##cu
##cell
##hurst
##oning
anders
##icas
##ilis
##eling
##elage
##amine
##igation
##igious
conform
sham
##illon
arches
ork
orlando
plug
engr
##quin
clut
intrig
weber
interface
prehist
indie
buying
sof
peers
##elda
##ribe
phases
doz
invented
edwin
expense
barely
barney
##engers
medi
lois
myers
139
laf
array
glow
shortened
menu
humph
prophe
propeller
valued
destruct
##retion
cheer
volley
salisbury
27th
turks
hamper
borneo
fortifications
pike
kingdoms
responses
ensured
impacted
substance
precise
filling
munich
carte
tournaments
mechanisms
loving
spectacular
clarks
hydra
unfav
mortar
julia
juliet
tonight
nesting
randy
moderately
hugo
cowboy
astronomy
implementation
quantum
coupled
reunited
advisor
wolver
wolves
synthesis
piper
buckingham
sicily
pronounced
##ontinental
referend
paramount
chromos
triangle
diminished
cafe
sesame
sebast
puzzles
hemingway
spielberg
bened
binary
cic
falk
gore
grie
gills
hag
jail
jma
mates
pus
tended
ves
vector
wong
wounds
xen
##gel
##kal
##caster
##bul
##pect
##jord
##oni
##orus
##arre
inex
##itational
##oub
##amous
stab
stip
##olith
##irus
rewrit
##imm
##osity
chances
chrys
sued
shale
##opl
oral
leaked
spor
spare
trails
envelop
##ellan
cla
cluster
bride
aborigin
##oused
manoe
feast
cohen
cooking
##ulture
##wning
canber
flaw
warwick
accidents
buzz
emissions
somewhere
colomb
pharm
whereby
capabilities
impair
backs
slim
develops
extinction
reds
harald
steal
opener
evergl
133
laura
collector
143
delux
proport
effectiveness
solomon
cheek
inflicted
##ipper
associations
countryside
duff
##loo
averaging
##ylum
diem
angela
##aurus
dispos
objections
healthy
rhys
olive
seventy
reactor
dissolved
##canal
khmer
qualification
1835
aliens
catholics
expeditions
necessarily
favoured
abbas
intelligent
interactions
frost
throws
laden
kahn
omaha
censorship
marginal
enforce
inherit
uniforms
harmony
unpop
wonderful
quadru
lobby
glacier
skelet
rendition
accumulated
memorable
maneuver
fingers
enthusiastic
absolutely
convincing
enormous
horizontal
yankovic
decommissioned
stomach
ecosystem
wrestlemania
eisenhower
everglades
deluxe
einstein
hire
lumin
mund
maker
pon
rats
rama
tense
vat
woll
##lies
##dr
##do
##dp
##comb
##ht
##oids
##uh
##mal
##fires
##bands
##inate
##orum
##atible
##reet
##urance
frames
fringe
##child
##avi
##arta
arb
exceeded
pradesh
spans
tran
##ellers
grat
graz
rely
interrupted
bohem
##pres
kne
noct
undertook
##graded
##oths
smack
guilt
britney
expelled
extant
constellation
anywhere
landis
descriptions
##redited
148
lineup
##obile
gamespot
damages
legally
visuals
angles
elector
realism
refit
##nae
clearing
templ
everyday
totally
jealous
balloon
hitch
280
specialized
encycl
irving
##etto
hoffman
ultr
rainbow
economics
ruf
wilf
acceptable
essex
jewel
dissent
dissol
embarr
330
fails
trafford
packed
duncan
farmland
intersecting
permit
shelley
storey
tallest
eliminate
parallels
nobles
legends
danube
roofs
instructor
gravel
raiders
automatically
dorothy
preceded
laser
##brook
deposited
felix
##parts
preston
livest
fernando
adoption
explicitly
nursing
rebuilding
surveys
viking
unwilling
borrowed
administered
chimney
alumni
newfoundland
pavilion
guadalcanal
prolonged
decompression
referendum
ae
baham
caves
dm
fc
ferm
ist
jab
kun
rapp
tidal
wives
wears
yar
##rist
##hail
##oan
##uy
##ycle
##entine
washed
stap
forum
forget
##idian
bever
alonso
sue
shank
shoes
shirts
##ifier
ory
spher
##ovich
incumb
allan
reserved
marcel
perception
shepher
disk
indoor
buch
buenos
genesis
emble
monkey
subjected
sau
fourteenth
teammates
counted
editors
slash
winn
persec
steering
preval
142
glaston
characterised
shortage
##enches
calendar
conven
speakers
##hester
##bye
natives
infinite
everywhere
superman
supervis
##atories
charting
combine
labels
travers
grandmother
russians
activated
identification
samar
bombay
1880s
colonists
novelist
committees
dominance
exceptions
boycott
berry
powell
discusses
precurs
boxes
experiencing
oswald
1845
flowing
linking
contacts
bradford
accompany
pursuing
tends
concentrate
cuban
mortal
manufacture
linda
levy
traits
substantially
utilized
argentine
sophistic
dissipating
reproduction
patriarch
unnecess
espn
battlecruiser
gwen
tornadoes
physician
nadu
jesse
inscriptions
continuously
differs
sketches
strictly
maneuvers
wesley
explorer
partisan
cambod
accusations
comprehensive
unemployment
crocod
orkney
smackdown
encyclop
bite
cure
dos
fond
gly
hid
hanc
ki
kre
kend
kann
lamp
lighth
pomp
rovers
sack
sacked
tul
tuls
vand
wages
##len
##girl
##iast
##dock
##tes
##oos
##uania
##vor
##vas
##wi
##fork
##bone
##bles
##orth
android
##isa
##amus
##etcher
##rob
##iri
nee
##opus
##ifa
##ifact
orch
spear
trench
recapt
ads
adul
adoles
##ishna
shed
##ogical
overha
interrog
##pling
norwich
noel
quot
regain
underm
defenses
saff
willow
southampton
addiction
invested
annie
nearest
companions
136
breach
euph
visually
posting
billed
superintend
jacket
viral
broader
salmon
ballot
burke
villains
campaigned
malvern
admits
agreements
judged
screened
robertson
##ommun
contracted
privy
windsor
accepting
deadly
microph
haiti
budd
punt
wilderness
liberation
utter
taxon
synth
1847
savoy
expressway
jerome
mirr
optical
negotiate
encouraging
momentum
narrowly
kicked
gibbs
remixed
jennings
ronnie
pierce
integral
dramatically
jamie
speaks
hanging
consultant
lithuania
recipient
panthers
butterfly
guarantee
guaranteed
sketch
rehearsal
legitim
wireless
affiliated
constituency
ltd
inhabited
reopened
watts
undergraduate
goaltender
paratro
apocaly
unpopular
livestock
glastonbury
bav
bess
bard
bash
cay
cain
fet
lumber
mash
ng
pemb
pistol
rage
rbi
sided
sizes
tens
vag
wand
zelda
##rag
##raged
##tc
##cos
##mass
##wig
##wind
##bot
##10
##atem
##athens
##anor
##isely
##acement
stiff
##leutnant
##irmed
##ayette
align
congestion
heating
suite
##iston
##riet
shy
spike
##anted
nottingham
##ovsky
whedon
incub
gris
newer
mana
##onde
##ogne
aggr
disast
coaster
carc
blades
blaine
##awak
noir
quater
empress
maybe
liu
southward
generations
backl
musically
foundations
##itsu
expend
governed
commands
waterline
antio
freak
matching
chet
supervision
georgian
vienna
235
labelled
affection
sufficiently
auditor
costa
harder
hardly
cataly
humanitarian
excit
1860
oxide
dominion
exceptional
microscop
interviewed
ambitious
missionary
intensification
domest
complexity
cannons
cease
bedford
methodist
composing
celebrations
ashley
symbols
demonstration
arabic
feedback
imagination
cooler
660
azerb
isolation
faithful
rhodesian
sharply
pitchfork
confederation
disappointing
baptism
predecessors
breathing
scorer
coinage
sympath
sympathetic
braathens
jumped
devastated
assuming
penguins
kerrigan
peasants
moisture
pilgrim
postponed
neighboring
ingred
posthumously
abstract
cromwell
kylie
celestial
camouflage
trinidad
##onscious
halloween
tudor
manoeuv
canberra
azerbai
cp
cement
cripp
dumb
dining
eck
gol
hij
hpa
jg
jin
kom
kang
kiel
lum
nme
niger
rw
tut
veto
wang
zerg
##gence
##nar
##tles
##zing
##esy
##esters
##omi
##stead
stacey
##idays
##ivorous
rept
##imo
##empl
hew
##usions
##uld
seism
suz
probe
sho
shu
shadows
##ocar
leased
##mented
schemes
incomp
intentions
shen
##igne
append
reply
decree
prejud
boots
blake
emir
airways
highland
##terson
drought
phant
stranded
revision
invis
##tenham
transpar
milton
continuation
winchester
expenses
greene
discarded
##lla
##ikh
magist
eleanor
protective
explod
busch
sounded
donations
romans
broadly
shoulders
referenced
##mington
presenting
strips
rebound
sexes
martine
radiohead
fundra
quarry
middleton
biology
gradual
violin
badge
panic
ambrose
slowed
yourself
suspect
attracting
karen
portrays
motorcy
bacon
blew
emphasized
webb
##ochond
tsar
belongs
resource
asserts
reprise
##changes
rituals
aquatic
tackle
horizon
bahrain
disagreed
culminating
anglican
hassett
hebrew
choreography
lyrically
spaniel
kilograms
auburn
renowned
centimetres
fountain
inadequate
jaguar
jedi
hancock
bm
cc
cly
cites
eg
gir
gott
hort
hik
ions
kits
lash
nac
nay
oc
okin
pamp
rows
tad
ubs
wage
wizard
##lord
##aa
##notes
##rab
##kary
##chel
##fried
##ych
##erl
##inz
##enas
inund
##anus
##itian
##amorph
##roft
##urers
stack
stakes
##lys
##idable
##othe
beaches
anzac
ankle
##umble
##odon
##ocy
plank
lever
spore
##gee
afraid
clown
brom
herge
firms
twist
timing
disrupted
indef
peer
peac
stricken
guatem
artifact
eddy
milan
downs
advers
justified
laure
##gged
collision
promo
raiding
resting
calder
conventions
storylines
killings
careers
communism
realize
refusal
archipel
fielding
23rd
colleg
primitive
duel
hampton
mcn
merge
torch
rebecca
investors
ruins
bike
verb
comeback
cycling
responsibilities
ambush
breeders
olaf
emergence
purchasing
acquiring
missionaries
racism
valleys
terminated
boxing
1840
1846
ceram
observing
recovering
550
ethan
480
sacr
jointly
labeled
tavern
dinosaur
souls
mitochond
bolton
calcium
horns
virtue
hindi
##zyme
correspondence
flashback
buffy
turbine
dynamics
sophom
advisories
framework
patriot
charlton
boiler
metroid
electronics
rochester
skiing
appreciated
clinical
obstacles
rouge
nineteen
counterparts
vertebra
nasser
digitally
stefani
workshop
hokies
conceded
adriatic
outlaw
criteria
discontinued
auxili
psychedelic
unstable
georgetown
episcopal
dozens
lighthouse
bland
boring
baja
cater
codes
das
erupted
foul
hp
jen
kob
lingu
pose
ras
rope
vett
wals
##eav
##nu
##nected
##rance
##horn
##haven
##oqu
##mph
##fi
##pus
##pole
##30
##atches
##arians
##alis
##isch
##omorph
##elia
##entric
##adian
staging
##idi
beings
conrad
##agua
compton
##oping
##abling
prair
leak
clusters
compuls
abortion
martha
peru
##ondo
wend
outn
outsk
attain
flies
flatt
fletcher
betray
remaster
aires
endeav
guys
guides
armist
##flies
obtaining
extras
courty
conviction
blackburn
##boats
301
handic
replay
basically
equity
freestyle
solitary
inflict
halfway
moh
announcing
insert
richards
devils
bowler
catches
garb
snakes
informs
civic
predator
inspection
treaties
launching
secretly
##ommon
settings
violet
foods
luis
constructing
1852
personalities
tunis
krusty
magnific
380
1838
gasoline
conversely
comparisons
pianist
spreading
explosives
mandate
grip
vacu
##ebob
accurately
sophia
insurg
reproductive
rendering
covenant
abundance
portraits
mentor
rendez
enclosed
furniture
##iculum
aberde
dawson
glorious
suspicious
brisbane
prussia
spongebob
monitoring
minerals
hepburn
warehouse
tributary
enlarged
hardcore
derek
bahamas
disastrous
outskirts
bust
bols
dwell
fission
heter
ket
kov
noun
nwa
paus
ruther
sne
vow
wax
xv
ya
##eated
##game
##rina
##haus
##mm
##walk
##fight
##pat
##ław
##zo
##zel
##orable
##enstein
##arus
##ioned
##omo
##stri
##stage
##amoto
##adic
stroke
rework
##uto
aligned
conning
chick
##arte
##ardy
exempl
prone
princes
bred
aden
abn
205
206
resisted
##rah
outpost
immin
coached
boards
flaws
##ibi
meadow
centred
paran
consoles
##cestershire
regent
emerson
underc
mao
dred
presumed
acute
guid
millimeter
invention
instantly
transact
estuary
eastbound
tying
tyres
oldham
shorts
gunfire
versa
rivera
visitor
30th
exploring
cypr
electrons
viewer
realms
goodbye
225
50th
getty
departments
fifteenth
hamburg
hardware
identifies
intervene
separating
macle
conductor
payne
religions
##ophone
cornell
francois
layout
1858
1856
shoots
contempl
precisely
oceanic
bede
venge
polls
1839
rowing
lucia
460
favourable
jeffrey
expeditionary
taun
barton
warsaw
tsun
besie
reinforce
##rified
lancaster
dragons
neighbours
prolific
prestigious
spanning
lenin
nashville
##iculous
sovereignty
reassigned
troubles
lacrosse
hastings
fertil
psychiatric
honduras
bibl
antarctic
touched
shooter
bankruptcy
crescent
ecclesiast
undefeated
reperto
plymouth
loosely
unnecessary
superintendent
pamph
archipelago
collegiate
rendezv
imminent
bip
bik
cus
cairo
ek
ejected
gag
gop
jak
nolan
porn
rented
sou
saves
tac
wield
yo
yog
##lance
##gard
##tical
##fold
##yo
##hele
##itivity
##icious
##stop
stanton
forts
##idd
asylum
reilly
##utsc
##ithm
##thia
##andez
##avel
seating
##opers
##bery
exchanged
plots
unb
sparked
##anti
brave
sci
allison
manned
manila
outfield
betty
formidable
noah
quir
peel
pepper
retal
##gren
subpl
define
northbound
smell
smash
willie
strand
generic
edmon
backwards
slant
terra
depends
johns
passages
##space
discs
portable
starboard
corv
maggie
routed
captive
confisc
patterson
castro
##emption
realizing
solve
210
donna
statistical
moly
broadside
defeats
404
technically
wrapped
admission
295
entirety
sussex
macfar
robust
individually
futur
likes
derives
##forward
flora
reasoning
latitude
deadline
museums
sharon
1854
climax
intensify
attractions
alternatively
congressman
1849
masterpiece
hawks
peaceful
incorporating
1795
stockholm
airports
dedication
manufacturers
compares
comparable
columbus
skinner
upgrades
firmly
sediment
stretched
ellip
chestnut
ancestors
canton
municipality
abdul
deception
hawaiian
bergen
michelle
controller
clinic
procedures
podium
joshua
affiliate
deteriorated
luxury
paradise
superstructure
emerge
welding
chloride
datab
segregation
haunted
eclipse
tomatoes
sebastian
incumbent
excitement
invisible
okinawa
sophomore
bolshe
biblical
repertoire
edmonton
aq
bree
bount
bells
cir
dit
dow
dances
euras
fow
fake
fug
gul
ich
kron
lg
lomb
mt
mw
nathan
rim
surn
tides
wade
wemb
za
zer
zur
zoe
zimb
##lide
##kat
##cill
##him
##uf
##uro
thesis
##erget
##onne
##atos
##aru
##ariv
##alus
##asis
##isle
##eca
##sted
stam
byrd
anten
healing
##ulu
##ulent
##ulative
chat
chasing
neville
unrelated
##abwe
traced
trenches
brack
herr
compass
incap
intensive
marian
marriages
weaker
##izable
intersp
##kef
flam
flame
##ibles
##cedented
indo
##integr
blunt
formats
muscles
##inda
peggy
undergoing
syrac
subway
##phis
phyl
singh
specified
performs
##uchi
preview
geographic
geographical
##obil
entries
##inski
angular
viewership
supernat
councill
testified
moroc
funnel
combinations
profound
hyph
burden
hammond
painters
identifying
breakaway
rapt
hosting
##iffs
melting
pitching
councils
scenic
wilmington
boarded
contributor
digest
happiness
##marine
320
sanders
awaken
texture
compliment
reflection
bedroom
composite
packs
1836
alike
slender
stanford
trainer
translations
sacrific
650
##raints
illustration
kickoff
bleeding
tablets
dialect
naples
recruiting
merchants
conquered
crystals
amendments
collectively
tuber
cockpit
purely
supposedly
gentleman
displacement
cobain
terrorist
dancer
wyoming
braun
concurrently
satisfying
palestinian
renovation
hutton
abolished
exhausted
cunning
klein
petersburg
farewell
leopold
residences
shirley
unprecedented
ganesha
middlesex
disorganized
aboriginal
antioch
martinez
vettel
armistice
wembley
zimbabwe
supernatural
bb
cumberland
gases
henson
ile
kins
lec
lut
makers
ner
oy
sg
sop
soup
tus
vaugh
yosh
zomb
##lay
##iqu
##rice
##kill
##oque
##fur
##zhn
##inating
##orrow
inapp
tosh
##ouk
##stock
ono
stems
##leaf
##otle
hex
##ulatory
chak
sew
seals
##opy
orphan
unchanged
leip
truce
energet
client
clover
reck
brent
herd
intimate
marin
relat
reliance
##ateral
##irez
dispar
desmond
repeal
overnight
outline
decoration
emil
thank
sms
stranger
crim
crater
crude
severity
southbound
slide
winston
barrow
barometric
openings
helium
germanic
##clair
halft
lasts
particle
communicate
realised
cheaper
fleeing
##hyd
215
ordering
trevor
eighteenth
homeland
ballads
frontal
insight
madras
hotels
malaria
grande
catching
holdings
torr
investments
tomorrow
scream
commentator
regulars
banking
naturalist
##borg
photographer
occupying
scripted
climbed
3000
ensuring
please
galile
logic
odin
1830
cardinal
##holders
strategies
1794
mobility
mutations
fearing
dinosaurs
cooperative
boliv
aiming
sellers
attributes
##umbering
webster
##swick
jenny
worthy
##hrer
hanover
gravitational
bangl
intentionally
quantity
downloads
convoys
transmitted
simultaneous
theorem
nomen
relieve
scorp
ghosts
zhang
airfields
cliffs
ernst
renovated
mentally
habits
provisional
elephants
kapoor
crossover
spokesman
mclaren
fuselage
nablus
remarks
heinrich
rerout
subordinate
neptune
contingent
bulgaria
rogue
presumably
hampered
nocturn
shepherd
precursor
bounty
syracuse
hyphae
bok
ero
gad
gonna
horm
hail
hib
hank
iz
jos
kry
lanka
mb
mound
mits
nell
rall
rans
rift
seld
tf
vene
yuc
zool
##lia
##gum
##sb
##kie
##kind
##var
##ws
##pm
##60
##eries
##atics
##alam
##iliation
##amy
##rock
##acco
staun
##irth
bea
##emate
heis
succ
suck
##opa
##ifiers
lea
##anto
##uder
##send
enzyme
##ovina
afc
clap
reclaim
compelled
rox
##assium
##rup
##enden
coordination
##ensing
secrets
elvis
rememb
##atha
minh
presidents
subf
northumb
guer
crushed
additions
instinct
diverg
##ancement
distress
concord
##arez
este
downed
##aho
##ahu
persians
collided
olds
147
##ometer
patches
antagonist
debts
lightly
issuing
refurb
22nd
morality
##afi
archie
jackie
criticizing
inserted
suffix
observe
camel
irrit
irene
sunset
facial
hopkins
holmes
potassium
sanction
creators
macl
premise
discovering
curtain
##kien
##boro
broadcasts
journalism
heaviest
semin
liberals
impacts
conception
conceptual
krishna
penny
crowley
disappro
moses
mosqu
ninja
reinst
ramirez
submission
telec
scrut
illustrate
cinematic
rotten
falcon
straightforward
volcanoes
recruits
resemblance
reservation
conquer
rumours
romeo
scarce
enforced
bombarded
phillip
enhance
detailing
andrea
wyatt
overlap
excluding
anchored
inscription
hogan
recommendation
mantle
ornith
unexpectedly
troubled
cottage
eugen
evaluation
puppet
tobacco
reyes
weighing
chrono
xiii
eruptions
kemp
inconsistent
marathon
avalanche
voluntary
unfortunately
stupid
nirvana
rehabilitation
metabol
gaelic
benedict
quadruple
azerbaijan
sacrament
auxiliary
courtyard
interspersed
inappropri
cors
dame
dixon
gm
gum
gond
hulk
jain
kumar
lund
lots
lakers
mfr
nim
ought
picks
ramb
sina
tant
upt
zig
##ei
##vol
##via
##wyn
##yth
##jm
##jor
##19
##xes
##zan
##hea
##atz
inability
##itus
tok
##icol
##elong
##stick
##stones
##urus
stel
stalk
rejection
heated
##uli
##ainted
##osc
shapes
##bern
arche
plas
##ourg
##ipoli
clara
bru
brush
##cci
compart
incon
grades
roost
##oko
##okane
marque
pert
##ondheim
partition
disruption
##rae
##lude
outrage
eva
##aceans
fined
decent
##kee
canning
##ensen
parap
accession
##awl
assy
emi
airstri
syll
saudi
counts
##aird
providence
concession
barric
landmarks
medley
loft
steals
##classic
smallest
protector
handful
##sha
refined
refuel
infilt
infinity
totals
miy
profitable
goldman
leth
lethal
homicide
seeks
##look
turtle
currents
curriculum
brownlee
urging
fellows
##govern
greenland
erlew
settling
unconscious
narc
likened
##agonal
mickey
renumbering
temperate
reacted
plantations
ridges
ranger
gallipoli
mountainous
venet
enjoying
boris
cartman
1837
mechanic
rowland
abandoning
prints
crypt
1809
1799
elevator
northeastward
treehouse
concentrations
1815
paths
catholicism
backgrounds
columnist
spinning
definitive
mistress
nazis
otter
nicar
astronaut
sponsor
utility
collectors
swords
rhythmic
dragged
picc
bureaucr
catalogue
cocon
pluto
continuity
auditioned
galaxies
scenarios
fraction
overlooking
assumption
celtics
peasant
dartmouth
privilege
surprisingly
revelation
feminist
autonom
terrace
advertisement
advertisements
binding
redesignated
scandinavian
cylindrical
##cliffe
depleted
dolphins
calibre
##powder
overthrow
grunge
derivative
tragic
certificate
diane
prehistoric
lafayette
clarkson
kannada
quatermass
vacuum
halftime
erlewine
benson
cag
cerv
caut
dash
ead
ebert
eternal
jut
kad
lich
mice
nans
vass
vhs
wur
wess
waugh
zach
##litz
##say
##dal
##rust
##kers
##ho
##oin
##uana
##vy
##wold
##front
##pid
##person
##80
##zko
##ør
##inks
##aton
##enza
thief
##eces
##etically
sto
stain
##idy
##idas
beet
befri
als
whis
fruits
ish
ism
hebr
chocol
##umi
dee
deity
##istle
##unct
shim
shap
shannon
##ardi
arid
arise
pla
plural
unim
spine
screw
compose
butcher
incent
##ials
resume
dishes
repuls
##endous
overrun
upheld
carm
bois
flint
flanks
warming
consec
consume
regards
emin
somebody
##group
brooke
endemic
eponymous
specially
crush
revenues
##ledon
sims
slayer
transf
depended
anybody
servant
westbound
stealing
avon
sixteenth
varieties
brezhn
glaz
demise
skirm
restr
restruct
commando
gunpowder
protagonists
storyt
postal
propelled
##odynam
membrane
replica
periodic
pressures
stronghold
copied
programmes
connor
burrows
agenda
ideology
devised
holder
certification
##ylon
survives
escaping
memphis
ulster
widening
practition
premiers
breakfast
economically
contractor
uncommon
hostilities
ruined
rupert
rolled
probability
surroundings
dissatis
complaint
semif
failures
puff
heroine
krak
blocking
##aji
sarawak
rosberg
risks
lucky
ivy
talked
demonstrations
arabs
1812
gamec
mdot
trustees
1829
pinned
lemon
promptly
mistakes
teachings
mandatory
omitted
cadet
stretching
whitney
portraying
##rolling
exceptionally
shields
answered
rabbi
prohibition
landscapes
accommodation
yorke
throat
depressed
concurrent
poisoning
diagnosis
redesigned
iranian
seventeenth
vickers
patronage
neuro
nikol
brittany
prosperity
kesha
alamos
facilitate
reconstructed
vlad
hierarchy
hitchcock
supervisor
microphone
outnumbered
aberdeen
rutherford
guidance
cyprus
macfarlane
energetic
crimson
brezhnev
cory
dried
dirt
eul
gue
iuc
kamp
kitt
lah
mif
mog
mps
nk
pits
rs
rous
rhet
rbis
sif
sora
uc
vend
##lif
##nian
##uably
##uky
##woman
##bes
##brit
##bling
##jj
##jev
##alp
##itative
##eting
##ados
##advant
##acon
stocks
##irs
##uta
alum
fritz
isis
heff
seaf
##apy
##istani
##oche
##alli
arbor
exeter
spokane
enlight
notices
afl
bram
branded
amn
amus
marco
disadvant
gob
overc
carroll
interven
himm
himal
##plane
paragu
noon
genome
emission
somehow
daylight
mono
defl
wherein
singular
strained
showcase
mats
cret
respects
starter
brett
promises
shortages
rao
convinces
protested
debated
similarity
careful
communists
refusing
periodically
authored
cheese
styled
combining
treason
arguably
dunder
insane
technological
declining
sitcom
##etti
satire
activists
italia
mccay
##zeg
dominate
boyd
punct
ambul
domes
ensued
alternating
spiral
heroic
007
1834
ashton
prominence
kilometre
responds
picking
perfection
appealing
planetary
dwelling
websites
##manship
cubs
kicking
##otyp
axe
correspondent
chronicles
vacant
resembling
confronts
fitness
shuttle
##strom
hangar
##books
mariah
pakistani
immigrant
pigeon
flanked
innovations
crafts
mammal
scholarly
pipeline
fungi
autobiographical
dictator
dictators
downloadable
obviously
rehearsals
devastating
prostitution
##build
penetrated
tramway
suspicion
##hello
mourning
bubble
cinematography
inverte
annexation
cornwallis
sansk
midfielder
motto
nostalg
contradict
intimid
metaphor
vermont
wanderers
shangh
uncomfort
nominee
humphrey
sophisticated
auditorium
remastered
magnificent
database
bangladesh
iucn
aims
boul
curs
dys
e3
ego
gan
jade
jaws
lak
pour
pile
pact
pending
sard
sik
siber
sanche
tues
tips
tapes
vint
wagon
wimb
μm
##iom
##cat
##bons
##yards
##pie
##ario
##asse
##isen
##ilated
thread
##sten
##stidia
stole
stellar
##leet
asym
##otus
ree
##imir
##owitz
##church
##agher
##avo
seab
shame
shake
shane
neur
neill
##illary
##akon
spelling
trash
envision
enabling
claus
clips
##iaz
worry
abe
grac
shet
sheer
feas
weiss
##iza
outright
decomp
##keys
megan
bluff
actin
charitable
pepp
regret
monetary
maf
default
schiz
guided
impending
founders
popmat
transcend
transverse
##flin
continually
barker
constraints
##anni
modification
##eka
glider
midship
entities
markings
dams
islanders
protesters
waterloo
##racted
props
cyt
##erville
listened
tottenham
supern
prizes
combines
traders
limbs
eighty
animators
travis
vein
selective
departing
dupl
ideals
encirc
hamm
woody
garrett
deny
rankings
judici
310
martyr
##ynt
widened
narrator
verde
accepts
1860s
physi
docks
happening
berk
applaud
guarded
displaying
1853
1850s
suspects
facebook
dissolution
bulb
complications
unsure
synch
libya
doggett
examine
tasman
enjoyable
straits
pollock
rosa
risen
rowling
minded
misch
1793
1796
lotus
spectral
1819
resistant
gamer
reigning
owed
julie
1789
depictions
orbits
1776
decreases
eager
integrity
grief
unlock
vacation
criminals
biden
sinclair
mystic
atlantis
consulted
bunch
##arnation
henderson
pronunciation
appreciation
anticipation
tissues
##enhagen
congrat
eccentric
phenomena
prostit
torture
excavated
##hawk
johannes
alexandra
tolkien
titanic
bicycle
rejoined
cinematographer
chopra
summoned
redevelopment
nhc
evolve
dismantled
maharash
belgrade
dictionary
disposal
prevalent
paratroopers
prejudice
ecclesiastical
yucatan
nicaragua
sanskrit
shanghai
sanchez
tuesday
popmatters
ahl
bors
bio
burr
ci
dund
fia
gian
hr
iphone
lana
lips
mab
morm
meng
pag
paced
rko
sled
tj
tire
tuc
uru
vish
zy
##gio
##gling
##iu
##rat
##rades
##cip
##cine
##hound
##hra
##oire
##uo
##mot
##wave
##wara
##waters
##function
##bin
theological
##erun
##oran
##alan
##alach
##asu
##iler
##ilon
##acter
stained
straw
##leigh
##idium
##tering
##ivated
##igon
reint
beaver
alumin
itv
conroy
byr
framed
friction
##uling
##apest
nebr
##ocative
##ocyt
unin
pratt
prague
spurs
spells
trams
enric
##asted
clues
herc
adorn
scan
scler
##isha
203
##assis
commissions
disemb
reporters
##endicular
coleman
##achi
attitudes
finances
canals
indul
eli
regina
monitors
brock
syrian
presby
northumberland
doom
eps
epstein
##eye
stratus
invalid
matilda
deposed
gerard
barack
passive
downgraded
meditation
owns
nationalism
stephan
classics
corrupt
lauded
finalist
##unda
rested
tops
keeper
humorous
antilles
organize
##shi
refres
equator
inflation
supervised
limiting
labrad
##iefen
26th
competitor
villagers
malt
##ithers
iris
irons
fortunes
mcd
admit
piers
29th
mixes
informal
predation
maternal
treatise
ruff
keyboards
violation
violated
dispersed
absurd
michele
rhin
budapest
1859
climbs
##bourg
chicks
embark
talbot
financing
synag
examining
1841
1842
pollen
1831
darius
##kinen
dunn
splits
oversaw
ethiop
crying
contrasting
essays
mutiny
##harmon
adjusted
eliminating
landslides
steelers
julius
myths
gillian
610
fixture
dramat
descending
brighton
cleaning
astronomers
partnered
wetlands
undertake
ancestral
mansfield
update
wagons
catchy
assassin
dickinson
patriots
amazon
marrying
syndicate
pronoun
zhou
listeners
kerala
jessica
habsburg
retrieve
frustration
algor
mongol
brunswick
gifted
procession
perpendicular
millimetres
juveniles
partisans
filmmakers
nemesis
autonomy
daddy
amphibious
##ranged
anxiety
brutal
bizarre
sulfur
incredible
ugly
perez
gloucester
enrollment
counterattack
merchandise
nicole
hydraul
##olithic
claude
emblem
prairie
vengeance
surname
venetian
gamecube
cretaceous
uncomfortable
judiciary
nebraska
bly
ces
cen
dic
damp
dump
euc
gn
gt
gator
henn
io
kling
mould
nud
nave
nina
pud
qa
rc
rash
ramps
sis
uem
ved
zu
##sl
##ders
##ride
##riment
##cats
##court
##hot
##mc
##mid
##wal
##fman
##bits
##pop
##xton
##eroy
##inished
##esi
inmates
inacc
##asive
##asian
##isy
##icating
##omac
##omans
##street
##amination
wasp
stub
stoke
forc
forem
##lywood
##irable
rex
##imi
beech
itchy
cone
athe
atari
ans
chast
##umatic
dew
##isting
##illand
exotic
plague
unions
unbeat
##abul
##ppe
ley
trunc
trondheim
##ieu
recomb
brands
herod
newark
manit
##oku
relinqu
disintegr
desk
##rail
upwards
flats
poole
assured
assumes
##orne
sao
americas
polo
metamorph
##oupe
1500
winters
austrians
junta
##spe
loans
stealth
majesty
breck
helmet
##ysc
detection
restoring
markham
differed
differing
convict
##inae
antic
possibilities
basal
clement
temp
inflamm
jeop
petro
moran
fathers
philharmon
madness
##loe
turbo
##fields
silicon
harding
mcgovern
commissioning
sawyer
prediction
holidays
potomac
davidson
bombed
##lessness
negro
erad
rapids
reduces
transports
violations
assistants
productive
theatres
tribun
chapman
ambitions
1855
modeled
mugh
pennant
distributor
citadel
logs
baba
410
questioning
stanza
prominently
minds
apparatus
necessity
conflicting
1808
1801
1798
1797
proposes
soundtracks
1816
paperback
unfinished
analyses
suprem
lindsay
gilligan
aeros
sudan
criticisms
ruby
switching
omn
crystall
##ipeg
thorium
levine
peloton
improvised
updates
antony
cantata
illegit
bunker
cocaine
trends
overlord
glaciers
ribbon
reverend
##points
havilland
hutch
elaborated
commemorate
innocence
overturn
moody
dorset
maurit
##hardt
stylistic
mikhail
alexandria
kidnapped
ramsay
inventory
mascot
enacted
neglected
repetitive
sodium
oxidation
tremendous
retrospect
clifton
ironclad
##occup
nigel
##chwader
immortal
prefecture
mercenaries
exaggerated
destructive
inexper
wilfrid
winnipeg
inundated
taunton
pamphlet
venez
mosquito
guevara
mifflin
wimbledon
aluminium
inaccur
akin
bung
bhar
cogn
dong
dair
eri
gc
gat
gel
het
jod
kash
lust
lily
lets
mn
mum
mell
mered
nmi
ours
rik
siv
tate
tina
utt
vale
wain
µm
##iere
##sie
##nir
##nance
##houn
##vine
##mul
##wit
##fan
##fied
##bt
##40
##2o
##zym
##heus
##orian
##esa
##enary
##arms
##arius
##itte
##itism
##isse
##icle
##omal
##ilib
##elg
##eles
stamps
whigs
wholly
atp
atom
##andra
##oso
chol
##agne
##agements
##agasy
sejm
shores
neal
##illas
##illance
##ocate
plenty
unite
spiders
##astically
##quel
wheels
scutt
contempt
contamin
allot
newcom
timbal
relate
##onder
##orman
##ryl
wehr
upstream
canopy
meal
##ango
##plant
##print
##atta
bucc
buoy
genev
lateral
engagements
albion
subgen
defenc
dob
epid
guin
suppressed
##azi
##ierre
crete
exposition
bare
##identified
prevention
helena
augustine
gliders
occult
demos
##obic
deleted
##enched
calig
damn
captained
humili
cyber
##brand
destinations
sounding
royals
cheroke
pressing
lesson
tenor
copenhagen
rails
affects
homolog
ordnance
262
grounded
encro
camden
costly
hardest
briar
painful
merry
denial
sexy
ultra
suscept
hostility
melodies
ruin
##ophon
employing
balanced
batch
marketed
punch
punish
groove
administrator
regimental
celebrit
karnat
drafts
muk
celebrating
1844
ringo
logging
wrestled
reformation
progresses
roses
splitting
##breaking
lester
lawsuits
doubts
yellowstone
bolt
advantages
requesting
surreal
benefited
oaks
townshend
graphical
archaeology
thorpe
teenagers
trait
rhythms
barrage
sidney
retreating
0600
salvage
allegiance
megal
leafs
alterations
cuis
coordinated
oscill
lauren
metallic
recipients
resolutions
carnival
miniature
granite
supplemented
overlooked
culminated
surveillance
duchy
millimeters
privileges
filmmaker
intercontinental
barkley
gambling
##keeping
emancip
asteroid
hodg
unanimous
reappear
abruptly
gandhi
vapor
buddha
transparent
abnormal
eurasian
leipzig
seldom
inappropriate
lethbridge
jutland
chocolate
presbyter
philharmonic
meredith
celebrities
karnataka
aph
bf
bis
dag
dose
fou
fay
gaps
hv
ibra
istan
kip
kell
kappa
lw
loun
mh
nw
nude
nerve
pist
pab
pie
pony
sf
tz
tally
tug
tah
tempt
tails
xer
zo
##gau
##giving
##iem
##ng
##rush
##rano
##tter
##mb
##mere
##mare
##wau
##frey
##py
##11
##zn
##orp
##orse
##atile
##enay
##arck
ink
##anu
##ician
##ouf
##elius
thai
##amo
##adia
##urg
##urai
##leading
foraging
combs
##odied
##odont
##opon
##optera
##akov
unsc
##abl
spun
spends
traces
enzym
##astrop
notified
##ostic
clients
brach
compatible
twisted
contention
graf
ammon
amalg
marion
relying
##ogs
sermon
aging
applying
goog
yearly
outward
coined
caret
decks
interred
##ounts
joey
earp
ellie
##fta
##isson
##ropic
underparts
retains
stressed
guess
crist
suppression
invaders
slug
transp
diver
##oya
expecting
annals
proves
barons
##anners
modelled
greens
##iamen
##erner
avengers
headlining
bests
collar
detriment
squid
marker
gunmen
captains
yorker
spee
nowhere
debates
##shaw
refuse
infect
localized
mounting
##vester
statues
nightcl
##attering
ordin
troilus
salon
salam
apes
circulated
407
hunger
suffrage
##loaded
obsol
malagasy
costing
silly
sunsh
italians
intervals
appointments
briggs
practiced
##itaries
premature
curving
uncovered
hostage
##umbled
scenery
1870s
balzac
latino
##nesday
berth
ambition
commercials
talents
unsigned
principally
##chet
gallons
1833
battered
expressions
candidacy
emperors
responding
shelf
fiscal
headquartered
##ihan
arabia
clarin
clarence
clarified
1814
ottomans
scranton
feeds
conversations
1825
taft
cellular
calculations
licence
emphasize
##agnetic
sorties
depths
codex
wednesday
resembled
whitish
deserted
rumble
archaeologists
teenager
addressing
precedent
vulcan
earnings
answers
rabbit
interception
customary
sighted
velvet
interpretations
clayton
conspic
umbre
fishermen
voyager
coden
disciplines
picard
phrases
mysterio
yielded
divorced
ravens
comedic
obliged
induction
exceeding
sloven
nutri
tumor
discharged
griffith
lonely
corpse
motifs
skept
searches
numerical
##konen
ambiguous
dungeons
spontaneous
clutch
proportions
inheritance
##naeus
fermi
persecution
encyclopedia
tulsa
versailles
tsunami
raptors
cunningham
nomencl
rerouted
metabolism
sacramento
plasma
envisioned
uematsu
illegitimate
wainwright
##ilibrium
timbaland
cherokee
ibrahim
istanbul
bother
bale
bauer
cw
cull
dop
dix
erik
foli
kart
kolk
kla
lact
loth
nos
panc
pne
pto
rn
rak
rican
roland
sway
ulys
vort
wah
wishing
##lot
##lund
##tec
##cw
##cul
##cely
##vre
##mars
##macht
##bie
##bels
##beck
##jab
##15
##xy
##zone
##heed
##ede
##onid
##atas
##enport
ingl
inception
##elo
##elect
thy
stays
##lend
##olson
##othed
##utors
beers
alec
alley
alison
whig
ansel
##chair
##ulin
##ulators
chun
comets
projection
##ectors
exiled
unint
##ellus
##ellery
clo
clade
clair
claws
herbs
compare
intend
grape
amor
##assa
marij
sheen
##uble
relies
##onduct
serbs
agnes
disg
disgr
disband
##raf
outc
##iban
meals
cents
para
##atton
endurance
subdu
0000
guidel
craters
##otherapy
belts
seth
instant
edible
milwau
obit
provoked
baroque
passport
module
famine
##eker
##ennan
sworn
demons
skating
skirt
skysc
midlands
delicate
governmental
caled
entre
##insky
differently
confess
confuc
approve
##linger
refr
christina
freighter
solic
donation
royalist
limb
viable
announce
davenport
primates
28th
void
irrig
catastrop
holders
marty
treating
bayern
discoveries
##liest
nominal
threaten
##forth
##trak
photographed
rhod
acquaint
shootout
coloration
modeling
raynor
assemble
gallant
huff
instituted
beneficial
packaging
1832
cables
jerem
bonnie
1792
lifelong
miley
demonstrates
440
gilm
murderer
altitudes
libraries
cinemas
1824
mitch
bollywood
barbar
bridg
dubrov
##market
dismissal
honoured
frogs
contestants
oriental
scheer
oakland
haynes
consumers
whitlam
coward
highlighting
sponsorship
songwriters
deputies
acknowledge
superiority
hazel
undertaking
treasurer
courtship
salvation
rebellious
absorption
diversion
fisheries
pipes
priestley
coordinate
prestige
executing
##antha
reciproc
aristotle
concurrency
infrared
vigil
physicist
stevenson
nursery
disorders
simplicity
excavations
gazette
wisdom
determining
nordic
marquis
reminded
kilogram
hedge
liaison
bryant
repetition
symmetry
recalls
retrospective
notorious
wicked
ineffective
cynthia
antiquity
conclusions
colombia
cambodia
motorcycle
guatemala
vertebrae
insurgents
phylogen
coconut
himmler
ambulance
invertebrates
maharashtra
reintrodu
unbeaten
wehrmacht
obsolete
umbrella
ulysses
guidelines
skyscrap
aif
bian
bony
boult
cake
cody
dahl
fence
gin
gom
ja
jockey
litt
lys
lump
nons
nails
piv
pum
piz
pasha
tae
ud
ucl
vh
wrap
wards
##lore
##sr
##nt
##rics
##tor
##tail
##kan
##cus
##care
##hog
##uence
##won
##fil
##ben
##bath
##bral
##bred
##pad
##jon
therop
##educt
##orrh
inert
##ingo
##isher
##static
##adin
##adors
##adena
##acerb
##urities
stump
stalled
foref
ascent
alder
alma
anter
##empo
##thood
chis
chloe
##herly
##agus
##aghan
##avas
sek
prow
##oder
shoe
neb
exempt
exacerb
unified
untr
unesco
affl
##quit
herzeg
worms
inte
amin
amids
marse
usaf
##ollah
relates
disreg
deserved
weaver
upanish
attaining
carne
intermitt
betr
warmer
elong
##text
assim
regency
registry
colt
colts
albania
presided
acap
aclu
deficit
sah
larkin
schne
schwar
surpl
teamed
smok
revis
invinc
##odeon
belly
edit
milne
matrix
##ancies
originating
extingu
germ
##ucher
##embourg
greco
redemption
everett
headline
breech
idaho
collier
supportive
glut
##clc
geology
cald
calhoun
kepler
entity
captures
protocol
townsend
oppose
organising
organizing
##neg
christine
equation
equilibrium
chef
fleets
##hyl
williamson
authorised
hyder
apology
287
hotsp
variously
declares
sunlight
sita
##pleas
wooded
garner
engineered
footballer
premises
cruising
uncont
privacy
angelo
keyes
graduates
wilco
granting
smithson
sandwich
olga
liege
walton
impressions
racist
embed
##chev
precision
penned
linnaeus
##comes
touching
apartments
repeating
defendants
ethn
1806
bowlers
handsome
430
molars
santos
assaulted
comprise
morton
strikeouts
explosions
advertised
folklore
kenya
lisbon
proceeding
constituted
##ozo
dressing
bosnian
couples
pelopon
sculptures
fledgling
fuj
fuji
implies
alcoh
tolls
lionel
##frame
mackenzie
paleont
hansen
scoreless
earthquakes
institutional
surgical
prospects
dockyard
aqueduct
ayy
folded
reluctantly
exploit
sioux
cortex
diffusion
extraction
tackles
buddhism
nuclei
escorting
shafts
wilhelms
vibe
nickelodeon
amidst
aesthet
sparta
cultivated
corpus
prussian
buttons
leopard
blamey
aristocratic
scandinavia
robbie
ukraine
disguise
scratchy
seizure
resonance
quartet
merging
patricia
bismarck
andersen
unfavorable
ingredients
phantom
fundraising
clyde
flattened
subplot
futuristic
vaughan
cloverleaf
autonomous
hebrides
repulsed
vintage
manitoba
enzymes
sunshine
marijuana
gilmour
herzegovina
amidships
bould
bery
cet
dove
erie
fiance
fidel
iro
ios
kro
koot
ln
pint
puck
pension
rink
rites
ust
vr
vom
vind
vague
vogue
witt
wigan
yus
yoga
zion
zack
##gamer
##iago
##sity
##nius
##uve
##whe
##wat
##word
##pur
##jah
##17
##zb
##ος
##ου
##inely
##esden
inad
inact
##itans
andes
toe
toby
##eters
##acs
##irk
##iduous
##ivation
alerted
conan
atkinson
bye
##champ
##thouse
##ulous
##oslov
chong
chased
suits
deutsc
##000
shp
ars
exh
plaster
plunder
unav
unpr
prinz
levin
spector
triv
enig
ench
##oughs
##iances
brest
brake
bruss
brighter
##iae
hern
hert
intending
resided
##assment
timothy
aground
committing
##ffer
reputed
playboy
outlook
financed
interchanges
prequel
##intosh
blessing
charming
##amped
elph
consul
underg
underway
airc
##atham
enduring
endured
maz
schl
epile
smile
crab
implying
##alez
transitions
diverted
milhouse
shipment
constable
grouped
1600
greed
mys
varsity
helms
attackers
gladi
geometry
magma
damon
convened
convective
eukary
confession
305
propose
whitehead
##byn
possesses
##shot
natal
100th
infring
infamous
solved
takeover
totaling
influx
letting
developmental
favre
turf
turtles
hammers
wrist
fortun
mcle
woodlands
denis
snap
socialism
negatively
premium
greenwood
chooses
purana
narr
biographical
pitches
gradient
wilkinson
verbal
towed
##ofsky
baden
assisting
punjab
##stonecraft
ambushed
quarterly
acquitted
semester
taxi
taxation
tunes
khrush
cephal
galland
gallagher
340
##ographically
spotlight
paired
permits
lifes
minimize
steamer
yellowish
alberto
crowded
santiago
nike
falc
freshwater
gaug
1783
##rels
revolver
hypot
integration
consuming
saddle
ariel
hearings
lambert
decorations
rigid
metropolis
sidel
customer
enterprises
nicholson
excellence
eurovision
murdoch
prefers
synthesizer
reprinted
cousins
konig
bags
baghd
alphab
malaysian
encountering
rockef
wrecked
crusaders
lobb
predictable
yields
motivation
proclamation
czechoslov
compensate
flowering
kosovo
pasadena
witchcraft
##horst
pseudonym
parasites
cosmic
reichs
trunkline
obscure
nanot
spokesperson
mimic
relegation
mgm
stunning
voltage
discourse
workshops
authenticity
anxious
monitored
aristocracy
athenian
epithet
barrels
unanimously
worsened
assigns
embryos
arbitration
apprentices
caucus
vilnius
academics
liberties
relaxed
landowners
tattoo
umpire
inevitable
swallow
goebbels
wolverines
wollstonecraft
buchanan
artifacts
walsh
betrayal
confiscated
nellie
storytelling
amusement
shetland
urugu
uttar
presbyterian
caretaker
obituary
dubrovnik
alcoholic
khrushchev
baz
dl
dard
ew
gros
gert
hm
hiring
jor
jing
jub
jelly
kany
koz
koh
lur
lok
null
ome
pt
pf
pants
pasc
peck
rin
sake
vc
wanna
xiv
yah
yester
##eer
##gain
##ser
##nn
##nings
##his
##uen
##with
##finger
##bilt
##jee
##18
##hear
##heaster
theoph
##erie
##erton
##oros
##atum
##athed
##alom
##ilight
thwart
##aden
stint
##lyph
asi
##ivided
reinc
##immer
alv
alger
congo
ate
byron
##ersion
##emu
##emia
heather
chir
chie
##agram
##rio
shun
##illion
##arts
##akan
##akmul
arte
arrows
##iferous
exits
unm
unle
spines
tricks
bran
bravery
herman
twilight
abduct
##iale
resent
amster
rooted
mare
reli
##ogues
agar
overhead
overflow
outlet
##achlan
evade
deciduous
interd
cane
##ibald
indict
##icked
warb
##awi
emile
drill
scharn
smugg
crashes
polished
invade
bela
##aze
##ementioned
##ieres
terrier
diva
shipbuild
distorted
proving
passer
##spoken
famitsu
##ismatic
harb
discretion
##ennes
prevents
adviser
adverse
justices
swamps
arrange
characterization
raik
##gerald
squar
calakmul
252
confessed
paterson
##otto
validity
busiest
communal
electrom
refrain
pett
nightmare
hyde
massa
40th
stationary
hitter
hungar
##ospace
suffers
275
obsessed
turmo
wrought
mcnam
thomson
potato
samus
bays
mustaine
pays
mccoy
digits
microw
frankfur
haul
punished
clearance
occupies
grohl
bulld
cancell
ridic
countered
causeway
nationals
reflections
trafficking
1843
undivided
observes
munitions
cartoons
exhibitions
##uffle
1805
corporal
corporations
390
bonap
1791
etat
etty
offerings
1810
replacements
laboratories
imagined
taller
sensitivity
1820
taek
unfair
trailing
ecw
aeron
hurley
preferring
randall
switches
volunteered
litter
exercised
hartford
sadd
sabot
synthetic
brightest
ventures
bathroom
constitute
sponsors
margins
grasses
delegate
dietary
implications
navigate
reproduce
klan
prefix
##utsch
terrorism
checked
matthews
neighbourhood
coordinator
sympathy
sigma
substituted
somme
predictions
glacial
agreeing
renovations
eclips
folding
deliberate
neutrality
willingness
coincide
constituent
sacrifices
gypsy
##hawks
gloria
wisden
spartans
stylized
luxembourg
puppets
tillman
morphology
morphological
britten
detectives
backstage
vinyl
emotionally
fitzgerald
rejects
hesit
prosecutor
cylinders
melodic
gonzalez
antibodies
ironclads
vanderbilt
cigarette
gavin
staircase
tibet
kubrick
laund
cochrane
sociology
fraternity
volleyball
kneale
convenient
saffir
apocalyptic
jakarta
morocco
wessex
practitioners
truncated
skeptical
ptole
inglis
bridgwater
carnegie
schwarz
ayyub
wilhelmshaven
lobbied
czechoslovak
yesterday
##heasterly
amsterdam
scharnhorst
turmoil
bie
cog
cey
cues
ducks
dante
ez
erod
hale
hailed
igu
jal
jong
kaw
komb
kara
klam
moth
moy
nr
nf
nou
nets
pes
pied
penc
pestic
qf
rory
ranc
rides
siding
vy
vie
vuk
wip
wik
zap
##nitz
##rard
##tures
##kap
##kov
##hies
##oise
##beth
##æd
##orementioned
##aram
##inging
##itud
##iso
topp
##icer
##rehend
##entin
##amiliar
onstage
##adas
stokes
streep
forks
beef
fru
##emates
heel
##thy
##ulco
##este
##agar
##avier
seyd
##ctica
##odrome
deeds
##illus
##ochem
orion
orator
exert
unidentified
pry
spill
aforementioned
clitor
recalling
scary
scapa
compelling
computing
inclined
grind
amanda
manpower
##oka
mari
sheets
fey
##rition
dislike
playwright
overly
overland
2017
carb
carriages
decim
interf
##ailable
blitz
filters
charging
accol
conson
pools
soils
airplane
mayer
colbert
##onshire
minaj
drains
singled
guam
millwall
shower
imperson
eden
mainline
slated
concessions
barriers
barlow
anyway
greeted
discont
##etsu
myr
juice
augmented
eastwood
swear
successors
##ups
booker
raja
universally
gunners
visibility
weekends
initiate
standings
possessing
christchurch
equestrian
royale
flea
superb
sentin
funn
##hammer
moe
influenza
programmed
salem
salts
ballard
halluc
lyon
audrey
palmy
irvine
bowman
horace
horrible
sunny
mcgu
mcdon
promotions
290
denying
toro
judging
researcher
screaming
##headed
erin
contractors
employers
hearted
travelers
mighty
awes
quarterf
giov
occurrence
immense
##iii
ridiculous
karls
cao
caud
gardner
odys
darryl
##lights
ignor
converts
adopting
disappears
oversh
1804
miracle
##roads
essence
420
dangers
adjo
problematic
rotating
unfamiliar
hatred
bcs
mythological
dubai
aerospace
migrated
1779
1775
560
850
aztec
randolph
oakley
910
reservations
otters
neutrons
747
levi
automobile
confederacy
dalton
sinatra
earnest
weaponry
##ogenic
gustav
absorb
dodd
crafted
stripes
disappearance
lithium
refugee
iraqi
lynn
echoes
nitro
##enzo
shifting
andreas
sticky
teddy
inaugur
inauguration
fortresses
pyth
reverted
destroys
exploited
inscribed
passionate
extracted
stevenage
overwhelmed
bruno
coincided
rewarded
olivier
disagreement
dawla
cultivation
drifted
ryu
chaluky
unconst
riffs
trumpet
sustainable
pilgrims
spitfires
botanical
phosphate
flexible
recruitment
antarctica
liao
ukrainian
marlborough
seizures
shouting
lansing
incorrectly
periphery
sleeve
skeletons
vatican
vandal
pembroke
##hausen
rendezvous
retaliation
lgbt
tubercul
erotic
scrutiny
cagney
eminent
premiership
asymmet
borscht
byrne
qaeda
venezuel
buccane
lounge
milwaukee
acapulco
hyderabad
iroqu
inadvert
brussels
mysore
rockefeller
bonaparte
kombat
2d
apt
cary
derm
feld
gaut
hs
hc
hap
hord
hector
jard
joking
kj
kag
kud
lass
lens
leland
maw
mald
nail
pity
pills
samp
tart
tore
tara
woo
wavel
xl
yuan
##nis
##rar
##the
##kowski
##cot
##oj
##oine
##uke
##wic
##wear
##bald
##yen
##jols
##47
theology
##eded
##edict
##edience
##onal
##atl
##atops
##arin
##aran
##aris
##arid
##arity
##anelles
##alu
##ilai
thumb
onset
##urgy
stig
##leep
forge
forwards
##olar
##olini
##imited
##owl
##aying
beard
alm
whitt
conway
ante
##eming
##chus
##ainen
chips
seaw
sug
depp
##ectic
##isto
shades
arj
arthrop
##ifolia
leah
##uding
bras
scher
contender
contamination
alloy
residency
robyn
manzan
##ollen
##rite
desires
wein
uphold
coher
cohes
canvas
boo
fluct
flux
formby
elgar
rematch
bug
quay
quake
genetically
assent
emm
eminem
underwood
coloss
maver
subl
schoon
surm
##lett
beloved
belarus
instability
mathew
crewe
exports
##ucent
signatures
gregg
gretz
harp
majors
corals
midst
##ussy
squee
titanium
postseason
humidity
caste
proponents
goodman
chew
flem
217
histories
229
222
funer
broadcaster
salaries
duly
popularized
condor
wallis
denoting
urg
urs
urine
judith
commitments
crewmen
figur
focal
speedway
cups
graded
recognise
recognizes
pauline
dealer
towel
##ophren
employs
##itutional
flynn
dispatch
beatrice
sands
considerations
textile
compliance
cannab
synonym
ridden
caen
mupp
gallon
##ecker
waited
38th
cartridge
ignore
savann
spotnitz
dunes
rowed
meaningful
ramon
shelby
spectacle
targeting
memorials
dao
1817
52nd
rodgers
encourages
tao
spinal
970
tabloid
restriction
distinguishing
licensing
##iasis
gateway
decreasing
fashioned
litigation
vacancy
descendant
gangster
symbolism
jurassic
raiden
cheshire
utilize
janeiro
decorative
inherent
sophie
sculptor
satellites
mathematic
coda
mackay
initiatives
charleston
mesop
saskat
feudal
pirate
appreciate
retailers
foil
heirs
##werp
fascinating
thanksgiving
ceded
surpassing
chromium
predominant
quietly
optimistic
penguin
rpm
excavation
fulfill
fulfilled
porch
professionals
receptions
concealed
explorers
reefs
sapph
weren
resurrect
embrace
spitfire
##keepers
cnn
sylvester
encompassing
yoko
awaiting
thoroughly
searched
indirectly
clifford
pledged
pixar
apprentice
denomination
elegant
gossip
tikal
isabella
supervising
paternal
luminous
electorate
oryz
pilgrimage
nigeria
suzuki
besieged
bikini
zurich
zombie
telecommun
barrichello
transfers
amnesty
schizophren
synchron
synagogue
algorithm
foremost
##abulary
recombination
geneva
susceptible
emancipation
conspicuous
nomenclature
pneum
jeremiah
surplus
alphabet
kanye
mcnamara
eroded
klamath
tuberculosis
bt
cb
dough
faint
fiji
gs
gong
gdp
hoy
hilar
hicks
ij
ioc
jol
jov
kali
lal
latt
lengt
mug
nate
niss
oclc
pd
pens
raced
turing
wies
wines
wulf
##lr
##lis
##gae
##rim
##rone
##tis
##tach
##cile
##hole
##vention
##veston
##maker
##base
##pc
##jima
##86
##13
##eri
##erpt
##anity
##alm
##itra
toil
topping
thi
##amas
##adle
##adio
##acl
stout
##igi
##igated
##igua
##ayas
beg
wharf
itza
anast
fres
hezb
##thi
##ulse
##osem
coma
shi
shang
##opatra
uninter
leh
leap
splin
##ongo
##acker
##ourse
##oughton
clare
recons
bragg
brennan
##ounce
incoming
abel
abbre
contests
grill
allman
mani
manners
usur
server
commuter
overton
outages
outcomes
coy
finishes
##iba
blanc
blonde
blucher
accessed
elias
knives
##rops
daytime
recorder
drained
drinks
beforehand
##hesis
locke
##ittac
millig
##ilyn
invites
counting
belize
welles
edmond
##azar
britann
##ieri
terrific
transylvania
exported
annih
provocative
statesman
governance
##ahan
prevailed
prevailing
avant
courthouse
classroom
ida
awarding
gloves
banded
geography
routinely
prototypes
stormy
confusing
confesses
posters
humble
proposition
prophet
antwerp
ledger
##balls
whitehall
trophies
militants
christgau
freeman
245
##ipple
##ippers
lowland
facto
peterson
mori
sums
##opsis
moons
royalists
hymn
argon
projectiles
canadians
##aea
selections
lynd
voor
##geschwader
##load
auditions
palau
##apeake
grandd
illusion
croft
readings
tombs
samantha
creativity
cruises
##oxide
chiefly
raped
excerpt
verbs
##author
mccorm
mccull
sequels
flyers
screenings
screenwriter
corpses
unsuit
33rd
puzzle
libyan
kratos
khal
pleaded
muirc
galveston
distribute
oilers
borg
odi
odor
mastered
packers
confluence
masked
progressively
dunham
convergence
oversight
chrisye
recommissioned
contrasts
torpedoed
demonstrating
dolls
rodney
puls
1821
niagara
comparatively
540
bafta
accidental
ecological
choral
emphasised
huron
1778
hindered
railroads
piercing
kingship
glasses
unlimited
withdrawing
conscription
surveyed
stretches
hungry
bulls
inspirational
chesapeake
680
riverside
##adowed
addresses
negotiating
1761
interceptions
implied
kisses
cobb
terrorists
breathe
streaming
analysts
coordinates
pioneers
reconcile
sparse
havana
pupil
lizard
stereo
exploits
paramil
jarrett
enclosure
condemn
nurses
vulnerability
simplified
traction
penetrate
parasite
grenades
ripley
anaheim
echoed
emerald
rejoin
slavic
chilean
##izzard
neighbors
asteroids
conferred
draught
dungeon
mistakenly
##stadt
impedance
paralympic
unseen
envelope
abbasid
jewelry
shankar
overhaul
legitimacy
backlash
rwanda
mitochondrial
garbage
reworked
fowler
torrential
consecrated
rhetoric
stephanie
hydraulic
breckin
mauritius
briarcliff
xerxes
detrimental
##electric
anselm
embedded
hertford
baghdad
omega
artefact
seydlitz
karlsru
iroquois
hezbollah
80s
a2
auck
cf
cact
dd
db
dion
eon
eject
goring
hue
hau
hays
hints
kors
kicks
lure
meck
mapping
nib
paw
pins
rost
rims
sain
sos
satt
ting
tand
tert
tann
tones
vor
vader
wired
wyn
zeb
##eason
##aen
##iq
##sson
##dick
##nals
##kick
##cin
##oom
##uber
##mium
##makers
##foot
##just
##heba
##onen
##atical
##arc
inac
ingen
##itas
##asium
##iscl
##recht
thul
##ecd
##rogr
##adar
##idan
rewards
reused
##utable
begg
##ersh
##thro
##thard
chalk
chili
##hertach
##agin
seap
##odic
deities
neoc
##opath
arter
arched
arrog
arlington
##iffer
##ifix
##ifully
##orting
plating
unic
unpa
unauthor
##aby
spars
##asting
##astics
clone
brant
bruins
hered
scare
scaled
scroll
incidence
intake
gruff
amir
manson
timed
##icals
relent
##onds
disability
desirable
offset
overhe
upward
outlines
outlined
outspoken
imaging
fines
##angi
parental
##prene
##prints
knox
quote
reggae
underworld
airbus
##ribes
mona
monog
monastic
##athi
mined
miniser
endless
preseason
defines
capac
cress
crick
revive
##nington
generous
countess
slipped
##flower
statewide
shipw
expo
expose
extensions
gerry
barred
downing
##ismund
medication
steamed
steams
respir
##ricate
justify
lax
lawn
eastenders
tyre
builds
##ysis
detained
detention
geographically
##iken
raided
midland
##encia
proto
societ
254
255
confessions
postc
##hened
patrons
farrell
valentine
originality
infants
##retto
216
takeoff
watkins
georges
archive
##hampton
##queh
affirm
##aldo
263
coasts
401
suffolk
malone
declines
borne
browne
brownish
catcher
admitting
merlin
activision
urgent
directorial
inspector
susqueh
practically
macmill
robbery
shotgun
melissa
keynes
paulo
mccon
mccabe
likeness
threatens
atlas
captaincy
disposition
digging
concerto
latitudes
minorities
chaplin
frequencies
favorites
emerges
benz
reactors
##baum
semic
taliban
unsatis
bordered
fantas
substances
garde
bonding
ratified
oss
confirming
undiscl
strauss
##ographies
questionable
expresses
hawker
##ija
##zzi
colder
coldplay
stockport
elevations
banana
fatig
fishes
teles
functioning
carlisle
1811
chaired
pulse
sensational
1828
1823
pinn
execute
trailers
interacting
spinner
dubstep
andrews
revolves
gatehouse
720
transformers
shrub
shrubs
sabbath
archaeologist
naive
fragile
ventral
astronomer
flashbacks
mystical
vulgar
gilberto
dynamite
baptised
muddy
chemicals
flanking
consulting
dodge
synthesized
synthesizers
deprived
pioneering
sigismund
pottery
hiros
honeye
satisfy
carniv
stereotypes
poisonous
capsized
cassette
surgeon
obligations
crucifix
processed
succeeding
gaston
crosby
holloway
laughing
muller
flavor
ajax
devotion
confirmation
lantern
vernacular
hazardous
supersed
ausp
bjork
dignity
dignitaries
whistle
jagd
slovakia
##elihood
analogous
coulthard
##grove
underside
homosexuality
illuminated
tyrannosaurus
immunity
westerly
cascade
satirical
satisfaction
ecosystems
kendrick
undermined
mirrors
lashley
ceramic
compulsory
tunisia
flamenc
clapton
reinstated
aluminum
reeves
forcibly
tribunal
aerosmith
nightclub
nutrients
beersheba
entreprene
smithsonian
falcons
raikkonen
ptolemy
sentinel
awesome
giovanni
wavelength
abbrev
milligrams
muirchertach
breckinridge
auckland
thulium
miniseries
undisclosed
8b
aac
aide
boll
bits
bids
ct
cv
cinder
doses
e4
foll
fury
ges
gull
gne
hul
hides
kik
keller
lc
lime
muc
melt
nod
nile
nfc
ova
oasis
pell
poul
pads
rust
rij
sage
silt
suther
tis
tires
tutor
vain
vita
wakes
wadi
zam
##lf
##gil
##iov
##ienced
##sud
##rans
##ku
##kop
##vil
##wen
##buster
##jr
##14
##16
##zak
##eros
##erable
##onies
##atore
##atism
##atars
##arves
##aney
##algar
##itone
##iska
toad
##staff
##amette
##amura
##aduct
##urier
##leased
##lements
forec
asleep
reaff
alge
wholes
fry
fraz
fresco
heal
##cephal
##uliar
##andro
chapp
##estation
comrades
sep
suez
deaf
##opol
##illard
##bergh
##ocamp
##akis
arv
aren
##abh
spat
spies
spanned
spelled
spurred
splend
traf
eno
enam
enraged
##acking
##aste
##gean
##quest
clive
claw
recoll
brab
brakes
herring
adler
intro
intest
gramm
##sohn
amended
mares
percept
timor
##olls
relocation
disasters
weir
weinstein
offence
overmind
imb
imax
cooke
attested
decap
meh
meadows
bloc
blink
##plan
acton
centennial
moreau
joa
chartered
parodies
accusing
elsa
elmo
muss
thresh
##indy
nora
bucks
quo
quag
sob
##grass
monmouth
coler
cologne
liability
dresden
saigon
capped
schult
willamette
stras
severed
##itten
invading
numbering
opus
divert
milestone
annul
deposition
barges
landlord
downhill
medications
harness
harlem
discon
everton
ifc
advancement
augusta
builder
##aneously
lineback
##ikos
skies
commandant
##ossa
protoss
furt
##screen
socio
visions
handel
patrolling
farn
propriet
radial
antit
antagon
cyan
rockwell
realises
equatorial
cheers
pressured
europeans
firef
##atorium
churchyard
##opsy
trey
jackets
positioning
viaduct
238
234
groundbreaking
insistence
competent
hunts
hunted
motown
campaigning
devi
devoid
lookout
cutter
bridgehead
bridgewater
catap
merrick
garland
garris
honesty
journals
judy
##denberry
samson
representations
breakup
quarries
mccann
violating
casemates
debuting
musicals
##trans
probable
literal
chaplain
alexis
ambient
investigators
awake
jewellery
capitalism
hospice
imprint
domains
pujols
libretto
heroin
birthplace
galactic
##ariat
boxer
yardley
maximilian
sarc
mosley
translates
lucrative
dvds
incorporation
640
lifting
banff
tendencies
telep
roddenberry
gamers
encouragement
pulp
assaults
landslide
goldeneye
tamar
fueled
arcs
seller
container
1780
1788
measurement
teller
contestant
brandenburg
hornet
hypoc
greyhound
corresponds
chronicler
jacqu
solidarity
kimber
niche
thunderbirds
leonardo
dresses
dalmat
lockheed
undertaker
pelvic
##broken
transitioned
mckenzie
##retti
##ogenesis
forbid
nichols
monarchs
eurogamer
hippocamp
extrav
deliveries
armenians
johor
konigs
1900s
shifts
diplomat
laurent
delaying
vegetables
patty
chaotic
telegram
jumps
symphonic
fernandez
nurmi
clerical
ascension
bentley
rushes
stuffed
endorsement
hooks
lavish
lavigne
gesture
bundle
elliot
tolerance
delighted
annexed
starkiller
botanist
overwhelmingly
aubrey
ludwig
uneven
kensington
redeveloped
kruger
reconciliation
showcased
peculiar
balkans
coventry
flawed
##combe
grazing
rufus
aegean
spherical
crippled
inflicting
transactions
gettysburg
councillors
awakening
ransom
sanctioned
compartments
restructuring
enlighten
dictatorship
peppers
mafia
berkman
adorned
epsilon
mughal
inexperienced
bungie
dairy
defenceman
pablo
##ablanc
google
pivot
exacerbated
disregard
schneider
invincible
unpredict
hungarians
microwave
ceylon
adjoining
unconstitutional
buccaneers
inadvertently
gretzky
cannabis
unsuitable
karlsruhe
macmillan
sutherland
trafalgar
garrisons
bored
bunk
c5
cork
cove
cgi
fah
fbs
gently
guth
jas
jared
kod
kass
kern
krie
lita
lilly
lanth
mok
masts
nj
nug
ngu
ou
qur
rite
rica
rca
ragn
scept
sinc
sorts
ufa
vulture
wak
wenger
werner
yen
zappa
##lace
##gem
##iil
##iating
##iaries
##rama
##tong
##tenden
##vich
##mod
##mast
##moor
##will
##wester
##bel
##banks
##pen
##path
##jak
##90
##zyn
##72
##erated
##inement
##oriasis
##atul
##atibility
##asim
toug
##ilo
thigh
##enton
##adilly
##accept
stag
##otam
##igibility
##utan
##utic
##ayana
whip
atroc
anark
chassis
hisp
##avers
deutsch
##uns
shit
shattered
shrews
arising
orr
ores
exams
unaccept
##about
printer
traps
##ieger
clashes
recur
recounted
brady
hermann
firth
bute
worm
worcestershire
newborn
amar
marg
marilyn
perce
##ignant
##ondition
agn
##rites
disob
deserv
repatri
upright
##luded
coerc
##achments
evap
interst
preclassic
boise
boiling
secession
tej
meade
meeker
##inty
blessed
blizzard
joanna
charities
elena
thrill
knob
buk
quotes
regin
regulated
##ropolis
thanhous
##ublished
monoc
##athlon
minig
drom
doyle
cracks
revisions
##itti
battling
slough
distortion
crittenden
austen
famed
redisc
loom
loops
loads
steward
systematic
autism
classifications
brewer
correl
corinth
eastwards
swarm
arrests
booked
booklet
##unders
lineage
##ikovsky
shortest
keel
blackpool
storyboard
killers
waterfall
requiem
explores
##otta
billie
angered
makeup
rockstar
reflex
refitted
christie
sayid
claimant
superc
localization
249
lowe
226
volatile
combust
romero
higgins
authorization
lett
affinity
hym
philanth
apache
##echnology
veil
burd
insign
madame
richter
motives
fallon
palin
hillenburg
croats
businessmen
activate
informer
##maid
feller
inspire
sams
treatments
macbeth
colonization
greenwich
##ommitte
curling
pitchers
drowning
recognizing
paula
cyclonic
eyed
transporting
psi
psoriasis
casket
domination
dominions
transferring
healthcare
luigi
analogy
groening
intensifying
complexes
liberated
tuned
ironically
kras
messi
enjoys
logical
munch
cartil
scheduling
412
converting
vocalists
ninety
1807
1790
contrasted
elevators
spectator
attendees
stephenson
wounding
mutation
negotiation
molar
doctorate
evacuations
mercia
rescues
preparatory
watchmen
niece
narrows
chorale
polymer
polygon
calculate
licenses
franchises
tellur
tactic
##gregor
gaye
##hetical
fixtures
pedest
sedu
viceroy
ventilation
bangal
trauma
crashing
rafael
asserting
assertion
daley
lamont
##ilingual
wagga
pigs
vertically
gorb
collapses
shocking
kinks
##achev
unpublished
selectors
gateshead
alcoholism
advocacy
behaviors
woolly
listener
blowing
errone
kerry
tricky
aggregator
algae
obligation
benton
##bridges
toxicity
chadder
mycena
reorganized
choreographed
unreleased
harmonies
prosperous
laguna
cunard
brisco
hammerstein
apologize
alamo
chords
aaa
crustaceans
mascul
lazy
brahm
sterling
flexibility
stirling
cerebral
posthumous
populous
escalated
tributaries
gemini
rutgers
caliphate
notoriety
disguised
pardon
arbitr
dreadnoughts
pawnee
##fuhrer
##proof
viscount
disqualified
dusk
griev
dissolve
staple
beverly
marceline
griswold
seismic
molyb
##arivo
sacrificed
soprano
nocturnal
subfoss
northumbria
sinai
piccadilly
befriended
vladimir
paraguay
boulton
##isenau
supernova
hutchinson
ammonia
clarinet
kolkata
confucian
solicitor
catastrophic
vh1
nebula
marseille
kootenay
yusuf
undergone
epilepsy
dardanelles
electromagnetic
cancellara
bieber
inaugurated
schooner
flemish
artefacts
hereditary
catapult
thanhouser
ail
bain
bully
bisc
bouts
cair
dul
daring
dhar
dazz
ef
ff
fid
gb
gog
gimm
hare
iq
ike
jams
kc
kand
kum
kop
kumb
koch
katherine
kitty
lr
lh
lid
lug
mele
malk
moul
nuts
oun
ostr
pang
pug
rf
rack
rund
sd
spp
sock
sells
tass
teton
tcha
uh
ufc
vivid
vista
wich
xenon
zen
##liche
##dog
##rak
##ratory
##kus
##cery
##uer
##mings
##fest
##fleet
##fowl
##bys
##jø
##jack
##50
##zh
##heid
ther
theta
thess
##inium
##orio
##orah
##atre
##esham
##arine
inlet
inject
##itably
toul
##ilocy
##elet
##elves
##elope
##ecost
stard
forrest
forerun
##lysis
##idus
##ivism
##iguous
##oway
bean
alkal
##emma
heels
##ulum
chate
##agree
##uno
shik
##arton
arl
aron
##ifiable
##ateful
unused
unfor
##abouts
leach
enqu
energ
enables
##ieg
notre
##mentation
clashed
brund
incarnation
worsh
abdom
grub
grains
resum
reside
amiga
amassed
amtrak
perkins
sheila
sheikh
seren
becket
##fflinger
disagree
hasbro
coel
##ultural
evelyn
caric
carmen
deco
preoccup
flick
##week
blur
bloss
charters
parry
##ilden
remod
##formed
pew
peat
regis
regulatory
workforce
##ribers
colfer
endings
albat
albanian
capita
schu
schro
##eyer
smithers
##eps
strut
strass
gujar
gubern
polk
##letic
##letown
invite
longstreet
edg
##tenstein
slap
slalom
tern
obey
##ancements
crem
##leys
barge
estonia
schooling
downfall
##ismith
weston
ported
avid
##ulli
headlined
mya
glove
publicized
demobil
smallville
##obo
shortstop
##inker
markers
##raph
##scape
##scope
253
patience
##raction
antanan
organism
cyril
replen
experimented
commune
infections
checks
differentiated
summed
sumatra
donovan
statutes
fielder
moat
mole
mojo
232
animations
labyr
needing
homest
connie
veins
burges
richie
obsidian
wallach
malley
malik
devout
palae
irwin
silva
hamlin
hillary
meanings
structured
activation
uranus
holt
improper
judas
roberto
importantly
curious
pastor
pastoral
purport
##iffe
vera
mccar
derfflinger
employer
researching
psittac
reasoned
ranarid
peterborough
##islaus
olsen
awiil
purchases
feral
bulbs
embell
methane
conclude
caul
cavern
oceans
dogg
olympus
kramer
##chewan
terminator
admiration
375
undoub
##factory
343
globally
foreigners
383
alias
misunder
shelved
banquet
eyewit
beautifully
telecast
concentrating
520
rodman
barbados
rhyme
sherwood
sailor
767
gibbons
polyg
navar
sortie
adapting
scholarships
philippe
peninsular
conscript
960
naismith
nicolas
intentional
barrister
precedence
loyalist
muds
attorneys
sidd
expectation
obliv
dangerously
padres
preface
ahmad
fishery
friedman
mammoth
analyzed
sickness
disturbing
laurie
laurence
overlapping
wreckage
monasteries
advocates
hobby
controllers
pups
preserving
knocking
commemorated
commemorative
gotham
succeeds
russo
verdi
extermin
expertise
msn
reorganization
bacterial
prosecuted
ostens
paradox
blended
millimetre
cavity
hierog
marquess
pentecost
fibers
nassau
anarchist
thornton
embraced
amphibians
astonishing
sweeping
wiggins
oberleutnant
kenseth
mocking
populace
ascended
wheatley
subcommitte
inconsist
incredibly
summarized
macedonia
degenerated
subscribers
cigarettes
##ycled
caucas
slaughtered
daytona
gymnasium
prayers
disclosed
bismuth
peripheral
vijay
paralympics
reissued
plagued
cruelty
softer
glowing
prophecy
chromosomes
##children
recaptured
adulthood
aggression
reptiles
magistrates
exploding
sgt
staunch
remembers
ismail
mormon
vishnu
##ocytes
refreshing
ourselves
scuttled
hodgson
irrigation
huffington
anterior
elongated
ustase
hypothetical
shipbuilding
squarep
##itudinal
interfere
saskatchewan
granddaughter
tandem
cricketer
telescop
gneisenau
threshold
coleridge
konigsberg
guthrie
chadderton
tchaikovsky
gubernatorial
antananarivo
ranariddh
eyewitness
a6
bp
bum
baird
cin
cis
cac
cue
creeks
dyer
diefen
eh
footh
gos
gior
hated
hick
hiro
ia
ih
ips
ji
kv
kai
kanch
lille
mish
mural
nd
nm
nect
nour
nascar
oke
rave
rother
rower
sins
somb
sihan
tav
tiles
viz
vrs
wary
yuk
yemen
yosem
zah
##eg
##green
##ienne
##dor
##rand
##kamp
##kets
##chens
##hir
##hma
##vs
##vable
##mire
##mata
##wy
##fol
##baker
##łsud
##jina
##zman
##zef
##øy
##hett
theres
##orously
##aret
##arum
inel
inactive
##icates
##regn
##ombo
##ilia
##rof
##adu
##acies
##uris
##urable
##leen
##leum
##lema
foresh
##imus
beak
beams
##emann
##cham
##ulence
chag
##aguchi
##agiale
como
seph
dei
##unken
shil
shay
neon
##oped
##ldon
##ocre
orp
oricon
exiting
plaint
unspec
##ppert
leib
leone
tris
##gender
##ovar
clint
reclass
brat
brawl
##aryl
incis
incurs
contend
intends
grasp
208
2020
allusions
mankind
perished
##ogl
becky
##anson
wei
offended
##actical
overpass
upst
upro
uploaded
outraged
coats
cooked
cared
caring
caragiale
boone
flocks
##ibu
indicted
meand
elaine
##indler
##grave
monkeys
brodie
##athing
##onson
minors
##phones
phar
specter
revital
pola
mettern
##letian
imposing
impetus
simulation
backward
##alea
slogan
dividing
milford
expulsion
constance
estranged
##fulness
neared
modules
redding
looted
harriet
nationalists
steered
efficiently
majestic
systematically
autoc
idle
correction
##eneuve
geometric
##obe
rael
raises
raonic
lifeboat
campuses
##tedly
kee
gunner
convent
socially
lego
waterways
handlen
humid
timeslot
radars
antoine
organist
valves
replies
baseman
basidia
realise
realigned
militar
militiamen
cleopatra
solving
crossroads
sentiments
##parents
morrow
donkey
donnell
roma
announces
goldberg
hymen
ordained
projecting
connector
##aean
selecting
southernmost
imports
villeneuve
273
walled
malaya
malfunction
malawi
##iterated
avery
cutthro
stripe
merits
piłsud
saty
hoover
hooper
snout
holst
interval
judah
inspiring
injunction
uncover
narration
quicker
melanch
federer
biographers
mustered
mccool
liking
boyle
literacy
empower
haifa
haakon
##nesian
applause
sandman
amounting
occupational
occupants
nymph
layered
forehead
walpole
bullets
unsett
wintering
montoya
utop
taxa
precious
winged
plea
drafting
reflective
goalscor
asthma
logistics
witches
determines
kennel
sava
savings
mentioning
ashford
pairing
farmhouse
##holder
rowan
psychic
1802
shareholders
bono
attendant
##written
distinctly
mutin
variables
1818
weights
durga
##dington
bitch
1822
1826
cooled
owens
rhymes
supplying
760
ecu
calculus
danielle
migratory
cds
containers
gaiden
weakest
emphasizes
1784
actresses
570
virtues
ladislaus
tsr
fashionable
mandated
sortied
grizz
repairing
professors
unlocked
pedestrian
590
shrimp
sieg
##warts
censored
980
enlist
777
jesuit
broncos
##rifying
saxons
installments
swimmer
enforcing
marshes
culp
1768
1763
auerb
float
kissing
katy
##iante
klaus
usaaf
##utsu
acknowledging
##frith
bypassed
picnic
reprised
chancel
geared
rudder
ussr
prologue
pioneered
napoleonic
executions
recipes
barrymore
butterflies
foley
vigorous
hannibal
eclectic
aggressively
obstruct
shakur
faults
fracture
zepp
diocletian
1660
pillars
tortured
rewarding
mycen
deterioration
conspirators
decaying
##runner
judgement
triangular
receptors
easterly
inquirer
dilemma
mimi
stingray
stallions
pumping
dormitory
wiggum
baptiste
lungs
emigrated
touches
distracted
symmetrical
##addafi
antibody
shooters
sutton
detonation
conferences
worsley
pledge
overseeing
accomplishments
bambo
claudius
serpent
regeneration
consortium
falsely
disqualification
mediocre
cowboys
stipulated
impaired
gratitude
bohemian
spheres
interrogation
cayman
manoeuvre
shuichi
incompet
exploded
##patrick
undercover
pornography
elliptical
tuscan
toshack
relativity
bokassa
heisman
refurbished
semifinals
applauded
labrador
ethiopia
##midt
anticycl
supremacy
overturned
inaccurate
guinness
homologous
cuisine
unintention
caledonia
hotspur
narratives
chieft
sabotage
czechoslovakia
clitoris
discontent
mcdonnell
odyssey
savannah
fatigue
lanthan
unacceptable
melee
chateau
labyrinth
hieroglyph
subcommittee
caucasus
squarepants
diefenbaker
sihanouk
yosemite
metternich
cutthroat
auerbach
70s
a1
aet
bd
catt
cute
creep
d4
dane
ein
eur
eust
erection
fared
foe
gage
gland
gaddafi
hats
hilda
joc
jug
joked
kul
kess
kak
kual
kink
kaf
kiev
lj
lice
lutz
mec
mow
mard
mocked
moult
och
oste
ratt
rude
rump
rita
sable
ssh
sino
sagan
sacks
tec
tiff
tilden
vt
vold
vane
vasa
wiz
wires
yue
##gens
##gosaurus
##des
##nick
##rise
##ranes
##tas
##hus
##human
##wo
##fin
##forts
##yp
##pers
##87
##ono
##orb
##enko
##arse
##inges
##itri
##itations
##itures
##isable
tod
##iona
##sta
##sty
##etion
##etium
##robe
##uram
stil
stairs
sticks
forested
forster
##igate
ala
atoll
##emkin
hears
##chan
##tham
##osures
seah
prod
##ctory
##apo
neural
##oco
##ichil
unch
unarmed
lein
lepid
spire
spock
spaced
spared
hadn
##ipes
##ovci
recession
recycled
comply
abort
abusive
grimes
grupp
grateful
20s
##ureen
perennial
usc
##igny
##ogo
##ruz
desha
goat
goof
upbr
##achy
##aceut
attire
carrie
interrupt
filip
##plain
centaur
centenary
warns
parth
elis
eligibility
##pressed
bugs
poit
quark
genoc
genetics
pegas
emit
emulate
monolog
##athus
endow
engel
defects
deficiency
defunct
poses
phi
schles
doo
crumb
crabs
revue
callaghan
mets
suppose
##letter
inverse
setup
##ledo
edda
simulated
backbone
transplant
milian
milky
creed
deport
concussion
barre
runoff
anymore
downt
downward
medall
persist
nationality
##xtap
avion
juxtap
advising
bremen
collisions
gloss
banding
raff
skate
squall
topography
calais
##insic
titular
blackout
visibly
humber
proponent
antis
debra
##ominal
##brate
##shan
realising
natur
goodwin
soluble
chev
214
244
firearms
petty
moreno
stylus
doncaster
courtesy
moff
trades
copa
##helm
##queous
apex
connery
burma
285
dukes
ideological
techno
introductory
cutsc
cutler
wrath
pius
##ressive
hof
hooker
processor
snoop
predatory
urb
potemkin
juda
separates
313
316
rainfor
closet
robotic
uncredited
uncondition
staffel
privat
bias
biot
participant
balc
reasonably
indication
disperse
banknotes
457
photon
photographers
berkshire
renumbered
lieber
impractical
candle
dissem
intensely
arranging
cmll
alternatives
karma
initials
terminates
crows
oswe
astrol
enjoyment
confirms
huang
logistical
waist
plotting
ignoring
kenney
sleeper
translate
sweat
forestry
misleading
psycho
strategically
lottery
zealanders
lesnar
doubted
bella
1813
470
scrub
senses
sensors
pinter
pinch
510
950
hatching
julio
comparative
barbettes
53rd
dimorph
experimenting
revolving
summary
azores
dialects
hinde
transforms
journeys
byzantium
allev
kirch
sabres
innermost
vicar
wheeling
nicol
shutout
870
##copeck
bidding
acidic
automated
scarlet
buyers
locker
culver
kuzn
triggers
implicated
pulls
tuition
deposit
katie
transmit
fabian
gusty
assassins
rugged
monumental
branched
acknowledges
bunny
abdominal
yeoman
nomura
nasal
swiftly
sorry
analyst
coordinating
boroughs
panthe
aleut
hobart
masonry
tightly
exploitation
ricardo
ragh
knockout
capitals
gospels
devastation
caesium
ambassadors
jurisdictions
##gradation
bastion
disagreements
æthelred
deteriorating
outfits
##horse
explanations
vertebrates
spartan
manipulate
icelandic
chenna
fertility
borrowing
marxist
monopol
tentative
tentatively
slavonia
inhabits
flourished
skeptic
stabilized
awaited
auschw
leaning
whistler
macedonian
nescopeck
fluorine
trenton
blazers
fontana
brewers
voluntarily
motorsport
ambiguity
evangelical
weaknesses
apostles
aspirin
engraving
intrigued
skeletal
embarrassed
samaras
utterly
microscopic
komn
peacetime
torchwood
jenkins
linguistic
sneak
paranormal
antenna
incapable
orphanage
krypton
reclaimed
marquez
narciss
nansen
##otypical
nostalgia
tasmania
jeopardy
allotted
slovenia
disgust
refriger
hedgehog
betrayed
caldwell
unavailable
reliability
linebacker
enlightenment
kriegs
nguyen
##westerly
shrewsbury
reginald
gorbachev
molybden
abdomen
undoubtedly
nectar
unspecified
piłsudski
kuala
kuznets
auschwitz
1up
aal
bn
bant
bans
bick
bax
cern
cuck
cote
cindy
ding
dare
dared
eic
eun
eton
eats
eco
erica
fits
fanny
gown
gase
gaw
gye
hos
hint
hover
hilton
hinted
jbl
jovan
lace
moll
maus
mesh
moths
nah
nts
nih
pom
pitted
panned
rental
saus
tard
tau
tilt
uter
vectors
wir
waff
wille
yak
yarm
zac
ælf
##lic
##lift
##eous
##eks
##gor
##rav
##rive
##tro
##kos
##cut
##casters
##mic
##four
##bium
##bius
##yne
##pse
##99
##øm
theolog
theob
##inam
##initely
##atable
##atoga
##esque
##enic
##arium
##arming
##aline
##asaurus
andhra
toledo
##icz
##icola
##ouzen
##ionage
##elow
##econ
##ecia
onward
##adt
##acic
##acion
forfe
##olet
##otai
rez
##utant
conject
anom
angr
anson
anecd
fris
frusc
##emason
heer
##chlor
##ande
##andan
chow
chatham
sepin
proxy
deir
##istocene
##rious
shill
##ocating
##arten
arroy
exited
una
unopp
##abi
##abel
prag
pricing
lees
leech
leves
spice
##ongju
##gham
##sein
hadley
##ipedia
afric
##arya
scav
compil
twists
abre
contended
contador
intu
firstly
grail
allocation
##ueger
manually
marvin
##omez
##ormann
##ogene
overweight
co2
##ulton
interscope
indec
bliss
blows
centimeter
bets
chariot
elm
noisy
quell
asset
regia
monograph
##othor
colchester
minus
engra
##orno
defens
safer
posing
phall
wherever
whereabouts
northrop
schul
stroma
gund
cranes
severn
addict
generators
inviting
invari
invasions
impart
edith
simulate
receivers
slater
slick
diverged
##veloped
objection
continents
barth
directive
signifying
signaling
downwards
redef
redwood
mediated
persia
harrier
discern
discrep
stewards
##ullah
autopsy
advise
classmates
classrooms
brend
swims
colloqu
octopus
##ysical
gla
gluc
glitter
geb
##appers
promul
midwest
squir
titans
evenly
yorktown
##berto
postage
oppression
radha
iih
cycles
basque
##neux
freel
clements
despatches
behave
beginnings
242
sentencing
firepower
228
volta
petit
##afe
stature
archaic
tenant
fielded
virgil
##ombe
broadcasters
programmer
projections
api
fronts
burt
madd
motions
##loading
fallout
obsession
malac
bows
fortification
mermaid
roundabout
promotes
escap
activism
readiness
sniper
henrik
penult
sanctions
31st
researched
vocabulary
bayon
rainy
rainbands
breakout
secretariat
eras
robey
robots
currie
puritan
quickest
respectable
melted
verified
conducts
birch
lowering
newsletter
##ophagus
derive
faire
casas
casablanc
dispers
dominic
lordship
micros
panhand
hajj
batgirl
buddy
budgets
luzon
sandra
wildcats
guardians
##ascular
heavens
gotten
complaining
racer
racco
ensign
principality
attracts
counterfe
kariya
tung
terminating
messenger
pleistocene
galleries
josef
hereford
ode
lettering
##faction
polling
munster
plotted
packaged
##aju
saratoga
flowed
husk
husbands
hawke
lovely
apartheid
ethical
495
markedly
banqu
banning
48th
documentation
42nd
elemental
clarity
##raine
durian
fanning
imagin
imaginary
sensation
haired
entrances
elders
challenger
definite
calculation
migrants
skye
1782
experimentation
1773
##iciencies
instructors
exclaim
integrate
vaccine
hartman
##pieces
gangs
bottomley
nicola
bronx
traumatic
substantive
corrected
##recks
implementing
harvested
welcoming
transitional
tufts
safeguard
densely
consultation
bhutan
cobalt
patriotic
yeah
collapsing
tanaka
altering
contexts
carpet
subsidies
bosses
sparks
kanon
##american
arkham
crusader
skulls
dictated
vigorously
erratic
physicians
mcmurray
jessie
obstacle
hogwarts
richest
municipalities
furnished
renault
stalemate
amphithe
remarking
##oppy
tracts
æthelstan
petitioned
professionally
gestation
drifting
bakshi
fragmented
marxism
hilson
stunts
kelley
discouraged
clemmons
vernon
##pherson
tatiana
segregated
mcclellan
detonated
waned
coulter
rahman
maharishi
dishon
lutheran
tattoos
maidens
prescribed
adherents
vijayan
sectors
frightening
categorized
satisfactory
ultravi
bavaria
aggrav
catalyst
ceasefire
caldera
koval
macleod
galileo
hormone
divergence
maclachlan
##volent
miyamoto
fellowship
##lifting
nudity
beecham
herodotus
cognitive
codenamed
ucla
##ozoic
boulder
fidelity
deutsche
lifespan
laundry
python
jokingly
arthropods
schizophrenia
pneumonia
tertiary
inaccess
susquehanna
flamenco
frazier
unpredictable
bunkers
deutschland
hymns
gimmick
wichita
ostensibly
kafka
##ichilemu
upbringing
gaseous
theobald
frusciante
sepinwall
unopposed
ait
bs
busters
bilingual
cud
croy
dp
dov
dell
drey
eso
esh
eald
fost
faded
fairs
gort
gyr
jop
kk
kut
kied
korn
kaj
kiar
lm
lom
lull
laughter
miser
mounds
nier
naugh
ndh
nadi
pg
pw
pest
piet
pets
pik
pots
ropes
sest
sire
sasha
tic
tiber
vet
vents
wre
xia
yash
yolk
yoshi
zirc
##gm
##iw
##dar
##non
##nas
##kl
##city
##creen
##hang
##vat
##mud
##watch
##bet
##bay
##bag
##yu
##yar
##yah
##pitz
##łka
##jic
##jid
##43
##zine
##zburg
##erite
##inians
##edes
##ndi
##esia
##anj
##anians
##alysis
##itano
##isel
tobru
##icable
##icians
##icultural
##ouche
##rea
##ilians
##ampt
##eti
##roch
##aday
##adores
wasted
##acia
##uru
##urian
##uria
##lein
##olation
##idated
##ivities
##otide
##itha
##owered
aloud
aloft
alarmed
withstand
whal
itoi
conical
fries
##eme
chill
##estim
##estown
##agos
##aville
suillus
degr
##rip
##unn
shre
shad
shiv
shish
shade
shaping
##opje
##illian
##akouzen
araf
planners
unification
unreal
unequ
unorth
uniqu
prud
##antan
##antine
##onge
trac
##ipers
##geois
notch
afro
##ianus
##ptions
herne
adel
scal
contenders
intricate
gras
207
mang
maroon
perl
peruv
useless
##ubishi
##oller
commence
disrep
deserve
weas
repelled
upbeat
2018
##achim
evan
evid
carell
preached
boer
##aille
indist
##enser
teens
##ksen
##pless
charizard
parrot
thrive
thrash
knees
remedy
ques
quang
quasi
genital
genuin
sober
pey
regulate
mayo
mons
monaco
moniker
maori
drunken
subgroup
##phoros
phan
schindler
willkie
guang
crested
countless
1700
##aires
sloop
##oye
winthrop
estu
1100
redsh
harrow
##llium
avenues
stargate
header
headlines
varanas
justification
##upon
tyne
1400
##yss
##clay
detain
##obee
##obacter
halves
raft
skins
skopje
camping
squares
##inka
protoc
legions
internally
helpful
organizers
footed
basing
realization
destined
infield
##ckx
superficial
fireworks
testify
morotai
archibald
funnels
tenants
jackman
royalties
authoritarian
animator
affirmed
ordeal
massac
ballots
criticize
selena
freeze
duct
motte
encore
fullback
cambridges
turin
silhou
illiter
praises
strife
culturally
martyn
sampling
civilizations
injected
economies
ernie
robe
purity
purcell
melan
verge
contributes
heartbreak
indicator
smiths
rollins
45th
deadliest
boycot
happily
empir
batters
batavian
batista
berger
322
32nd
lukas
wilder
constructions
ambival
##gaard
olm
favorably
burnley
burnett
administrators
borden
alternately
planting
utmost
establishments
khand
khalid
linn
crowther
babies
masks
aspen
drummers
dunstan
##steen
slept
thicker
##zzo
horsesh
supplier
piloted
misinter
##uffs
39th
chemically
sheltered
favourites
eyewall
stephens
##lamation
bottles
dwind
collaborate
collaborations
collaborative
collaborator
illustrating
joints
adjutant
mercer
sensor
trusts
coolidge
rotated
unfit
narrower
entrusted
spray
##osaurids
cooperate
casualty
kicker
bleak
southwestward
tablet
666
navies
gatherings
1781
1774
sundays
horne
horned
witnessing
jenner
tripoli
belongings
hypn
hayden
grayish
pedal
dramas
surveyor
hartley
wheelchair
1603
labourers
minted
baths
896
kitche
##ozuna
shearman
grasslands
sinister
remembering
wetland
haze
kuwa
mckay
eaton
1750
1758
rabbits
cockro
excessively
assassinated
liquor
umaga
##carriage
gearbox
mesa
rudd
nasr
fungal
spawn
spawning
bulkheads
serialized
cartoonist
espionage
inquest
predicting
pyro
accelerate
intellectuals
physicists
dummy
livery
palladian
fascist
##rocks
knockouts
##ycling
optimism
ornate
overlook
guerrilla
penetration
toyota
tumors
anglia
fulfilling
##angelo
seaman
manipulation
evaluate
superstar
vikings
triumphant
receptor
blacksmith
laughs
fertile
apologized
feminine
reservoirs
inventor
overdub
folks
hilbert
stalls
xxx
heinz
stefan
phosphorus
sylvia
tirpitz
encompasses
yokozuna
criterion
neptun
francesco
sentimental
hakkinen
uganda
subscription
blaze
kaufman
muscular
unfortunate
##steps
venomous
reversal
landowner
gloucestershire
aspirations
balkan
chauvel
phonographic
inevitably
subdivisions
kantakouzen
chromosome
pharmac
pharmaceut
templar
adultery
adolescence
undermine
taxonomic
alignments
hiking
handicap
handicapped
gopal
wielding
outfielder
fugitive
sewage
mitsubishi
rallies
disapproved
syllable
incentive
dissatisfied
krakow
siberia
neurons
hercules
tempest
contaminated
bestseller
cullen
foliage
gallantry
levinson
aircrew
natalie
sidelined
uruguay
thwarted
frankfurt
fruition
accolades
caudal
ignorance
maldon
coherent
telecommunications
ijn
nissan
excerpts
paramilitary
hertfordshire
korsakov
unpaid
mcconnell
superseded
algebra
brabham
##zynski
subfossil
mudslides
sombra
reclassified
zeppelin
genocide
oswego
chennai
kriegsmarine
kuznetsova
angrily
shillings
promulg
penultimate
kiedis
tobruk
unorthodox
genuinely
varanasi
cambridgeshire
ayr
aqueous
bae
cil
cess
cush
dess
dental
diaz
ect
euse
fiss
fife
gp
gail
holog
huss
ik
jann
jaff
javan
kav
kok
konst
lied
lange
lively
lament
lamps
lsd
mord
meld
nore
ngo
nsb
oman
pter
pim
pector
pfe
pichilemu
rue
rector
sally
sass
sledge
tect
tamp
taped
vid
vans
zng
zimmer
μg
##iol
##iantly
##sons
##dot
##dem
##rade
##rude
##kor
##komm
##cers
##hop
##hov
##hoff
##hima
##ułka
##vati
##mor
##mach
##wulf
##fit
##bak
##yad
##ydd
##pd
##pay
##pill
##pace
##juk
##85
##32
##65
##77
thel
##erman
##erina
##inia
##atine
##atown
##enium
##alon
andretti
##isan
##isal
##isot
##reys
##reted
##omatic
##iland
##entiful
##adder
##acp
##acious
stow
stony
forged
##irut
##teric
##otron
##utory
##utta
##ayo
beow
bevin
beirut
alk
alz
whl
anonym
franks
##emi
##emort
heid
heik
##oskel
chu
chatter
choke
##umo
##umann
suk
##essive
degradation
##aprio
##unts
shining
shook
neolithic
##opods
##illusion
##ocles
##icht
ort
plumb
plentiful
unpleas
unjust
prat
##ppo
spook
##antically
trit
trapping
troupe
##asta
notions
afla
##ellular
##ostom
##ostami
##quist
clic
braga
##ustomed
##cco
abused
abrams
afterlife
alluded
alloys
alliances
resh
resched
resorted
aman
ample
amelia
roar
rooft
mangan
##oki
margu
peril
relocate
serum
##ryn
##duction
disillusion
appet
appalach
wey
weaving
goff
goose
##ancey
##actinium
overcast
outing
carous
carlo
intercol
boating
flir
flair
intox
##manuel
##ksh
##angs
blanch
blanche
parro
parcel
accents
filmfare
elastic
eliot
##awks
##ilde
knoll
remed
buys
quests
geneal
soy
emden
##rophy
retracted
airspace
##ribution
thematic
monten
brow
endgame
liable
drac
drills
drilling
drastically
presently
prescott
sauce
phyll
larouche
smel
strains
stratton
guiding
crises
generator
invasive
##anking
longitudinal
edged
receip
##resist
milner
matric
expands
germin
famously
serviced
lobe
pointless
porto
portis
##enness
##elssohn
avi
myrm
advisers
breton
breached
corrosion
collects
tyrant
finalized
triples
##undo
##undy
detract
##appen
housew
skiers
mids
campeche
commandos
calves
keats
keef
protects
protactinium
##scan
entertained
256
257
waterway
watercol
handheld
##heng
casts
weekday
interned
radios
believable
initiation
angola
replaces
lightweight
##brids
electrop
royce
##echobee
##hya
pais
crossings
superf
superiors
248
241
224
221
morales
##afa
profiles
treacher
romani
jackrab
239
golds
earls
##alde
hyster
hybrids
argyll
268
264
trol
traverse
ballroom
primaries
circa
vega
buren
272
seneca
palaces
irrad
irresist
modernization
cuticle
sunken
putin
hardened
mca
satin
wording
311
bombings
ulam
treats
louvre
5000
rainn
closes
practicing
macaul
cruised
economist
erg
erich
robes
curator
pasture
hostages
educate
staffed
narvik
melvin
recognisable
nominate
likelihood
priorities
balancing
removes
disposed
certainty
haas
jacksonville
baton
cornish
specifications
envoys
temperament
reactive
757
75th
domitian
embank
cannibal
pictured
synonymous
springer
vanity
texians
messiah
examinations
ratification
odessa
darby
babylon
ignited
##legiate
imperf
hussein
bradshaw
namesake
accompaniment
risky
cabb
abandonment
franciscan
##zzy
49ers
psychopath
necessitated
perfume
chemist
recommends
honorable
##breeding
fatally
strengths
425
parishes
sustaining
carlton
freedoms
scrapping
collaborating
papacy
pathways
santana
librarian
trusted
tanker
mortimer
hatched
entrenched
jonas
bridget
##urbation
cricketers
gilles
gillan
ecology
snowfall
calcutta
attribution
gaud
hurried
1786
1787
bishopric
1770
protege
exclusion
rubble
corresponded
##iroth
thinner
okay
liturgy
630
seduct
descends
sabre
670
deserts
paralleling
ells
brightness
fluids
douglass
naacp
namib
jesuits
magician
mints
confederates
dressage
hello
installing
690
940
wonders
reunite
turbulent
wether
behavioral
earnhardt
doorway
cameroon
fledged
implicit
insurrection
lorraine
cantillon
reproduced
alleging
lodg
felipe
disciples
yeov
reprint
dependence
sibling
stemmed
rudolf
renewable
bourne
bourgeois
nagar
optional
sorab
diplomacy
hubble
quadrant
mysteries
blinded
sticking
jacobs
pyg
##rodite
nepal
heraldic
bogdan
carnivorous
forecasting
stereotype
crawley
dumped
dustin
guarantees
mongols
pillar
tapered
denny
constituencies
consolidate
fiery
anglian
reorganised
fulfil
randomly
pseudo
yamato
outdated
cotto
manipulated
therape
lipid
idolator
conceal
beebe
spaniards
enthusiasts
cumulative
pentagon
vitamin
buttress
gabrielle
naktong
hilary
vivian
resurrection
superheroes
mendelssohn
remarried
##roscopic
devotional
courageous
beauchamp
igor
amplifier
subordinates
prosecutors
interfering
evolving
fluoride
guru
shouted
ecliptic
kabuki
sarajev
stratford
nuns
jillian
isabel
spontaneously
graft
mercenary
##ithecus
fratern
annoyed
stabbed
sporadic
jealousy
oryx
pompey
apocalypse
bavarian
wandering
expenditures
adversely
promoter
vowel
souven
molyneux
zeratul
tantal
archety
inconcl
bureaucracy
cervical
vassal
incentives
dissatisfaction
overcrow
himalayas
contradictory
##ynthesis
prostitute
dicaprio
klingon
caligula
amalgam
skyscraper
gomułka
prowess
upanishad
wilcox
aesthetics
nikephoros
alvarez
algeria
pesticides
wiped
quarterfinals
arjona
funerary
mathematician
mesopotam
hilarious
lattice
mccormick
rimsky
hiroshima
abbreviated
albatross
okeechobee
sephiroth
goalscorer
avionics
judaism
balcony
aleutian
gyeongju
ntsb
arroyo
africans
abreast
engraver
iihf
ultraviolet
kiarostami
arafat
khandoba
kantakouzenos
pectoral
aflaq
marguerite
intercollegiate
1a
90s
aquar
bight
belling
boles
cg
cip
cib
cinqu
dx
dab
daly
daryl
eid
fx
faw
fitt
fuse
gild
hain
hens
hatt
hines
hasty
h2o
jel
jaz
juba
kett
loring
lays
laker
mather
nang
nath
naj
ole
omar
ping
pause
pines
pah
panch
pumps
rd
rup
rsk
rye
sall
sween
tick
taw
tipped
ubi
vu
wen
wad
xvi
yell
zar
##lap
##liss
##gill
##ska
##dled
##nard
##nage
##noy
##note
##rack
##rene
##tl
##top
##tight
##cup
##cius
##hom
##uously
##vation
##wr
##worm
##wana
##wondo
##fig
##fax
##fjord
##bies
##bish
##bold
##buck
##yder
##page
##pared
##produ
##jav
##jour
##45
##25
##hequer
##eration
##inters
##edo
##org
##atural
##esian
##eni
##enbach
##arp
inward
inexp
##alas
##alya
andric
androm
andalus
##isław
toothed
##elines
##elof
##ecs
##ecki
##stappen
##amily
ons
wass
stav
stella
stela
forage
##olulu
##terweight
##igor
##igence
##utu
##ayashi
beheaded
alps
wha
whaling
ito
condu
##emaker
##ushes
##thman
##herty
##umman
seward
seizing
deus
##istles
##uni
shor
neat
##oplan
arable
aroused
##abes
##abakh
sput
trich
enron
##iegel
##oreal
##ovac
##ounded
##quis
##quette
##outy
click
reclamation
recycling
brune
brushed
##ptive
compress
incest
inclus
##ishn
grt
grays
grampa
209
allah
resupp
robo
roomm
mariana
perch
pertaining
pericles
sheamus
timet
fend
commend
##dup
deser
hasan
offences
overboard
overran
overtook
outwards
coh
##achan
attic
carac
intercon
interplay
preaching
boiled
flaming
##ensely
blm
blames
filing
parole
elgin
##orsky
##atts
thereof
quinc
soaring
peach
mays
##ixed
highs
cola
colise
maureen
ache
defect
defiance
posit
phased
whereupon
lara
northwards
northampton
schw
smug
smoked
strata
guise
##hesh
polly
imply
impass
longhorn
simmons
musicnotes
##azy
slots
sliding
terrac
teresa
divinity
obedience
deported
barley
##tiles
constr
critique
##ologic
redist
loaf
##ernan
portfol
starcraft
starfish
headmaster
headwaters
myles
myspace
advises
bestowed
idiom
swelling
##upac
demean
##obia
promet
midtown
delic
rests
##inkle
keating
##aiman
titus
evenings
##inck
258
handing
deborah
standout
cypress
##onyms
replicate
communion
equations
despair
##esee
jeanne
morals
sumner
statutory
courtroom
royalty
copan
233
sonny
261
projectile
trot
salute
frontman
primate
406
burge
bursts
duan
insec
insists
popularly
lymph
competes
274
276
specialised
specialty
motive
devote
audi
fifties
bowyer
bigelow
sunrise
northernmost
situ
grandchildren
brotherhood
presenter
browning
mcbr
meridian
merckx
bodyguard
garrard
honoring
escorts
godfrey
##araja
snyder
independents
sanitation
directorate
318
martins
sampled
casey
launches
greenhouse
settler
##liner
excuse
exchequer
purd
tarn
drown
recognizable
wilts
verme
verstappen
contributors
platoons
novelty
californium
##ophile
credibility
antiquar
panor
empires
##ushi
haitian
photons
rho
corning
pacing
applies
wildfire
##islav
ultimatum
quartermaster
reacts
shootings
808
embar
entertainer
331
336
immature
immensely
standardized
montagu
ridley
rayne
karabakh
caern
textiles
heroism
ironic
substrate
##cheon
assemblies
gardiner
gala
linux
examines
osaka
citation
undam
boron
filler
mastering
foxes
waived
waits
bounded
munro
benefic
##glers
roswell
accompanies
hawkins
trainers
translucent
490
misc
395
mirage
chemotherapy
ramsey
spectr
proposing
##writing
444
daft
scramb
dwarves
collaborators
eliza
israelis
trustee
prepares
tawn
youthful
interacted
vonneg
wavegu
conditioning
bolster
barbette
grossman
lindelof
definitions
533
aerodrome
migrating
attributable
axes
gaul
57th
hindus
napoli
patrolled
##iformes
lincolnshire
isolate
ssr
vicious
syntax
790
bangui
traitor
constitutes
890
shearer
hanged
welch
welterweight
downloaded
bombarding
1762
1765
baptized
sculpted
1753
carbonate
warmth
recreate
sightings
prohibits
outbreaks
illegally
ahmed
theorists
disappearing
dickens
tubular
rudy
smoothly
renewal
lecturer
sorrow
iconography
analytical
prolifer
quadrang
interpreter
tonga
woolwich
radicals
aleppo
hobbs
##werff
recurrent
parameters
fascinated
furnace
accumulation
forthcoming
mongolia
pandemic
simpler
coincident
koscius
ornament
ornamental
1688
anatolia
outfitted
hebron
outdo
paradig
fingleton
1723
kidnapping
malayalam
diminish
desperately
hastily
nerves
apologised
revelations
kaiserliche
tolerate
backstory
backstroke
bulletin
bilateral
terraces
resurf
confidential
fabricated
devotees
brahman
gutierre
ibm
chopin
adequately
cerebell
outsider
penda
ascending
emigration
cautioned
robbins
basilica
mcgraw
waldo
conveyed
tearing
vanderwerff
denominations
harvesting
krupp
grabbed
reconciled
daleks
chanting
magnetosphere
aurora
plagiar
annoying
bounce
buckinghamshire
rewritten
chrysler
redskins
einsteinium
template
rappers
tulagi
orchard
recapture
overhauled
domestically
vetoed
horton
olafr
wendy
bolivar
succumb
stelmach
cautious
lichtenstein
unimpressed
##odynamic
intervened
clauses
encircled
prostitutes
enrico
enriched
maltese
newcomers
pistols
ordinance
acquaintance
pizza
revisited
beryllium
hernandez
elphaba
asiatic
unleashed
bulldogs
taekwondo
pencil
overshadowed
toilet
unauthorized
steamship
respiratory
fantasies
honeyeater
schultz
hippocampus
extravag
atrocities
combustion
bangalore
homestead
purported
telescopes
ipswich
ineligible
melancholy
bamboo
voldemort
goofy
elisabeth
pegasus
antisem
moffat
eunuch
gebhard
vijayanagara
kovalainen
peruvian
disrepair
evidenced
beowulf
carousel
lodgings
sorabji
sarajevo
inconclusive
gutierrez
3ds
60s
a5
ais
aure
biod
biff
bites
cough
cout
cree
cade
cels
chern
cube
dau
drier
fw
fade
fused
fulton
gim
gable
gird
glands
ginger
hath
hbo
hards
hiber
hilly
iber
jib
jaim
jerm
jeter
jolly
kost
kure
kuch
kinc
lough
luch
lenses
lsu
mama
mersey
nio
ohl
pv
p2
pember
psp
phel
qi
qing
rov
sj
sizable
tb
ull
uci
vog
vase
vaz
wi
ws
yas
yuri
yacht
ypres
zed
zor
zem
##lio
##liness
##lanes
##eons
##gis
##gall
##gart
##gles
##gler
##iard
##iotic
##dow
##dings
##now
##rast
##roup
##tke
##cm
##card
##oil
##ucci
##wicks
##felt
##bb
##yk
##poles
##qa
##jin
##jet
##jiang
##48
##21
##23
##onial
##onte
##oris
##arous
##aroo
inequ
##asers
##isi
##isu
##isco
toes
token
##icits
##ouin
##rem
##ilos
##stra
##stood
##stahl
##amore
##etown
##adish
##acial
##acruz
sturd
forte
##ivel
##imura
bem
beasts
conk
anj
##emani
##andum
chac
choc
##aghy
seoul
suf
suhart
proton
progen
deed
dept
defer
##rift
shing
shab
shaking
neumann
##opolitan
##illation
arth
aragon
arises
ornam
ung
unaff
unex
##abar
prer
leb
spices
spikes
##antes
##udo
truss
##sept
##seau
##astopol
##geon
##ounding
rechar
brains
##aryn
herbal
herpes
compiling
incurred
twain
##ishable
grumman
residing
ames
roe
roh
roo
roch
manch
marches
shea
##ignon
timeline
relayed
fender
##ogie
commenc
parted
disin
disabilities
disarmed
apprehend
##izu
##izal
hasn
playful
playground
##ludes
outgoing
##acha
##lander
carth
carrad
finite
intert
cannes
bohr
meads
##weig
##plet
johan
joachim
parc
pareles
accretion
elle
elites
musket
thrace
##formation
buil
quentin
assure
peps
peirs
emu
emery
emmanuel
retake
airmen
monter
broods
mahesh
engulf
draper
deficits
posse
lars
schur
schwart
wills
guill
cron
crests
caller
supplements
##ittal
##iole
impose
edna
##azon
##aleigh
opium
slu
slips
sloping
##flu
dives
obli
distanced
novi
barrington
barfi
grouping
modify
signalling
juno
juniper
greet
redoub
hars
harley
harassment
##enner
millionaire
avenger
starvation
classmate
roadways
octavian
bookst
finalists
triassic
##undel
##ikon
ska
delonge
restless
magu
magdal
##inkel
calvert
damned
childb
accorded
confinement
approving
303
309
fargo
##otti
radon
radcliffe
believer
organise
membranes
northeasterly
##shid
##shoot
realities
militant
freemason
solitude
cheering
cheval
telev
##hyn
differentiation
superimp
halfback
243
##ipps
##leros
lowlands
historia
petrol
morp
statistically
funky
##hama
treb
mohan
231
needle
affiliation
##aldi
massena
apu
circulating
freeing
halliday
286
duets
duane
insanity
referencing
voter
madh
specialists
encod
malicious
palate
declan
hamb
grandparents
paine
mcve
mcgee
humanities
woodrow
296
honolulu
##aniel
rebirth
hoisted
identities
uran
urdu
holotype
inspected
vocational
rainilai
practised
eragon
contractual
raph
murasaki
naruto
futile
ruiz
tarant
taraki
biographies
wilkes
veracruz
conductors
keepers
platy
##auri
romano
derel
faust
faisal
floral
credible
credential
60th
empowered
poorer
festivities
##married
marketplace
323
325
occupancy
livingstone
investigative
olig
scripture
grooves
sevastopol
reactivated
acquainted
unitary
unsafe
immac
36th
montfort
legislators
irony
blockading
##chett
terminate
psyche
martinique
ratios
conservatory
distributing
consistency
osbourne
1840s
fairbanks
salesman
pollard
pollination
silverman
schedules
1830s
darling
##ographs
##ajo
babe
babyl
babcock
ignimb
massey
drumming
rosy
mosaic
hawking
peacekeeping
splash
rowe
overseen
##winter
ethic
ivory
recommending
stockp
hershey
llan
carla
weighted
drydock
molly
abbots
illustrator
noteworthy
fearless
tallon
sensual
cello
pinfall
unfold
contentious
compressed
owls
mortars
sprink
columbine
##ylvanian
falun
srin
mythical
spreads
gillingham
tabl
snowy
restricting
gaa
danzig
revolts
##omyc
summons
1771
1777
hornets
virtu
azhar
##radar
626
soloist
disneyland
reinforcement
hayward
bernie
##hetamine
unlaw
vacated
fixation
shrines
stretford
censors
mouths
bullock
colonialism
kimball
hydrochlor
815
cleaned
cleanup
mahal
akira
utilities
820
860
doris
dorchester
installations
riel
subtit
lamented
lenny
huntington
kuo
kuiper
benny
pigeons
medicinal
navigational
prohibit
enhancing
harmful
cobra
stemming
molecule
sorcer
cookery
##boys
carpent
sicilian
sickle
catalan
dolly
necklace
overlapped
kanak
panther
accelerating
compounded
revered
clinics
havoc
jumper
reluctance
dumont
siem
obstruction
palladium
seeded
capsule
faulty
accumulate
redeploy
commemorating
remarkably
fractured
ponds
lucasarts
bodied
jamaican
guerrillas
stimulate
ensembles
ovw
vibrant
memorandum
congregations
hebel
seamount
rehab
evaluated
gastro
grenade
vampires
kidnap
cheng
marquette
bakar
bundled
feminism
fragmentation
denton
unconvention
anarchy
psychiatry
tetra
boosted
brahmin
facilitated
stabilize
beckham
transcript
inhibit
conceding
icons
oberst
undergoes
uneasy
bizet
krajina
pendleton
melodrama
strangers
contradicted
fountains
clergyman
dolphin
bethle
staffordshire
chinatown
unprepared
spoof
kathleen
exhaustion
ligament
bulgarians
dupont
certificates
gorgeous
insulting
rhee
diabetes
applicable
subdivision
intriguing
unfavour
falkland
pushes
rewrite
proportional
lobbying
bohemia
chimneys
cambodian
crocodiles
expenditure
incompatible
magistrate
indefinite
peacock
kobe
##omorphic
dwellings
outposts
paranoid
cusp
quirigua
bolshevik
breeze
##arivony
byrds
compassion
luton
zoological
sucking
remembrance
esteem
stelae
inconven
airstrike
refueling
astronauts
restraint
##odynamics
heffernan
domesday
pouring
feasible
feasibility
actinides
midshipmen
mengsk
embarking
disintegration
##speople
inflammation
inflammatory
petroleum
sivaji
aphrodite
##urgical
disbanding
phylogenetic
nonsense
taegu
nanotechnology
resentment
indictment
warbler
vukovar
funniest
palmyra
venezuela
colossal
mavericks
doughnut
anastasia
mccullough
zebra
begging
arterial
relentless
crucifixion
entrepreneur
reaffirmed
disconnected
jacqueline
anarky
hispani
##intyre
philanthrop
krasinski
masculine
grievances
arlene
caricature
gujarat
incisors
siegfried
alleviate
skepticism
molybdenum
nihil
reznor
##othorax
inaccessible
dreyf
esoteric
illiterate
kitchener
maldonado
thelma
unpleasant
trolley
irresistible
cinquemani
sweeney
inexpensive
brunei
coliseum
antiquarian
vonnegut
kosciuszko
pemberton
suharto
commencement
peirsol
rainilaiarivony
aed
aadt
bw
bing
baff
bump
bamb
c4
cim
cudi
dz
dib
dorn
dann
duss
docked
eury
euch
ewing
fy
fist
fcc
foy
fenn
fancy
fumble
fiona
ging
gou
gomez
haus
hott
hagen
joss
kana
kota
kfc
kaja
loph
lining
liga
m1
mites
nub
naw
nino
nero
nelly
pou
pious
pash
pbs
pelt
pows
picket
pods
poured
rb
ricket
ripped
ralf
sver
sill
sbs
tars
tnt
vowed
wł
wic
wot
wap
wreat
wett
xavier
ym
ytter
##lit
##eers
##eff
##gos
##iak
##dain
##dies
##nr
##nall
##rils
##try
##tape
##kt
##cz
##has
##had
##oza
##vill
##mil
##fica
##bol
##pec
##pri
##pard
##jas
##9th
##zt
##zies
##zia
##zier
##zai
##zhou
##øe
##hei
##inas
##onis
##atoo
##enal
##enet
##arcer
andri
##ische
##icin
##reuth
##repres
##amen
##amins
##adh
##adan
##adeth
wasps
##aczynski
stad
stacy
stables
forens
##iral
##iras
alto
alicia
anfield
isk
islay
##chal
##thor
##ainty
##oscop
##esta
##esting
##agle
##avar
##umont
seag
suites
##apel
shat
shok
shana
##opter
##berht
artery
arenas
##ifers
exchanges
plaus
planc
unhar
unacc
prank
lef
leve
tres
traw
trulli
##sek
##iei
haddock
##iparous
##asties
##astrian
##oughby
##mental
##ellas
##ellations
clr
clones
clocks
recipe
brim
ade
scared
schen
incarcer
abduction
intros
##ishima
grange
##soever
resorts
amen
amman
roode
mangrove
##okovic
peri
shepp
relics
##ogative
sera
##rym
##duke
##ilee
disks
diseng
disrael
weed
weis
repel
goats
offseason
offshoot
imitation
coen
coax
coarse
cares
carab
carmel
finch
finisher
interlude
preach
booster
fleche
teaser
mez
meyers
##wey
blaming
warne
warhead
formative
parson
accredited
elida
##orsk
##prom
thromb
remot
buchar
quaker
quota
quicks
quwat
genoa
pept
emory
##ropod
retention
mayfield
maynard
##ribing
monophy
brothel
sykes
colton
endure
maud
maze
liam
##orny
acet
acacia
##uga
##phi
php
phag
phones
schn
schwe
doi
epa
epip
epoch
smet
willoughby
stray
strick
stroud
guadel
guðr
specification
crag
crore
crushing
invoked
showers
setback
setbacks
pops
transatl
divides
shipyards
creations
distrust
originates
novak
novella
annum
annapolis
barring
baritone
barclay
operative
runaway
nearer
nearing
passions
juniors
##speed
histoire
westwards
medina
medica
persistence
##iversity
harassed
aviv
##ulla
mycel
helg
helper
swung
##gger
##ysław
glo
triad
bandmates
##obiles
chrome
skip
##geries
##ussia
squared
gamespy
gamesradar
calam
menzies
townspeople
##tingen
251
watertight
posture
lawler
##heny
winding
explode
parkinson
castell
clubhouse
faraday
propellers
antoin
organisers
valky
valencia
angus
cystidia
champagne
northerly
##bras
rockfowl
viewpoint
tropics
christi
christy
frey
frees
freud
fremont
sideways
sidekick
solicit
fleury
213
totalling
##cken
differential
supermarket
locality
couns
nevermind
leveled
covert
volks
petrus
morally
mi6
miocene
donors
donaghy
courtney
nightfall
moors
mohawk
jackal
englishmen
236
announcer
homo
269
265
266
503
balloons
circuits
burgh
burrow
freezing
departs
halloran
insol
insular
lyd
lyons
specials
##coat
malmo
devers
paler
palis
modernized
horrocks
silenced
##ricted
hopeless
admissions
crock
woodward
woodstock
29s
denotes
establishes
hoop
mixtape
snes
informing
informally
lackl
sooner
holm
diaries
multim
investor
interventions
sammy
##ermo
commentaries
appointing
injuring
bayreuth
widen
macne
breakers
robbers
paste
##linary
figured
excelled
middletown
rupt
tariff
biochem
verify
operationally
dealers
dealings
##beg
violate
violently
352
35th
indicative
badn
##agoons
604
hauled
berries
##knot
envoy
networking
upperparts
suspense
benfica
accessory
feroc
fermentation
selfish
seminary
enslav
policemen
363
colorful
doctr
spirited
libby
vanished
vanessa
winger
admirable
muir
bonded
examiner
astern
astroph
unde
magnates
fillmore
34th
pollin
hospitality
cartier
directional
414
4000
dunk
rosec
mosques
hawth
hawkes
peacefully
vocalizations
translator
dismay
dismayed
##ijn
sideshow
pursu
bonfire
bonnet
##breaker
banished
banjo
fatboy
attends
##writers
submissions
doubling
functioned
functionality
weary
43rd
rodents
orchestras
storeys
altru
jerseys
abbott
crowns
papa
josephine
santo
rescind
##ickson
sensibility
1827
egyptians
pinning
patterned
youths
dreaming
tonnage
narrowed
mulan
normalized
boletus
barbarian
southeastward
linden
nobuo
reliefs
revolted
preferences
orbiting
ghana
chamberlin
orioles
azalea
##hany
hindley
727
napier
hopefully
hypers
warden
pedig
wedge
pretend
otis
sediments
sabrina
tennant
whitby
rumoured
bullpen
737
mahler
gregorian
traject
akh
minefield
corrections
scarcely
scarcity
reneg
buffer
##burne
saxophone
courier
scandals
riga
rigging
1756
lori
loris
lorenzo
salvaged
cockatoo
sights
sighting
vertigo
diploma
lancers
umay
appropriation
lodged
lodging
djokovic
accommodations
extrater
megami
megadeth
johans
lynx
##changing
bourbon
alteration
dolby
temporal
bernardino
solemn
freddy
electronica
amyloid
ringside
michelangelo
alej
masonic
forecasts
jumbo
stereotypical
fascination
burials
hypotheses
ipc
spacing
pandora
zeus
upsetting
optimal
dwarfs
pillau
chadwick
kaplan
baha
nutter
aberhart
ovation
consolidation
vibr
blooms
compromised
##viks
streaks
yankee
seamounts
fiercely
untouch
afforded
affordable
cosmopolitan
bedser
harmonica
tobin
prospero
weser
kidnaps
spaniels
cumming
welded
vitamins
bending
1066
hirst
bubbling
hispanics
flavour
overdubs
stallion
reopen
hatchlings
enactment
corridors
binds
discourage
clemson
csi
neglect
pontiac
kotaku
interfered
await
vaude
athenians
disrupting
sturm
unemployed
washbrook
bootleg
a380
undergraduates
peregr
slipknot
breadth
devonport
spoil
hardcover
anchorage
manifesto
reelection
posterior
lauper
summerslam
gymnastics
merges
dupri
showcasing
lansbury
insults
##lassical
applicants
strokes
abolitionist
sofia
mundo
tensei
arbiter
wesleyan
incubation
domesticated
ingredient
appendix
emirates
rebounded
tadpoles
indefinitely
laurel
ceramics
ethanol
endeavour
dredd
gags
yogo
corvette
bolsheviks
councillor
complimentary
chakot
repealed
barrowman
bolivia
rallied
suffixes
seminoles
roosting
assyrian
nansouty
semifinal
rousseau
intervening
siberian
midshipman
strawberry
leyte
relinquished
metamorphosis
eradication
infectious
prematurely
lumpur
##film
theropods
forefront
intermittent
extinguished
uncontrolled
##wheel
enigmatic
eukaryotes
apprenticeship
gertrude
yahoo
abducted
hesitant
tibetan
swearing
jardine
squeeze
lengthened
meckiff
neoclassical
sparsely
societal
arvn
joaquin
strasbourg
dalmatia
deserves
interstellar
brahmins
arbitrary
enquir
cinnam
giorgio
rotherham
ecuador
anticyclone
yarmouth
freelance
fairey
tiberius
cockroaches
promulgated
amanita
blanchard
portishead
namibia
shoreline
resupply
quincy
caernarf
undamaged
biodiversity
deptford
prerogative
buildup
sluice
superimposed
derelict
hydrochloric
unconventional
bethlehem
hispaniola
disraeli
bucharest
quwatli
guðrø
transatlantic
5s
apl
bov
bise
banc
bival
bai
bering
cows
danced
dung
dopp
ea
ery
etr
eocene
fand
goll
gower
giff
gully
hench
haf
hatter
hla
hagg
ict
ipa
ionian
jap
jailed
jette
jinn
kow
kah
kerm
kung
lore
lath
lann
leng
lup
lute
lili
luna
lds
lutt
mx
nages
nasty
ousted
oerl
poc
pau
pina
psh
pyl
pva
poker
qatar
rour
ruse
rapping
rfc
raleigh
sb
sast
sene
t1
torm
tory
tents
teng
tipp
tending
tgs
tulk
ua
ux
vim
vood
vows
wint
waking
wither
witty
woven
xt
xhin
yel
zx
zan
zamb
zadar
##gang
##gians
##aith
##iery
##dream
##rach
##rays
##kow
##cap
##core
##cian
##cents
##cote
##croft
##hark
##oose
##uper
##mu
##mant
##bir
##pack
##qing
##jed
##jug
##35
##36
##ær
##onius
##ndish
##orius
##alty
##iticus
##isans
togo
##requ
##omial
##eled
##eliness
##elberg
thur
thuc
thyl
##eco
##stru
##amos
##amba
##rocess
ony
##adically
##adysław
wasting
##urations
ston
sten
stumps
##irman
##irming
asper
##ivas
rew
reen
reub
reigned
##imal
##iths
##ithms
##owing
aless
alvin
ith
ank
fri
heyer
##cek
##cey
##verde
##ulos
##andar
##osus
chases
chino
##agraph
##umen
frome
seac
suic
prok
prokary
deft
deeming
##iste
shue
shuffle
##opolis
##ereza
##alla
aryan
aravan
orph
uniting
uninh
unloading
##abo
pras
legged
spoon
##udge
##onga
troms
enugu
##ieves
aflo
##iani
brac
##order
##avez
##cca
herds
adren
adhere
scathing
comput
compatri
compatibility
butlin
abyss
contiguous
204
newest
##urek
##oks
marm
sheldon
timeless
relic
##ogist
disarm
repay
##endale
offenbach
##actyl
upside
outt
coated
cooney
##emberg
preacher
prelude
boar
flop
flieger
##urnal
induce
mek
meiji
##intang
blond
blurred
centur
bett
earns
charco
knicks
##indo
norwood
quakers
##issary
assange
peg
pep
peab
regroup
undermin
retic
daydream
highlanders
brod
syc
syph
follower
mazz
maeda
liar
draining
presiding
subvers
subset
subjug
acrob
##uges
deficient
saunders
northampt
schr
doe
epistle
teaming
singly
smyth
##eping
strath
strands
armaments
crass
craven
revoked
meticulous
southall
addison
addicted
impe
countdown
##erys
belmont
setlist
longitude
welling
simms
simulator
ops
slain
slang
transgender
##oyne
##auch
obverse
crease
distressed
originate
expatri
extrad
provost
provoke
deprec
operatic
esther
##annis
junctions
downey
designations
redund
servic
perspect
lohan
loxton
harun
descript
discom
portico
stepping
##eleine
avril
juvent
classed
breaching
helene
corb
corgan
swap
swollen
##ysz
##ysics
detachments
halley
halsey
skir
midday
streamed
##gerton
##ussen
entom
homeworld
blackm
blackstone
storyboards
postclassic
videog
hume
##iento
farce
farrar
propri
ledge
debating
##pora
angu
southerly
##brough
communicating
rockies
basins
christened
infused
infancy
infrequ
solst
solti
cheating
despised
##echt
##echapel
212
totalled
orderly
behold
counters
246
jeans
firearm
prized
227
volk
peta
mores
archduke
limp
##helia
237
authorizing
labuan
influencing
hyg
salzburg
groundwater
travellers
##echnic
veer
402
405
burlington
madeleine
271
seniors
waller
deviation
irwell
modernist
hamasaki
currencies
wrapping
grandeur
brownlow
croix
garlic
##enthal
godfather
reborn
reboot
italo
sexiest
diagram
diurnal
investiture
jude
socialists
martel
##burst
injust
injection
earthbound
widowed
inns
fundament
curie
curraw
narayan
melville
##preted
willy
cyclists
towing
mccall
derrick
fauna
356
stepfather
banker
dominating
concerted
deepened
frankfort
##ushu
macho
[...]
